#version: 0.2
á »
á º
n g
Ġ t
Ġ c
Ġ Ä
ĠÄ ĳ
n h
Ã ł
Æ °
Ġ v
Ã ¡
Ġt h
Ġ l
Ġ h
i á»
Ġc h
Ġ k
Ġ b
Ġt r
Æ° á»
Ã ´
Ġ m
Ġ s
áº ¿
Ġ nh
Ġ n
áº ¡
áº £
Ġk h
ĠÄĳ á»
Ġ g
Ã ³
Ã ª
Ġ ng
Ġ T
Ġ d
p h
Ġ ph
iá» ĩ
áº ¥
á» Ļ
Ã´ ng
Ã ¢
á» ĳ
á» §
Ãª n
Ã¡ c
Ġv á»
Ġv Ãł
q u
Ġ qu
Ã ¬
áº Ń
Æ ¡
Ġ N
Ġt á»
Ġ C
áº §
Æ°á» Ŀ
Ġg i
i áº¿
Ġl Ãł
Ġ x
Ġc á»§
Ġcá»§ a
Ľ i
Ġ r
Ġth á»
Ã Ń
Ã £
Æ°á» £
u y
Ä ĥ
áº¡ i
a n
Ġc Ã³
o ng
áº¥ t
Ġ H
Ġc Ã¡c
Ã¢ n
Ġh á»
á» ĭ
Ã º
iá» ģ
á» ±
Ã¬ nh
Ġ B
á» ©
Ãł y
ĠÄ Ĳ
Æ°á»£ c
Ġ V
áº ¯
á»Ļ t
ĠT h
á» ¯
ĠÄĳ Æ°á»£c
á» Ł
iá»ĩ n
Æ°á» Ľ
Ġch o
Æ°á»Ŀ i
i Ãªn
Ġkh Ã´ng
ĠÄĳ Ã£
Ġtr ong
a nh
Ã ²
Ġvá» Ľi
á» ¥
Ġm á»Ļt
iá»ģ u
c h
Ġ M
Ġng h
Ãł nh
Ġ 1
iá» ĥ
áº£ i
Ġng Æ°á»Ŀi
i nh
a y
Ã´ i
Ġ 2
Ã ¹
Æ°á»Ŀ ng
Æ° Æ¡
áº§ n
a o
a i
Æ°á»Ľ c
ĠT r
áº ·
Æ°Æ¡ ng
Ġ L
áº§ u
a ng
uy á»
ĠÄĳá» Ļ
Ġ S
áº£ n
a m
á»¯ ng
áºŃ n
Ã¢ y
á» ķ
ĠN g
Ãł n
áº¿ n
á» ĵ
Ġ P
áº¿ t
Ġnh Æ°
Ġn Äĥ
ĠC h
Å ©
u á»ĳ
Ġl á»
Ġnh á»¯ng
u ng
o n
ĠÄĳá» ĭ
Ãł ng
Ġ K
Ãł i
Ã¡ n
Ġn Ãły
Ġc Ã´ng
Ġ .
á» į
ÃŃ nh
á»© c
á»Ļ i
ĠÄĳá» ĥ
ĠÄĳ Ã³
Ġh o
Ã¡ t
iáº¿ n
áº ½
Ġvá» ģ
Ŀ i
Ġtá» «
Ġr a
Ġ (
áºŃ t
Ã ½
Ġg iá»
i n
iáº¿ t
Ġkh i
e o
Ġs á»ĳ
Ã¡ o
Ġ A
Æ¡ n
a u
Ġt áº¡i
ĠÄĳ áº¿n
iá»ĩ t
á» Ń
Ġqu y
áº¡ n
Ġhá» į
Ã¹ ng
Ġth u
0 0
áº ±
ĠnÄĥ m
á» ī
Ġthá» ĥ
Å© ng
áº¥ y
iá»ĩ c
ĠvÃł o
Ġ Q
ĠÄĳá» ĵ
ĠN h
Ġs áº½
Ġ D
áºŃ p
Ġ G
Ġ á»Ł
Ã¡ i
ĠÄĳá»ĭ nh
ĠP h
Ã ©
áº ©
ĠlÃł m
Ġc áº£
Ġb á»ĭ
Ã¡ ng
Ġtr Ãªn
Ġv iá»ĩc
Ġt Ã´i
Ġh iá»ĩn
± c
ĠÄĳ áº§u
Ġm á»
Ġc Å©ng
ĠÄĳá»ĵ ng
Ġph áº£i
Ãº ng
Ġn Æ°á»Ľc
ĠÄĳá»Ļ ng
Ġqu an
Ġs á»±
áº «
Ġnh Ãł
Ġl áº¡i
Ãª u
Ġng Ãły
Äĥ n
Ġnh iá»ģu
á»Ļ c
iá»ĩ u
Ġd o
iá»ĥ m
Ġn Ã³
Ä ©
áº± ng
Äĥ ng
áº¡ t
Ġch á»ī
Ã¡c h
Æ°á»£ ng
Ġth Ãłnh
Æ° a
áº£ o
áº¥ p
á»¥ c
á»± c
Ãł o
Ġ Ã´ng
ģ n
Ġnh Ã¢n
Ġ -
Ġh Ãłng
0 1
Ġd á»±
Ã² n
áº¥ n
áº¡ o
Ã² ng
Ġ 3
Ã¡ p
Ġch ÃŃnh
Ġc Æ¡
ħ n
e r
ĠÄĳá» ĳ
Ġgi a
á»ĳ i
ĠN am
Ġgi Ã¡
áº« n
áº£ ng
uy Ãªn
Ġm Ãł
£ p
á» ĩ
Æ°á» Ł
Ġt iáº¿
Ã¢ m
iá»ĥ n
Ġtr Æ°á»Ŀng
uyá» ĩ
Æ°á»Ł ng
Ġth eo
Ġthá» ±c
Ã¢ u
Ġkh o
ĠÄĳ i
o Ãłn
Ã¡ nh
Ġb iáº¿t
e m
Ġh Ãłnh
áº¯ c
Ġhá» £p
ÃŃ ch
ĠV iá»ĩt
iá»ĩ p
ĠK h
áº· c
Ġvá» ¥
á» ı
ĠÄĳ iá»ģu
Ġc on
áº »
ĠÄĳ ang
Ãº c
Ġd Ã¢n
Ġhá»į c
ĠÄĳá» ģ
Ġh Æ¡n
Ġth Ã´ng
áº¯ t
Ġthá» Ŀi
ĥ n
u áº¥t
á»ĳ ng
Ġth Ã¬
Ã´ n
e n
Ġ anh
Ġnh áº¥t
Ġc Ã²n
áº· t
Ġs au
iá»ģ n
i a
á» ¹
Ġch á»©c
a r
Ġph Ã¡t
Ġl Ã½
uá»ĳ c
Ġtá» ķ
á»¥ ng
Ġ y
á»ĳ c
ĠnhÆ° ng
Ġthá» ©
. .
uyá»ĩ n
Ġth áº¿
á»ķ i
Ġnh áºŃn
Ġs áº£n
Ġt a
ĠÄĳá»ĳ i
Ġv iÃªn
Ġd á»¥ng
áº ¹
Ġqu a
Ġmá» Ľi
u á»Ļc
Ġl u
áº¥ u
Ãª m
Ġtr Ã¬nh
Ġs inh
Ġt áº¿
Ġh á»Ļi
Æ¡ i
iá»ĩ m
á»© ng
Ġngh iá»ĩp
áº¡ nh
á»ĭ ch
á» £
ĠnÃ³ i
Ġm Ã¬nh
Ġc Ã¹ng
Ġt in
áº¡ m
o áº¡i
Ġh Ã¬nh
Ġ Ã
Ġt Æ°
Ġx uáº¥t
Ġch Ãºng
áº¿ u
Ġtr Æ°á»Ľc
Ġb á»Ļ
Ġr áº¥t
Ġk á»
Ġc ao
Ġ2 01
a l
ĠÄĳ Ã¢y
Ġc áº¥p
Ġl Ãªn
Ġx e
á»ĵ ng
á»ĵ i
á» «
Ġtiáº¿ p
iá»ĥ u
i Ãªu
Ġl Æ°á»£ng
Ġ U
ĠQ uá»ĳc
áº¡ ng
áº£ m
Ġ R
Ġ 4
Ġt u
Ã¡ y
Ġn Ãªn
Ġ "
Ġkh Ã¡c
Ġ Ã¡n
Ġlá» Ľ
ĠÄĳ iá»ĥm
Ġ 5
Ġb Ã¡o
Ġk áº¿t
á» ģn
ĠQ u
Ġv Ã¬
i m
ĠÄĳ Æ°á»Ŀng
Ġk inh
Ġt Ã¡c
Ġb áº¡n
áº© m
ĠG i
Ġb áº£o
Ã³ a
o Ãłi
Ġth Ã¡ng
Ġtá» Ľi
Ġs á»Ń
ĠB á»Ļ
Ġtá» ī
Ġt Äĥng
ĠcÃ¡c h
Ġc áº§u
ĠTr ung
iá» ħn
áº£ nh
Ġch á»§
Ġgi áº£i
Ġdo anh
Ġc á»©
ĠC Ã´ng
Ġgiá» ¯
Ġc uá»Ļc
Æ°á»Ľ ng
Ġr áº±ng
Ġt Ã¬nh
Ġv áº«n
Ġl á»±c
Ġh ai
ĠnÄĥ ng
Ġ an
Ġth áº¥y
Ġth á»§
Ġn ay
Ġc Ã´
Ġt iá»ģn
Ġthá» ĭ
Ġtr iá»ĥn
áº¯ n
áº¡ ch
Ã³ ng
áºŃ y
Ġn á»¯
Ġt oÃłn
Ġ X
Ġkh u
Ġt á»ĳ
e s
á»į i
Ġ I
Ġt Ãłi
Ġph Ã¡p
Ġn Ãło
Ġtá» ±
uyá» ĥn
Ġx Ã£
Ġb áº£n
ĠH Ãł
Ä Ĳ
Ġgiá» Ľi
Ġqu á»ĳc
áº¯ ng
Ġlá»Ľ n
áºŃ u
Ġg Ã¬
Ġquy áº¿t
o r
Ġth á»ĳng
u a
Ġgi ao
ĠA nh
Ġtá»ī nh
Ġc áº§n
Ġvá» ĭ
Ãº t
Ġb áº±ng
Ġtá» ¥
ĠM á»¹
Ġm áº·t
Ġph ÃŃ
Ġt Ã¢m
ĠÄĳá» ķ
Ġtr a
Ġ em
Ġph áº§n
Ġt áº¡o
á» Ĺ
Ġth i
e l
Ġch Æ°a
Ġph Æ°Æ¡ng
ĠTh eo
ĠÄĳá»ĭ a
ĠTr ong
Ġph Ã²ng
á»į ng
Ġgi an
Äĥ m
Ġnh iÃªn
Ġl iÃªn
Ġqu áº£
uyá» ħn
Ġ 6
á»ĩ nh
uá»ĳ n
« a
áº ³
á» Ŀ
áº¡ c
Ġho áº¡t
Ġm Ã¡y
ĠNg uyá»ħn
ĠT Ã´i
uyá» ģn
Ġv i
Ġl áº§n
Ġquy á»ģn
Ã ¨
Æ° ng
iáº¿ u
ĠÄĳ áº¡i
Ġ áº£nh
Ġd iá»ħn
Ġh Ã³a
Ġhá» ĵ
Ġt iÃªu
Ġy Ãªu
Ġhá» ĩ
á»Ļ ng
Ġdá»± ng
Ã¡ m
Ġt ÃŃnh
Ġtá»¥ c
Ġth Æ°Æ¡ng
Ġtr Æ°á»Łng
Ã µ
Ġvá» ±c
á»Ł i
Ġb Ã¡n
Ġth Æ°á»Ŀng
Ġh ay
ĠÄĳ Æ°a
ĠÄĳ áº¡o
Ġch á»ĭ
ĠÄĳ áº¥t
Ġt áºŃp
00 0
Ġgiá» Ŀ
Ġtr á»Ł
ĠÄĳ iá»ĩn
Ġtr á»įng
Ġt y
Ġqu Ã¡
Ġthá»© c
Ġs á»Ł
Ġngh Ä©
Ġh iá»ĩu
áº© n
Ġch iáº¿n
áº³ ng
áº§ m
Ġ E
Ġkh ai
ĠH o
Ġtr á»ĭ
ĠT P
Ġnh iá»ĩm
Ġch áº¥t
Ġsá»ĳ ng
ĠÄĳá»Ļ i
Ġb á»ĳ
ĠT á»ķ
Æ° u
á»ĵ n
Ġb áº¯t
Ã² a
Ġ Ã½
Ġho áº·c
Ġth am
Ġtr iá»ĩu
e t
Ġkh Ã¡ch
ĠN á»Ļi
Ġs Ã¡t
ĠÄĳá»ķ i
Ã¬ m
Ġr á»ĵi
Ġb á»ĩnh
Ġch iáº¿
á»į n
Ġx Ã¢y
Ġ F
Ġs o
Ġv áºŃy
Ġtu á»ķi
Ġng oÃłi
Ġph áº©m
Ġm uá»ĳn
Ġd á»ĭch
Ġ1 9
Ġkh Ã³
Ã© p
Ġl Ã£
ĠÄĳ Æ¡n
Ġ 7
á» Ľ
Ġ1 0
Ġk iá»ĥm
Ġb Ãł
Ġch áº¿
Ã© t
Ġb áº¥t
áº£ y
Ġtr ung
Ġg áº§n
uá»ĳ ng
Ġl áºŃp
Ãº p
Ġch uyá»ĥn
Ġc á»Ń
Ġm áº¡nh
ĠÄ ĥn
Ġtá» ·
Ġph áº¡m
á»ĳ n
Ġqu Ã¢n
Ġs Ä©
ĠÄĳ Ã¡nh
Ġc Ã¡o
Ġs Ã¡ch
Ġph á»ĳ
Ãł u
Ġvá» «a
Ġcá»© u
Ġth iáº¿t
Ġv Äĥn
Ġqu áº£n
Ġ J
Ġv áº¥n
áº± m
Ġgi áº£m
ĠV Äĥn
Ġl oáº¡i
Ġt Ã¬m
Ġc Ã¡i
á»« ng
ĠÄĳ Ã¬nh
Ġkho áº£ng
Ġtá»ĳ t
Ġ ,
Ġt ay
Ġb iá»ĩt
Ġt ÃŃch
ĠÄĳ o
Ġb an
2 01
Ġtr áº»
Ġcáº£ m
u á»ĵn
Ġs ao
Ġm á»©c
Ġt Æ°á»£ng
Ġ 8
Ġk iáº¿n
ĠÄĳá»ģ u
uy áº¿n
ĠÄĳ áº¥u
ĠÃ Ķ
áº· p
Ġt Ãªn
Ġlu áºŃt
Ġho Ãłn
a t
Æ°á» Ľi
Ġb Ãªn
h i
Ġkh iáº¿n
ĠC Ã¡c
£ i
Ġm ua
Ġ Y
Ġ áº¥y
Ġch á»©ng
uá»ĳ i
Ġcáº£ nh
Ġd áº«n
a s
i l
Ġt o
Ġn áº¿u
á» ģ
ĠÄĲ iá»ģu
) ,
Ġs Ã¡ng
Ġb ao
Ġgi Ãºp
Ġx á»Ń
Ġph á»§
Ġnh áºŃp
Ġngh á»ĭ
Ġch u
) .
i c
Ġthu á»Ļc
Ġnh au
Ĺ i
Ġ Ċ
Ġg Ã¢y
Ġc Ã¡
Ġk áº¿
Ġch uyá»ĩn
Ġká» ³
Ġc á»ķ
Ġ W
i s
Ġvá» ĩ
Ġd iá»ĩn
Ġh á»Ļ
ĠÃĶ ng
Ġch ÃŃ
.. .
Ġtr ang
Ġgiá»¯ a
ĠT uy
Ġb Ãłn
Ġn Æ¡i
ĠTá»ķ ng
á» Ŀi
Ġd Ã¹ng
Ġ á»©ng
Ġtr á»£
Ġtá»« ng
áº§ y
Ġngh á»ĩ
ĠCh ÃŃnh
Ġ 9
Ã¬ n
i t
Ġlá» Ŀi
Ġl o
Ġph á»¥c
Ġt iÃªn
Ġth Ãªm
Ġtiáº¿ ng
Ġb á»ı
áº· ng
Ġh uyá»ĩn
Ġkh á»ı
Ġch i
Ġm ang
Ã¡ u
o m
ĠÄĳ áº·c
á»į c
Ġh áº¿t
Ġchiáº¿ c
Ġv áºŃt
Ġt iáº¿n
Ġx Ã¡c
Ġb Ã¬nh
Ġlá» ĩ
Ä© nh
Ġgi Ã¡o
áº¥ m
Ġb ay
áº¯ m
ĠNg h
Ġtr uyá»ģn
Ġh Æ°á»Ľng
ĠÄĳá» ©
Ġk Ã½
ĠÄĳ oÃłn
Ã´ m
ĠS au
ĠTh á»§
ĠB Ã¬nh
ĠM á»Ļt
Ġs á»©c
ı i
Ġh áº¡n
Ã³ m
Ġl iá»ĩu
Ġk iá»ĩn
N D
Ġho áº¡ch
Ġtá» ĭ
Ġm áº¹
áº¡ y
Ã³ c
áº© u
áº¹ p
o l
Ġph á»¥
Ġlá» £i
Ġl Ãºc
Ġm á»įi
Ġng uyÃªn
Ġng Ãłnh
ĠTh anh
Ġb iá»ĥu
Ġth ay
Ġth anh
áº¯ p
Ġná»¯ a
ĠNh Ãł
Ġv á»ĳn
ÃŃ t
Ġ O
ĠA n
Ġtr áºŃn
Ġtá»ĭ ch
Ġch uyÃªn
Ġth Ã¢n
Ġtr anh
Ġ2 0
u s
Ġb iáº¿n
Ġ2 00
Ġtr ÃŃ
ĠCh á»§
Ġx em
Ġt Ãłu
Ġthu áºŃt
Ġtá» Ń
Ġ áº
u r
ĠÄĳ áº¡t
o s
Ġl á»ĭch
Ġc á»ĳ
Ġg áº·p
Ġb iá»ĥn
Ġtá»ķ ng
Ġn á»Ļi
Ġtr áº£
Ġm áº¡ng
ĠKh Ã´ng
ĠÄĳá» §
Ġkh áº©u
a d
Ġn áº¡n
Ġm áº¥t
ĠÄĲ áº¡i
Ġch ung
Ġph Ã¢n
Ġr Ãµ
Ġ á»
i Ãªm
Ġv Ã¹ng
Ġb u
Ġv iá»ĩn
Ġng ay
ĠNh Æ°ng
Ġm á»¥c
Ġb á»Łi
Æ°á»£ t
ĠNg a
Ġng uá»ĵn
Ġd Ãłi
Ġ1 2
ĠÄĳ áº£m
Ġb Ã³ng
Ġká» ĥ
Ġch Æ°Æ¡ng
Ġ ai
ĠM inh
Ġnh á»ı
ĠÄĳ áº¹p
Ġx áº£y
Ġv áºŃn
Ġc uá»ĳi
Ġph Ã©p
Ġkh ÃŃ
Ġx uá»ĳng
Ġm inh
ĠH á»Ļi
Ã¹ a
Ġch á»įn
ĠTh á»ĭ
áº« u
Ġd anh
Ġg á»įi
ĠC Ã³
ĠH áº£i
ĠNh á»¯ng
ĠÄĳ Ãºng
Ġmá» Ĺi
ĠphÃŃ a
Ãª ng
Ġgi áº£
Ġtr á»±c
á» Ľi
Ġth ÃŃch
Ġg Ã³
Ã£ i
¢ nh
Ġchu áº©n
Ġt Æ°á»Ľng
Ġm á»Ł
ĠlÃ£ nh
Ġl áº¥y
a c
Ġtr Ã¡ch
S D
Ġs Æ¡
Ġch ia
ĠÄĳ áº·t
Ġcá»Ń a
Ġt iáº¿t
į ng
á»¯ a
Ġch áº¿t
á»ĵ m
l e
Ġg Ã¡i
áºŃ m
Ġb Ã©
Ġc a
Ġs Ã¢n
Ġl ao
Ġt áº¥t
Ġhá» Ĺ
Ġlu Ã´n
Ġm áº¯t
Ġd Ã¹
Ġ1 5
Ġng Ã¢n
Ġkh áº£
Ġth áºŃt
C M
ĠV Ãł
uy áº¿t
Ġhá» ıi
u n
Ġh Æ°á»Łng
á» ħ
Ġvá» £
ĠB an
ĠÄĳá» Ŀi
Ġv Ã´
Ġkho áº£n
i Ãªng
ĠKh i
ĠÄĲ á»©c
Ġ ÃŃt
Ġch á»ĳng
ĠNg Æ°á»Ŀi
ĠN áº¿u
Ġch Æ¡i
Ġx Ã©t
Ġnh Ã³m
Ġg á»ĵm
t er
ĠÄĲ Ã´ng
á» ĥ
ĠCh Ãºng
Ġt Æ°Æ¡ng
Ġnh Ã¬n
Ġ1 1
Ã¢ ng
Ġch á»©
Ġ Ã¡p
Ġto Ã¡n
Ġk Ã©
ÃŃ n
Ġch á»ĵng
Ġc ung
ĠvÃł ng
Ġ á»§
Ġph im
ĠU SD
Ġthu áº¿
Ġn á»ķi
r a
Æ°á» ¡
Ġt áº¥n
Ġt á»ĳi
Ġngh iá»ĩm
Ġlu áºŃn
Ġd Æ°á»Ľi
ĠL u
ĠB áº¯c
Ġy áº¿u
Ġd u
á» ³
Ġtr áº¡ng
ĠÄĳ Äĥng
Ġc Ã¢u
i d
Ġ 0
ĠÄĳá»ĳ c
Ġc áº¡nh
ĠTh Ãłnh
iáº¿ m
Ġc Ã¢y
ĠÄĳo áº¡n
Ġn Ã´ng
ĠÄĳÃ³ ng
Ġth Æ°
ĠnghÄ© a
ĠHo Ãłng
ĠÄĳ Ã¡ng
áº µ
Ġd á»¥c
Ġ3 0
Ġh Ã£
ĠS Æ¡n
Ġc á»¥
Ġb a
Ġs ang
o t
Ġl Æ°u
Ġnh anh
ĠNg Ãły
ĠPh Ã³
ĠÄĳ Ã¡
Ġnh áº±m
Ġb Ãłi
Ġ. .
ĠU B
ĠÄĲ Ã¢y
i ng
¯ u
ĠgiÃ¡ m
Ġkh Äĥn
Ġtr Ã¡i
Ġkhá»ı i
Ġt áº£i
" .
Ġd ung
á»ĭ p
Ġg hi
Ġh iá»ĥu
Ġv Ã²ng
á»Ń i
Ġk á»¹
u Ã¢n
Ġhá» ¯u
Ġáº ¢nh
Ġhá»ĵ i
ĠÄĳ Ã¢u
Ġth uá»ĳc
Ġkho a
Æ°á»¡ ng
ĠÄĳ Ã´
Ġch Ã¢n
Ġtu áº§n
Ġt á»Ļi
ĠTr Æ°á»Ŀng
Ġth áº¯ng
Ġph á»ĳi
uyá»ĩ t
Ġh áºŃu
Ġh Ã´m
Ġkh Ã¡
ĠgÃ³ p
Ġc áºŃu
Ġr á»Ļng
ĠUB ND
Ġt inh
Ġtr Ã²
ĠTr Æ°á»Ľc
Ġ :
t h
Ġs áº¯c
Ġl Ã²ng
Ġd i
áº© y
Ġh iá»ĥm
ĠL Ãª
Ġng oáº¡i
ĠTh Ã¡i
ĠNh áºŃt
Ġch áº¡y
ĠÄĳ áº£o
ĠT Ã¢y
Ġc á»±c
Ġc Ãłng
ĠÄĳ áº§y
Ġchá»ĭ u
Ġch Ãº
Ġth o
Ġph áº£n
e d
u m
ĠTr áº§n
Ġth áº©m
Ġch iá»ģu
Ġh uy
Ġm Ã´i
Ġt Æ°á»Łng
Ġngh e
Ġm Ã´
ĠÄĳ Ãłn
u Ã´i
Ġth áº§n
Ġnh áº¡c
Ġch áº¥p
a g
ĠÄĳá»Ļ c
Ġtr ai
ĳ ng
H CM
Ãł m
Ġs áº»
Ġg á»Ńi
ĠH á»ĵ
r o
Ġm áº«u
ĠT áº¡i
Ġl á»Ļ
Ġc Äĥn
ĠÄĲ á»ĵng
ĠÄĳá»© ng
Ġt uyá»ĥn
Ġb á»ķ
ĠÃ ģ
Ġh áº¡i
Ġph Ã¡
Ġph iÃªn
Ġc Ã¡n
Ġvá» įng
á»Ĺ i
u i
Ġlá» ħ
ı a
Ġc á»Ļng
áº¡ p
ĠD o
Ġthu áºŃn
Ġr iÃªng
Ġn Ã¢ng
ĠmÃł u
á»± a
a p
ĠL iÃªn
ĠvÃł i
Ġngh á»ģ
ĠD Æ°Æ¡ng
Ġngh iÃªn
Ġl Ä©nh
Ġt uyÃªn
Ġnh u
u áº¥n
Ġph ong
ĠÄĳ Ãªm
Ġt uyáº¿n
an d
Ġn áº±m
Ġth iáº¿u
ĠÄĳ Ã´ng
Ġgiá» ĳng
ĠS á»Ł
Ġqu áºŃn
áº¿ p
Ġm Ã¹a
Ġb Æ°á»Ľc
Ġ1 8
Ġho a
Ġm áº¡i
Ġd á»ħ
ĠTh Ã´ng
ĠTh u
Ġng uy
ĠNg á»įc
Ġká» ·
Ġth oáº¡i
ĠV á»Ľi
ĠB áº£n
ĠÄĳ a
o o
Ãº i
Ġph iáº¿u
Ġx a
Ġph áº¡t
ĠL ong
1 0
Ń a
Ġt ai
Ġbu á»ķi
Ġc Æ°
ĠC Ã´
Ġgi áº¥y
Ġh Ã²a
Ġv Å©
ĠT á»«
Ġs uáº¥t
ĠI n
Ġx in
Ġch Ã¢u
Ã¨ o
Ġt ÃŃn
t r
o i
Ġ á»ķ
Ġso Ã¡t
ĠÄĳ Ã´i
l i
ĠV Ã¬
ĠNg oÃłi
ĠL an
ĠQu áº£ng
Ġd Ãłnh
Ġv ai
Ġ Ã´
Ġ '
Ġlá» Ńa
Ġch Ã¡u
Ġ1 3
ĠÄĳ áº©y
ĠH iá»ĩn
Ġt iá»ĩn
Ġng á»Ŀ
Ġn iÃªn
Ġ1 6
Ġ1 4
ĠKh o
ĠLu áºŃt
i r
Ġph Ãºt
Ġd áº§u
ĠÄĳ Ãło
Ġb iÃªn
Ġv Æ°á»£t
á» ¡
Ġh áº¡
Ġn uÃ´i
Ġtá» ©
Ġm Ã´n
ĠHo a
Ġth Ãºc
ĠX uÃ¢n
Ġv ui
Ġl Ã¢u
T T
Ġth áº¥p
á»Ń a
Ġlá»Ľ p
iá»ģ m
Ġkh áº³ng
Æ°Æ¡ i
a k
ĠkÃ© o
Ã³ n
Ġph Ã¹
Ġx Ãºc
Ġch áº³ng
Ġn áº·ng
ĠN Ã³
Ġngh iÃªm
Ġ Ã¡o
Ġth iá»ĩn
Ġd uy
Ġc áº£i
ĠÄĲ áº£ng
Ġn á»£
Ġch áº¯c
Ġth áº£o
Ã¹ i
ĠNgh á»ĭ
o w
Ġch á»Ĺ
Ġn á»ģn
Ġk iáº¿m
ĠH Ã²a
1 1
e w
Ġc Æ°á»Ŀng
iá» ħ
Ġng Ã´i
Ġtr ao
ĠPh Ã¡p
Ġ Ã¢m
Ġá» ¦
Ġb Ã¡c
á»Ľ m
Ġk Ãª
« ng
Ġph Ã³ng
Ġg h
Ġthá»§ y
Ġs Ã¢u
ĠCh á»ī
Ã£ o
on e
Ãº a
Ġá»¦ y
Ġth Ã´i
Ġhá»į p
áº§ ng
Ġkh á»Łi
Ġv iáº¿t
e b
Ġ2 5
Ġqu ay
Ġ1 7
ĠTh áº¿
Ġ1 00
ĠN Äĥm
Ġs ai
Ġs Æ°
1 2
ĠGi Ã¡m
ĠT Ãłi
Ġb á»©c
Ġnh á»Ľ
Ġkhá»ı e
Ġh Ã¡t
Ġtr Ã¬
ĠÄĲ á»ĥ
ĠH Ãłn
ĠÄĲ Ã³
Ġt áº§ng
Ġá»ķ n
Ġth Ã´n
ĠV iá»ĩc
Ġb uá»Ļc
Ġthu Ãª
á»§ ng
Ġá»§ y
Ġth Äĥm
Ġt Ã¹
áº· n
Ġs Ã´ng
Ġch á»¯a
Ġchá»ī nh
o v
Ġs á»Ľm
2 0
Ġm iá»ģn
Ġn inh
Ġ Æ°Æ¡ng
Ġth ÃŃ
Ġn am
Ġqu Ã½
Ġh Ãºt
Ġtá»© c
ĠE m
ĠPh Ã²ng
ĠT H
ĠB Ãł
ĠT iÃªn
ĠC á»¥c
ĠK á»³
Ġph Ãª
Ġv ay
ĠGi ang
Ġk áº»
Ä ĳ
ĠNg uyÃªn
Ġchiáº¿ m
ĠPh Ãº
u t
Ġd áº¥u
Ġm áº·c
Ġth áº¥t
ĠQu ang
Ġv áº»
Ġ ?
Ãº y
Ġh áº£i
ĠÄĳ Ã¡p
Ġt áº¡m
Ġx uyÃªn
Ġm á»ĳi
Ġt Ã²a
ĠH u
uá»ĳ t
n e
Ġthá» Ń
Ġth Ã¡c
ĠV i
Ġch Ã¡y
Ġd Ã²ng
ĠNh iá»ģu
ĠÃ Ĥ
Ġm ong
ĠÄĳ áº¥y
ĠPh Æ°Æ¡ng
Ġb áº§u
p p
Ġl áº½
Ġth Æ°á»Łng
ĠÄĳ au
Ġs á»£
Ġb iá»ĩn
ĠPh áº¡m
Ġngh i
Ġngh á»ī
ĠC on
ĠNg Ã¢n
Ġm Æ°a
Ġ5 0
Ġsá»Ń a
Ã£ n
Ġqu anh
Ġkh á»§ng
ĠK im
Ġtr á»Ŀi
ĠÄĲ Ãł
Ġt á»ĳc
Ġph Æ°á»Ŀng
ĠT Ã¢n
á»ĳ t
Ġt Ã¡i
L V
ÄĲ T
Ġd a
Ġs ung
á»Ļ p
i g
į c
Ġkh áº¯c
Ġ uá»ĳng
Ġ2 4
ĠPh Ã¡t
ĠH á»ĵng
Ġ201 5
Ġtá» ĵ
ĠC Æ¡
ĠD N
N G
Ġc áºŃp
Ġch uyáº¿n
ĠB áº£o
t on
Ġng á»ĵi
Ġc á»¥c
Ġth iá»ĩt
Ġ Æ°u
Ġtr Ã¡nh
Ġ201 6
ĠL e
a v
iá»ħ m
Ġgi ai
Ġtá» ı
N H
Ġk ÃŃch
Ġl Æ°Æ¡ng
ĠH LV
Ġch a
Ã² i
Ġr á»«ng
ĠN inh
ĠH á»į
áºµ n
ĠCh Ã¢u
ĠM ar
Ġlá» Ĺi
á»ĭ nh
ĠCh ÃŃ
en t
Ġ19 9
Ġqu Ã¡n
Ġch á»Ŀ
Ġt á»Ļc
Ġ p
Ġtr Ãº
u p
ĠnÃ³ ng
Ġh áº¡t
Ġx anh
ĠS y
Ġkh Ã¡m
Ġh áº¡ng
Ã£ y
ĠÄĳá» ı
ĠD á»±
ĠV Å©
ĠÄĲ á»ĳi
Ġb inh
.. ..
r e
Ġ2 1
Ġc Ã¡nh
ĠR e
ĠB Ãªn
Ġ2 2
" ,
V N
áºµ ng
in e
ĠlÃł ng
ĠH ai
ĠC Ã²n
Ġm a
Ġd Æ°á»¡ng
Ġtá» Ŀ
Ġ a
Ġth Ãº
u l
ĠÄĲ áº¿n
Ġs áºµn
i e
iáº¿ p
Ġm Ã¡u
i v
Ġtr á»ĵng
Ġx áº¿p
Ġb Ãły
Ġt Ã´
Ġlá»ĩ nh
ĠS t
Ġl á»±a
o b
Ġth Ã¡i
Ġch Äĥm
1 9
Ġc am
ĠG iá»
Ġth áº³ng
i on
ĠT uáº¥n
Ġb áº£ng
ĠTr iá»ģu
Ġnh á»Ŀ
Ġgi Ãłnh
ĠN áºµng
Ġc áº§m
a b
ĠM ai
Ġgi áº¿t
Ġm áº¯c
Ġkh á»ĳi
Ġ Ã¡nh
ĠÃĤ u
Ġn á»Ļp
T C
ar d
Ġh Ã´n
Ġkh Ã¡n
Ã¨ n
Ġl áº¡c
ĠhÃ£ y
Ġ f
Ġc áº¥u
Ġs iÃªu
r an
Ġ Æ°á»Ľc
ĠCh i
ĠNh Æ°
Ġn iá»ĩm
Ġngh Ã¨o
Ġc oi
Ġl Ã¡i
Ġ ÃŃch
ĠA r
Ġl uyá»ĩn
Ġn á»ĳi
Ġm áº¥y
ĠhÃ£ ng
Ġ201 7
Ġm ay
Ġm áºŃt
r ia
ĠB Ã¡o
ĠA l
e x
Ġng á»§
Ġs áº¯p
Ġlo áº¡t
ĠV N
á»¥ p
Ġd áº¡y
Ġnh iá»ħm
Ġs uy
Ġ2 3
á»« a
Ġm Ãłn
Ġhá»į a
Ġk á»ĭp
Ġn á»ķ
Ġ in
Ġtá»ĵ n
Ġ o
T V
ĠÄĳÃ³ n
Ġ Z
am p
ĠÄĳá»© a
l y
Ġtr á»¥
is t
Ġá» ŀ
Ġqu áº§n
á»£ i
Ġt áº·ng
Ġ201 4
Ġt áº¯c
á»© t
Ġh áº¯n
Ġhá» ©
Ġd áº¡ng
Ġthá» ıa
ĠT áº¿t
ĠB a
Ġg áº¯n
Ġch áº¯n
ĠÄĲ Æ°á»£c
Ġt uyá»ĩt
ĠN ew
Ġkh á»ķ
Ġs uá»ĳt
P T
ĠL inh
Ġc Å©
Ġc Ã¢n
ĠTh Æ°Æ¡ng
ĠÄĳá»Ļ t
ĠSy ria
Ġqu en
Ġ áº¥n
o p
Ġc áº¯t
Ġr Ãºt
Ġnh iá»ĩt
Ġl Æ°á»£c
ĠÄĳ ÃŃch
Ġth áºŃm
Ġth áº§u
Ġnh áº¹
Ġth áº§y
Ġtho Ã¡t
¯ ng
u e
ĠV áºŃy
Ġtr áº¯ng
Ġs ong
ĠC Å©ng
Ġthá» ¥
ĠK inh
3 0
Ġt áº§m
ĠNh Ã¢n
Ãµ i
Ġqu Ãª
Ġng Äĥn
Ġth iÃªn
Ġgi Ã¡c
Ġc áºŃn
ĠlÃ£ i
Ġm Ã³n
Ġtr Äĥm
Ġch á»£
Ġl áº¯m
Ġthá» «a
Ġb Ã¡nh
ĠG ia
Ġ4 0
Ġm Ã£
Ġkh áº£o
ĠV á»ģ
Ã¨ m
ĠH iá»ĩp
Ã³ t
Ġd á»¯
Ġ2 7
Ġtr uy
Ġtá» ĩ
Ġvá» ¯ng
Ġch áº·t
Ġx áº¥u
Ġs Ãºng
Ġch Ã³ng
Ġph Ãºc
Ġl ai
i k
u á»ķi
Ġph Ã¡n
á»Ļ n
Ġd á»«ng
Ġd Ã¢y
Ġt áºŃn
Ġ &
ĠC áº£nh
Ġ 000
o u
Ġl Æ°á»£t
Ġg á»ĳc
Ġv ong
á» ·
a h
Ġl Ã¡
Ġnh áº¥n
ĠT iáº¿n
Ġl áº¡
Ġ201 8
ĠÄĳá» įc
Ġx ung
T h
2 00
áº¹ n
Ġb áº¯n
Ġch Ãºt
ĠS á»±
Ġr Æ¡i
Ġ w
Ġn Ãªu
Ġph i
Ġs Ãłng
ĠH Ã¹ng
Ġd Æ°
Ġl Å©
Ġng áº¡i
Ġ201 3
Æ ¯
Ġc Æ°á»Ŀi
Ġtr á»«
5 0
ĠÄĲ oÃłn
Ġl á»¥c
Ġ i
Ġc an
Ġth áº£i
Ġn Ãºi
Ġt iá»ĥu
Ġtr áº£i
Ġgi áº£n
Ġkh Ã³a
Ġth ao
Ġl iá»ĩt
ĠD Å©ng
ı ng
Ġth Æ¡
Ġ2 8
Ġ2 6
ĠÄĳ Æ°Æ¡ng
s e
Ġá»§ ng
ĠS h
Ġchá»© a
Ġm á»Ļ
Ġph áºŃn
Ġmá» Ŀi
Ġng o
Ġs Ã³ng
Ġd uyá»ĩt
ĠT T
Ġs áº¡ch
Ġb áº¡c
ĠQu Ã¢n
ĠÄĳ en
Ġph á»ķ
ĠY Ãªn
c k
ĠH Æ°Æ¡ng
Ġh Æ¡i
ĠTh á»Ŀi
ĠNg ay
ĠVi et
Ġb áº¡i
á»± u
Ġthá»ĭ t
ĠB áº¡n
Ġkho Ã¡n
ĠkÃ© m
Ġ201 2
ĠÄĲ Ã¬nh
ĠV á»¥
ĠNg oáº¡i
Ġng áº¯n
ĠL Ã½
in a
Ġk ia
Ġch á»Ł
ĠÄĳ Ã¡m
Ġh áº§u
Ġb ÃŃ
Ġkh Ãºc
Ġd á»ĭp
Æ°á»Ľ p
á»³ nh
Ġch á»¥p
o d
Ġn á»Ĺ
Ä© a
ĠT áºŃp
ĠTh á»©
Ġc áº¥m
ĠH Ã³a
ĠD Ã¹
Ġh y
ĠKh Ã¡nh
Ġk iá»ĥu
Ġr Ãłng
/ .
ĠL Ã¢m
Ġd áº§n
Ġb Äĥng
ĠKh u
ĠM an
Ġáº ¤
e v
á»§ y
Ġ2 9
Ġs á»¹
ĠB á»ĩnh
Ġt áº¡p
ĠH Æ°ng
Ġs Ã³c
es t
Ġv Ã©
ĠÄĳo Ã¡n
ĠTh á»±c
Ġho Ãłng
Ġtr Æ°Æ¡ng
Ġngh Ã¬n
ĠQ uyáº¿t
Ġn áº¯m
ĠÄĲ H
Ġg áº¯ng
Ġh Ãłi
Ġt Ãºy
Ġ201 0
o k
Ġ201 1
Ġmá» «ng
ĠTr Æ°á»Łng
r i
Ġqu á»¹
% .
Ġ Æ¡n
Ġr á»Ŀi
iáº¿ ng
ĠB ÃŃ
Ġch á»¥c
u b
n et
ar t
ĠV iá»ĩn
il l
Ġnh áº¯c
ĠH Ãłng
ĠG D
Ġb Ã£o
ĠTh e
Ġth iá»ĩu
S N
Ġn iá»ģm
Ġl áº¡nh
P h
es s
ĠÄĳá»ĭ ch
Ġm iá»ħn
c e
Ġch á»¯
Ġh áº¡nh
ĠNgh á»ĩ
ĠÄĲ áº§u
Ġth uyáº¿t
ĠÄĳ em
Ġk Ãªu
Ġs áº¯t
Ġb á»ĵi
ĠC P
Ġb áºŃt
ĠÄĳá» ¡
Ġd Ãµi
Ġt im
t e
Ġc uá»ĳn
Ġb á»Ŀ
Ġx ong
Ġng uyá»ĩn
Ġk Ã¨m
ĠNh a
á»Ļ m
Ġkh uyáº¿n
al d
r y
i ch
ĠTr ang
ĠÄĳ ua
ĠCh Æ°Æ¡ng
Ġch iáº¿u
Ã³ i
Ġh áº¥p
Ġr u
ĠL a
Ġh á»§y
2 3
Æ°á»£ u
Ġqu áº£ng
d on
ĠH Ã£y
Ġt áº¥m
Ġtr áº¥n
t y
ĠThá»§ y
ĠTr Ãªn
Ġch áºŃm
ĠPh ong
Ġt Ã´n
Ġng ang
, .
Ġph Ã³
ĠÄĳ Ã²i
an k
Ġx Äĥng
Ġl áº¯ng
ĠC S
Ġmá» ĩ
el l
ĠJ o
Ġk im
E A
ĠÄĲ áº·c
ĠÄĲ á»Ļ
Ġb Ãło
ĠÄĳá» £i
Ġnh áºŃt
ĠB ar
Æ°á»Ŀ n
Ġch Ãłng
ac k
Ġl iá»ģn
r ai
Ġb Ã£i
oo k
Ġl Æ°á»Ľi
ĠV inh
Ġn á»Ńa
ģ m
Ġk á»ĭch
ĠGi Ã¡o
Ġch áº·n
ĠPh Ãºc
Ġr Æ°á»£u
ĠT a
Ġthá» ķ
Ġ19 8
ĠT Æ°
Ġ6 0
um p
Ġc Æ°á»Ľp
ĠÄĳ áº£ng
Ġd á»©t
o g
Ġáº¤ n
Ġh Æ°Æ¡ng
Ġc Ãł
N g
Ġk ÃŃnh
Ġl oÃłi
ĠV Ä©nh
k h
ĠÄĳ Ãłm
ĠK áº¿t
Ġc Æ°á»Ľi
ĠPh an
Ġkh áº¯p
ĠQ uy
Ġng Ã´n
in es
Ġth uyá»ģn
ĠB iÃªn
Ġm Ã¡i
Ġgi Ã³
á»į a
Ġhá» ģ
s on
or e
ĠV Ãło
Ġkh iá»ĥn
Ġng Æ°á»£c
i an
ĠC á»¥
ĠM áº·c
a z
Ġthu a
ĠP ar
á»ī nh
ag ue
Ġx u
ĠH ÄĲ
ĠÄĲ Ãło
ĠC Ã¹ng
Ġt uy
Ġc áº·p
Ġs á»©
Ġm Ãª
ĠS Ã¡ng
ĠD u
ĠD Ã¢n
ĠT áº¥t
Ġh Ã¨
ĠS a
£ t
Ġb Ã¢y
ī nh
ĠTr ump
Ġh iá»ĩp
Ġng á»¯
Ġs á»¯a
ĠGi áº¥y
ĠH uy
. /.
G T
ĠCh á»ĭ
ĠTh iÃªn
ĠC áºŃu
Ġb ang
ĠPh i
Ġtr Ã´ng
ĠQu áº£n
Ġb uá»ĵn
ĠÄĲ á»ĭnh
Ġm Å©
Ġm áº½
Ġd Ãłng
ĠÄĳá» £t
Ġc Æ¡n
ĠÃ Ĳ
á»į t
Ġt Ã³c
i o
Ġt Ã¡
Ġng á»«ng
ĠÄĲ á»Ļi
Ġng Æ°Æ¡i
Ġ3 1
Ġh uáº¥n
l d
Ġqu Ãł
Ġl áº«n
ĠB r
Ġch Ãło
ĠP V
Ġd á»įa
Ġc Ãº
L ÄĲ
į t
Ġph a
Ġl á»ĳi
Ġdá»± a
ĠGi Ã¡
Ġl y
Ġl inh
ĠM al
Ġcáº£ ng
Ġgi Ãłu
Ġg Æ°Æ¡ng
Ġ5 00
Ġth áºŃp
Ġng Ãłn
Ġth ai
i b
Ġd á»ĭ
Ġn á»Ĺi
Ġb á»įn
Ġr á»§
Ġx á»©
Ġd á»¥
e y
Ġch áº¥m
Ġs Ãłn
Ġm Æ¡
ĠX Ã¢y
ĠC áº§n
Ã© m
X H
ĠL o
c o
ĠV Ã¢n
Ġy Ãªn
f f
Ġtr á»¯
ĠCh o
ĠH á»
ĠIn ter
Ġm Ãły
Ġbu Ã´n
s t
Ġb Ã¨
Ġl an
Ã© o
Ġb om
á»Ľ t
ĠI I
ĠGi ao
ĠKho a
ĠTP HCM
ĠC up
ĠgÃ³ i
Ġx o
Ġnhu áºŃn
o ur
Ġd áºŃy
201 5
iáº¿ c
e z
ĠÄĳ uá»ķi
C C
Ġl Ã¢m
ĠN Ã´ng
ĠTh áº¯ng
Ġkh áº¥u
Ġt ung
Ġkh ÃŃch
Ġtr á»Ļm
it y
Ġd ao
Ġth Ã¡ch
ĠThu áºŃn
ĠCh iáº¿n
Ġra u
Ġkh áº©n
Ġb á»ĳi
ĠC uá»Ļc
Ġc á»±u
on ald
201 6
ĠB á»Łi
Ġtr á»ĳn
k rai
Ġgi Ãł
ĠPh il
Ġho áº£ng
ĠGi áº£i
Ġvá» ¡
áº ¢nh
ĠS Ãłi
ĠC ao
Ġmá» ģm
% ,
ĠÄĲ iá»ĩn
ĠN H
ĠÄĳ e
Ġth iá»ĥu
ĠU krai
N N
ĠÄĳ áº¡n
Ġ7 0
Ġt Ãºi
ĠCh Ãºa
or d
á»¯ u
Ġth Ã¹
c om
Ġqu Ãªn
Ġn Ãłng
Ġ Ãł
Ġv a
ĠL Ãło
ĠÄĳ Ã¨n
Ġm ai
Ġtr i
ĠA S
Ġtr Æ°ng
áº³ n
Ġth áº»
Ġg áº¥p
Ġch áº¡m
Ġl áº»
Ġr á»ĳi
ai n
ĠH y
Ġtr Ãło
s ia
ĠL Ãºc
am a
ĠA i
ĠTh Æ°á»Ŀng
Ġv áº¿t
á»¥ y
ĠH á»ĵi
ĠG Ã²n
li p
Ġg Ãł
Ġg á»Ĺ
ĠT iá»ģn
ĠC á»Ļng
ĠC Ã¡ch
Ġc Äĥng
v n
Ġm Ã£i
ĠÄĳá» «ng
er s
Ġng Å©
Ġng áºŃp
Ġch áº¥n
al l
Ġs á»ķ
ĠH á»¯u
Ġd Ã¡ng
Ġtr áº¡m
o y
or t
ĠC H
Ġr Ã¡c
Ġk m
ĠC Ã¡i
Ġtr áº¡i
Ġh Ãło
ĠTr Æ°Æ¡ng
C h
ĠH CM
Ġtr Ãºc
Ġkhu Ã´n
Ġh Ã´
Ġg á»¡
Ġkh Ã¡ng
Ġt Æ°Æ¡i
Ã Ģ
i f
u d
Ãª nh
ĠkÃª nh
Ġn áº¯ng
Ġr o
Ã£ ng
Ġd Æ°Æ¡ng
Ġm u
ĠTh Æ°á»£ng
ĠI s
n am
Ġ200 9
Ġmá» ¹
Ġnh áº£y
Ġng Ã£
201 7
ĠS á»ĳ
Ġb á»ģn
Ġl a
Ġ e
ĠM á»Ĺi
ĠK iá»ĥm
ĠC Æ°á»Ŀng
ĠÄĳ Ãłi
ĠÄĳo áº¡t
Ġnh iÃªu
Ġh áº¹n
ĠM y
ĠÄĳá» īnh
Ġtr ÃŃch
Ġ áº©n
Ġ19 7
Ġtr áºŃt
ĠD uy
Ġl Ãºa
Ġs áº¡n
ĠPh Æ°á»Ľc
k g
Ġth áºŃn
Ġb Ã²
ĠC ar
L B
i pp
ĠÄĳ áºŃp
Ġgh áº¿
Ġph á»©c
áºŃ c
ĠÄĳ Ã¢m
T P
Ġt Ã¡n
Ġh áº³n
C N
ĠV Ãµ
Ġ 01
ĠB l
ĠÄĲ Ãłi
Ġ ung
Ġ Ã©p
Ġv ua
Ġb áº¡o
Ġ áº¥m
ĠTr á»įng
Ġgiá» įng
ĠT Ã¢m
Ġm áº¯n
Ġbá»ĳ n
Ġng áº§m
Ġg Ã³c
2 2
Ġ8 0
Ġm áº¡c
Ġb áºŃc
m an
ĠUkrai ne
ĠÄĳ áº³ng
ĠB iá»ĥn
b er
ĠQu a
201 4
Ġgi am
Ġlo áº¡n
Ġh uyáº¿t
ĠHu áº¿
ĠC á»ķ
iá»ĩ ng
Ġth áº£m
eb ook
Ġm Æ°u
s en
ĠS ao
ĠB H
Ġb Ã¹
Ġ3 00
Ġk iá»ĩm
Ġng Æ°
Ġnh Ã©
or ld
h a
Ġ3 5
Ġgi áº£ng
ĠT Ã¬nh
ĠB Ã¹i
ĠL Ãłm
ĠL Ãł
Ġb á»¯a
ĠCh iá»ģu
Ġv Æ°á»Ŀn
Ġl áº¯p
ĠK áº¿
ĠI ran
Ġtr Ã¹ng
ĠC ÄĲ
Ġh Ã¹ng
ĠP r
ĠL Æ°Æ¡ng
ĠS am
ac ebook
Ġlá» Ĺ
ĠC A
ĠT oÃłn
ĠC áº£
Ġt iá»ģm
ĠM áº·t
Ġtr Ãºng
Ġch áº£y
ĠHá» £p
ĠL á»Ļc
Ġg áº¡o
ĠÄĳÃ£ i
Ġ3 6
Ġhá»© ng
e c
Ġm iá»ĩng
Ġlá» «a
ĠV Æ°Æ¡ng
Ġkh en
Ġ al
N T
Ã¹ m
Ġnh Ã¡nh
ĠTH PT
ĠlÃł nh
Ġx áº¿
ĠT Ä©nh
Ph one
ĠL ao
Ġ á»ĳng
Ġch á»ĳi
ĠNgh Ä©a
d eo
T r
ĠB Ã¡c
Ġx Ã¢m
ĠI S
ic k
Ġgiá» ıi
Ġkh ung
Ġh Ã¢m
Ġn Ã©t
Ġvi deo
ĠC LB
ĠTh Æ¡
Ġn Ã£o
e g
ĠT Ã²a
Ġho ang
ĠNg Ã´
ĠT S
Ġt ang
ĠC áº§u
Ġm áº¡ch
er a
Ġtá» ıa
ĠÄĲ T
ĠkhÃ³ c
ĠPhil ipp
ĠM áº¹
Ġx Ã³m
h an
ĠH Ã¬nh
ĠÄĲ Æ°á»Ŀng
áº¥ c
Ġ200 8
Ġtá» Ľ
Ġ9 0
Ġph áº¥n
ĠlÃ£ m
al ia
ĠW orld
Ġv ÃŃ
d a
ĠS p
Ġch Ã³
h n
ĠT Ãłu
ĠLe ague
Ġt Æ°á»Ŀng
Ġc áº£n
i z
Ġhá»Ļ p
Ġb Ã³
ĠH Æ¡n
Ġw eb
Ġx inh
Ġhá» ıng
) ;
Ġng on
Ġth ang
ĠPh áº£i
ĠC an
2 4
h ow
ĠAn d
áº« y
ĠS ing
Ġh uá»ĳng
201 3
a x
TV T
Ġk Ã¬
Ġt áº£
ay sia
or k
ĠH á»įc
Ġthá» Ŀ
Ġthá» Ł
EA N
Ġ *
ĠT NH
Ġhá»© a
ĠÄĳá» ģn
t a
Ġb áº¿n
ĠNÃ³ i
ĠC Äĥn
ĠC l
ĠTNH H
Ġrá»§ i
Ġd Ã¡m
ĠL á»ħ
ĠGiá» Ŀ
Ġph Ã¡o
Ġd iá»ĩt
g e
ĠÄĳ Ã¡o
Ġvá» Ŀi
n Äĥm
ĠtÃ¹ y
1 5
Ġch áº½
ĠÄĲ á»ģ
ĠH Ã´m
Ġtr Ãłn
ĠÄĳá»ĳ t
Ġnh Æ°á»£ng
ĠS u
Ġi Phone
Ġkh Ã´
Ġh Æ°
Ġh iáº¿m
ĠÄĳá»© c
Ã ģ
ĠMal aysia
Ġhá»ĵ ng
Ġch Äĥn
Ġtiáº¿ c
Ġsá»ĳ t
ĠA m
Ġngo Ã¡i
ĠT iáº¿p
Ġtá»ķ n
as hi
á»¥ t
ĠPhilipp ines
ĠAS EAN
Ġs a
ic o
ĠB áº±ng
ĠRe al
ĠcÆ¡ m
Ġ +
Ġt áºŃt
Ġnh Å©ng
u ch
Ġng á»įt
ĠA s
á»ı ng
ĠC ity
e p
5 00
ĠC N
2 1
Ġh iáº¿n
ĠÄĲ a
ĠÄĲ á»Ĺ
Ġ >
Ġc á»Ŀ
ĠÄĳ ai
á»© a
2 5
ĠH ar
201 8
Ġhá» ıa
Ġs u
a w
ĠV I
ĠTh á»ķ
r id
am e
Ġt áº¯t
ĠlÃł n
ĠÄĳá»ĵ n
ĠÃĲ á»©c
ĠA pp
ĠT áº¥n
Ġr áº»
Ġt Ãºc
4 5
Ġth Æ°á»£ng
Ġch á»ĳt
un d
Ġv inh
Ġph áº«u
ist an
Ġk ÃŃn
ĠPh á»¥
Ġ4 5
ĠL ai
k m
Ġl ÃŃnh
ĠÄĲ inh
á»ĭ a
ĠM ad
Ġk iÃªn
C P
Ġc á»Ļt
ĠH áºŃu
.... ....
ĠN á»¯
ap ore
Ġc á»©ng
ĠG TVT
ĠÄĳ iá»ĥn
Ġx Æ°a
ĠÃ Ŀ
Ġgi áºŃt
ĠmÅ© i
se a
Ã½ t
Ġhá»ĵ n
ĠS ong
Ġtr á»¥c
Ġb á»¥ng
Ġth Ã¡o
Ġt ao
Ġd Ã¢m
Ġtr eo
Ġd Ãły
i p
Ġg a
ĠM á»Ľi
ĠDo anh
Ġn on
á»Ľ p
i er
ĠT Ã¹ng
ĠH áº¡
ĠQu á»¹
áº¯ k
c a
ĠÄĲ iá»ĥm
ĠTh áº£o
6 0
C S
Ġnh áº¯n
Ġng á»¥
ĠÄĳ áºŃu
Ġh a
Ġl Æ°ng
as s
ĠÄĲ á»«ng
ĠL á»±c
Ġm Ã¹i
Ġth Ã©p
er n
Ġl Ã´
ĠO b
ĠB Ãłi
Ġc Ã£i
ĠM á»įi
Ġr Ãło
es ia
á»¥ i
ĠHu á»³nh
in d
ĠN ai
Ġgi áº¥u
ĠLo an
Ġkh iáº¿u
Ġt Ãłng
Ġl áº§m
ĠCh u
ĠA F
ĠC amp
ĠSing apore
Ġho Ã¡
ĠM áº¡nh
ĠT A
Ġ20 20
ĠQu á»³nh
x i
u k
ĠH oÃłn
m ar
ĠÄĳ iá»ĩu
ĠNh Ä©
Ġb áº¡ch
ĠÄĲ áº·ng
am es
Ġm Ã¡t
ĠS an
ĠE U
s k
ap os
ĠÄĲ Ã£
ĠT á»īnh
ĠTh á»į
Ġ Ã´m
K S
n a
ĠTh á»¥y
Ġr Ãł
Ġth Äĥng
Ġhuy nh
Ġch Ãºc
ĠS o
' .
Ġh áº§m
T S
ĠF acebook
ĠTh á»ĳng
Ġo f
ĠInter net
ĠT in
4 0
don esia
ur o
Ġph Ãº
ĠL Æ°u
Ã© n
Ġs Ã³t
Ġth an
ĠA b
Ġth áº±ng
ĠKho áº£n
ĠJo hn
el sea
Ġl áº·ng
ĠC ty
Ġc anh
ĠlÃ£ ng
Ġmá»ĩ nh
£ n
Ġph á»ıng
Ġth e
ter s
Ġtr áº§n
ĠApp le
Ġch e
as t
Ġnh Ã£n
á»ĩ t
H Ãł
Ġm á»±c
Ġc áº¥t
ĠPh áº§n
ĠD anh
Ġx Æ°Æ¡ng
Ġvá» ı
b ank
ÃŃ a
ĠTh Ã¡ng
ĠCh iáº¿c
Ġd Æ°á»Ŀng
Ġch á»«ng
Ġv áº½
ĠÄĳ áº¿
201 1
ĠA ir
Ġg á»£i
l o
Ġn iÃªm
A T
ĠIn donesia
Ġc Ã¡t
ĠCh elsea
ĠK H
Ġ uy
201 2
Ġth áº£
Ġs áº¯m
ai l
Ġc lip
Ġx Ã³a
Ġv iá»ħn
Ġb á»ĳc
Ġt iÃªm
Ġru á»Ļt
Ġgi Ã¢y
Ġ Ã¡c
ĠTh áºŃt
áº¹ t
Ġng Æ°á»¡ng
Ġt Ã¢y
Ġh á»ĳi
ĠTr uyá»ģn
ĠNg Ãłi
Ġ !
Ġs Ãºt
Ġt an
Ġg Ã£
á»Ĺ ng
ĠCh Ã¡nh
Ġt Ã´ng
m p
ĠOb ama
ĠU n
Ġr á»Ńa
Ã£ nh
ĠCS GT
e k
ĠY ork
ĠH áº±ng
ĠS inh
ĠTr Ãł
l and
ĠV in
Ġm áº£nh
ad a
Ġhá» ķ
Ġd Æ°á»£c
Ġb áº¯c
Ġtá»ĳ n
Ġtr á»©ng
ĠKho áº£ng
ĠX in
Ġt áº¯m
Ġn áº¥u
Ġd Ã¢u
Ġcá»ķ ng
Ġl áºŃu
ĠNh áº¥t
Ġt Ãłn
ĠQu an
Ġb Ãª
at ion
Ġ3 2
7 8
it e
t Ã´
ĠAr sen
Ġqu ang
ĠTh Äĥng
Ġ â
ĠD i
ĠB V
Ġl ang
ra el
Ġlá» £n
ĠÄĳ iá»ĩp
a ch
Ġc áº¯p
ĠB ra
Ġs Äĥn
ĠT u
Ġtr Æ°a
Ġkho e
l ine
ĠQu Ã½
ĠM i
Ġx á»©ng
Ġ> >
ĠT ÃŃnh
ĠC uá»ĳi
201 0
ĠH Ãłnh
Ġtr áº§m
ĠH á»ĩ
ĠT uyÃªn
oo d
Ġmá» ı
Ġb ia
ĠM os
Ġchá»§ ng
ĠÄĳ áº¡p
ĠR o
Ġmá»ĩ t
Ġ3 3
Ġtr Ã´i
Ġb á»Ļt
uch ia
t in
ĠIs rael
Ġtu Ã¢n
ĠH oÃłi
Ġd á»įc
ĠC ol
Ġph Ã¡i
ĠTA ND
ĠX Ã£
Ġch Ã¬m
Ġng Ãłi
Ġgi Æ°á»Ŀng
1 8
ĠA le
Ġ200 7
C B
Ġv áº¯ng
Ġchu á»Ĺi
Ġt Ã´m
Ġh ung
Ġthu áº«n
Ġgi áºŃn
ĠC am
Ġc á»ı
ĠC r
ĠB e
ĠP l
in i
Ġtr Ã²n
ĠTh áºŃm
ĠM Ã´i
Ġch Ã¹a
Ġb áº¿p
Ġh áº£
Ġc Æ°Æ¡ng
I á»
as h
ĠR áº¥t
Ġng áº¡c
ĠGi Ãª
ĠG u
Ġm Ã³c
ĠK iÃªn
ĠR á»ĵi
l Æ°á»£ng
en n
Ã¹ n
Ġs Ã´i
Ġd inh
ĠD iá»ħn
Ġ u
Ã¬ a
ĠNh Ã¬n
Ġ19 6
Ġl áº¡m
Ġx uÃ¢n
Ġlá»ĩ ch
Ġv Ã¡y
Ġgi Ã¡p
Ġnh i
3 5
Ġn Ã©m
u ters
ĠCamp uchia
X VN
en d
Ġh áº£o
S C
Ġn áº¡i
ĠL á»£i
ĠT im
is s
Ġtr á»ĳng
at e
ĠI t
I I
ĠN G
us tr
ĠD av
ĠNg uá»ĵn
Ġcá»ĳ t
ĠT o
ĠT á»ĳi
ng ton
1 7
Ġb Ã¡m
Ġl á»ĵ
Æ°á»£ n
z il
Ġx áº£
Ġvi Ãªm
Ġ3 7
er t
Ġd Ãłn
Ġr áº¯n
Ġg á»įn
ashi ngton
ĠCh ung
c el
ĠX e
Ġh Ãłm
Ġ3 8
ĠArsen al
ĠPh Æ°á»£ng
Ġ4 00
Ġs how
h am
ĠL ÄĲ
es ter
ar a
m art
Ġt Ã¢n
ĠT R
Ġt Ã¡ch
ĠT am
ĠW ashington
ĠC Ã¢u
ĠG r
1 6
y a
Ġt iá»ĩc
Ġc á»¡
Ġt áº£ng
ĠE d
ĠRe uters
ĠS er
ĠR iÃªng
Ġm iáº¿ng
Ġf an
ĠT Ãº
ĠP H
Ġkhá»ķ ng
C T
Ġlá» įc
Ġth iá»ĩp
Ġv en
ph one
ĠB á»ĳ
Ã¹ y
ĠNew s
ĠD e
ĠÄĳ áºŃm
Ġtr á»«ng
h t
ĠÄĳ áº¯t
Ġv Ä©
ĠViet nam
Ġs Ã¡u
ĠCh Æ°a
Ġgi áº¥c
ĠN ÄĲ
ĠM á»¥c
ĠNg hi
Ġng á»±c
Ġm Ã©t
ut in
g i
ĠF ran
Ġng á»±a
± ng
Ġch im
Ġh áº±ng
ĠÃ ļ
Ġmá» ıi
Ġy áº¿t
ĠH áº¯n
ĠPar k
ĠH uyá»ģn
Ġngh iá»ĩn
ic e
p o
Ġr Äĥng
Ġl ÃŃ
Ġm á»ķ
Ġgi Ãły
Ġt Ä©nh
ĠÄĲ B
Ġs ay
ĠÄĲ Ãºng
on a
ra q
ĠB á»ĭ
ĠÄĲ Æ¡n
ĠL Ã£nh
Æ°Æ¡ n
ĠH iáº¿u
Ġ15 0
Ġd ÃŃnh
ĠÄĳÃ³ i
Ġkho Ã¡ng
ĠC á»©
1 4
ĠR onald
ĠA ng
le y
Ġv Æ°á»Ľng
ĠTh Ãºy
n d
ĠM o
Ġth Æ°a
ĠP et
Ġc u
Ġtr iá»ĩt
ĠÄĳá» Ĺ
Ġl Ã²
ĠC o
ĠCh áº³ng
Ġb á»ģ
ĠP utin
ĠMad rid
ĠM a
ĠT iá»ĥu
Ġ200 6
Ġtho áº£i
ĠÄĳá» ±ng
Ġb á»Ľt
ĠI raq
Ġng á»įn
Ġ áº£o
Ġ3 4
u g
ĠÄĲ Äĥng
ĠchÃŃ n
ĠR ob
ĠG al
Ġth Æ°á»Ľc
ĠB Ã¢y
Æ¡ m
iá»ħ u
Ġth Ã¹ng
ĠH iá»ģn
Ġt Ã¡o
E C
Ġng á»«a
ĠCh uyá»ĩn
Ġl á»Ł
Ġkh uyÃªn
ĠÄĲ á»
ĠC a
or n
Ġg ame
ĠL áº§n
ĠTh Æ°
9 0
Ġs Ã¡nh
ĠA ustr
ĠTr á»ĭ
ĠTr á»Ŀi
ĠTr Ã¡i
ĠG áº§n
ĠNh Ã³m
ĠL iv
ĠTr inh
ĠT Äĥng
ĠlÃ£ o
ĠÄĲ áº¥t
Ġx áº¡
g le
ĠC ai
ĠTh á»ĥ
Ġm uá»ĳi
ly mp
ĠN Æ°á»Ľc
I D
ĠT Ãªn
v er
7 0
Ġk g
s ung
ĠÄĲ i
Ġv Æ°Æ¡ng
ĠBra zil
Ġtr Ãł
I V
áº« m
an i
ĠE l
I A
ĠTh iáº¿u
er o
ĠS c
Ġ Ã¡m
Ġch uyá»ģn
ĠÄĳ iÃªn
ĠD ung
F F
ĠÄĳ Ãł
ĠO lymp
ĠA d
Ġm á»ĳc
Ġb Ã¹ng
l in
Ġb Æ¡i
ĠG oo
1 3
Ġc áº©n
Ġt áº¿t
T N
ĠNh áºŃn
Ġd uyÃªn
ĠNgh e
ĠCh á»©ng
B C
Ġbu Ã½t
8 0
Ġ áº©m
Ġâ Ļ
ĠB ÄĲ
ĠTh i
Ġt ÃŃ
t or
Ġv Ãµ
f t
Ġc o
Ġm Ã¢y
Ġl eo
Ġkh Ã¡t
ĠB áº¿n
ĠM il
ĠQ U
Ġcam era
h o
ĠTr á»ĭnh
ĠSam sung
Ġh Æ°u
Ġd Ã²
ĠTr ao
Ġkh uyáº¿t
Ġb Ã¡
Æ°á»¡ i
N h
Ġho an
inh o
Ġd áº¯t
am in
ĠM au
Ġlá» įt
ĠAustr alia
Ġcá»¥ m
Ġm áº¡o
ĠNg Ã£i
ĠB Æ°á»Ľc
ĠTh ay
O S
ĠCh a
ion s
Ġm Ã£n
ĠRonald o
Ġth Ã³i
t i
ĠJ u
ĠT á»±
ĠB áº¥t
ĠGoo gle
il e
ĠX em
ĠÄĲ á»Ļng
ĠÄĳ Ä©a
Ġc Æ°á»¡ng
ĠTh am
Ġng á»Ļ
Ġthá» £
Ġm Ã¢u
b ia
ĠHÄĲ ND
Ġm Ã¹
ĠNh i
ĠH áº¡nh
Ġb áºŃn
T M
áº± n
Ġt á»§
ĠM on
O V
ĠA P
ĠbÃ© o
Ġc á»ĳng
ĠÄĳá» ¥
ĠM ich
ĠD onald
k e
ĠT iáº¿ng
Ġng áº¡ch
Ġta xi
Ġnh á»ĭp
Ġkh Ã¢u
Ġbá»ı ng
Ġv á»Ļi
i et
ĠV id
ar y
ĠÄĳ áº»
Ġnh á»±a
e ng
Ġkhu áº©n
l or
Ġmu á»Ļn
ĠBH XH
Æ°á»Ľ t
Ġgh Ã©p
Ng uá»ĵn
Ġth a
Ġ Ġ
ĠÄĳ eo
ĠÃ´ tÃ´
Ġh áº¹p
ĠR a
Ġ Æ¡i
ĠÄĲ Ã¡ng
ĠÄĲ Ã´
ĠK iá»ģu
Ġkh á»ĳng
áº¹ o
ĠL y
ĠÄĲ á»ĭa
Ġ0 2
Ġth Ã´
t o
ĠNgh iÃªn
Ġv áº£
Ġtr á»į
ĠC Ãł
el a
ĠTh iáº¿t
Ġl Ã´ng
b um
ĠB en
ĠH A
ĠM Ã£
Ġm Æ°á»Ŀi
ĠP al
Ġn Ãºt
á»ı i
Ġsá»ĳ c
Ġm áº§m
Ġqu Ã¡i
2 7
ĠthÆ¡ m
ĠB u
Ġso áº¡n
ĠC Ã¡t
Ġn á»ģ
T Ã´i
Ġg Ã¡nh
áº ¢
ĠM ay
ĠL am
ĠPar is
ĠS áº£n
Ġb á»¥i
ĠC al
ĠÄĳ am
áº ł
ĠM Ã¡y
l a
A M
Ġn Ã¡t
ĠCh amp
t el
Ġv ang
Ġg an
Ġd á»įn
ĠÃģ nh
ĠTr ÃŃ
á»ĳ m
ĠThá»ĭ nh
ĠT N
ĠTh áº¡ch
Ġ im
Ġch ai
9 9
ic a
Ġt iá»ħn
ĠB áº¡ch
200 9
Ġb áº£y
áº ¾
ĠCan ada
m a
ĠC áºŃp
Ġ200 5
ĠN Ãªn
ĠâĻ ª
ĠM at
Ġhá»Ĺ n
Ġ áº¥p
i x
ĠL on
g o
r us
ĠTh á»«a
Ġn á»Ł
Ã Ķ
l er
Ġh Ã²
ĠCh r
Ġnh Ãłng
an s
Ġthu áº§n
ĠB o
ĠOlymp ic
mart phone
ng Ãły
ĠS e
v a
ĠQ L
Ġnh áº§m
Ġl áº¥n
Ġxo ay
Ġ /
Ġtr uyá»ĩn
2 6
Ġd á»ĳi
ĠchÃº a
Ġd Ã¢ng
Ġr áº¡ng
A S
ĠH Ã£ng
ĠW il
ĠH ay
ĠkhÃ³ i
Ġd Ã£
r os
ĠY áº¿n
ĠM er
ĠR om
Ġd áºŃp
ĠÄĲ áº¯k
ĠC áº©m
ĠM Ã¬nh
ĠG S
Q u
ĠY o
ĠDav id
Ġm Æ°á»£n
Ġtr á»įn
ĠAle x
ac e
Ġl áº¥p
P L
Ġv áº¹n
Ġv Ã¢y
Ġb Ã³n
L e
ĠN S
Ġs Æ¡n
Ġtho Ã¡i
ĠT á»Ľ
ĠAF P
ĠK á»ĥ
ĠPh áºŃt
Ġr Ã£i
Ġkh Æ¡i
ĠV ÃŃ
á»ķ ng
Ġcá»§ ng
Ġh eo
Ġnh áº«n
ĠH S
Ġth Ã¡nh
Ġd áº¡
ĠB á»ĵ
Ġkh á»Ľp
Ġ5 5
Ġchu á»Ļt
Ġtr á»Ļn
Ġv áº¥t
Ġth Ã¢m
ĠLon don
os e
Ġch iÃªu
Ġ2 000
Ġlá» ģ
Ġv Æ°Æ¡n
ĠN N
Ġch ua
a el
Ġru á»Ļng
ĠTr uy
ĠV Ãłng
Ġ Ã¡i
Æ¯ á»
ĠCh Ã¡u
Q T
an t
ĠX Ã´
ĠTh áº¥y
Ġ19 5
at h
Ġkh á»©
C H
po ol
c on
ĠTh iá»ĩn
Ġb i
Ġr Å©
ĠÃļ c
t ain
Ġl Ã´i
) :
ĠTh Ã¹y
Ġkho an
en s
ĠVid eo
Ġh Ã´i
ĠChamp ions
Ġhá» ¥
Ġtr inh
ĠS ang
Y T
Ġl áºŃt
Ġ4 8
ĠD áº§u
ĠCh áº¯c
ĠT á»Ń
Ġv áº£i
Ġtu á»ĩ
7 5
l et
Ġb Ã´ng
th Ã¡ng
ĠB TC
ag e
ĠM ess
Ġkh Ã´i
Ġ6 00
2 8
G S
ĠH e
Ġ3 9
Ġk ÃŃ
Ġm Ãºa
Ġ á»©c
Ġs martphone
ĠT e
Ġvá»£ t
I nd
Ġx Æ°á»Łng
ĠC áº£m
ĠV áºŃn
ol a
Ġ %
ĠA t
ĠÄĲ iá»ĥn
ĠA f
Ġm Æ°Æ¡i
ĠL áºŃp
Ġp in
ĠL H
ĠgÃ¬ n
2 9
Ġc ai
Ġh i
ent ina
ĠNh á»Ŀ
Ġs áºŃp
Ġnh áº¡y
er pool
Ġn á»ĵng
ĠH iá»ĩu
Ġk áº¹t
ĠÄĳá» ĩ
G D
ĠÄĳ Ã¹a
ĠL iÃªm
ĠS Ã´ng
y o
) -
ĠNh iá»ĩt
Ġ4 3
Ġch Ãªnh
ĠS ch
M T
Ind ex
ĠTh áº¡nh
au l
Ġng áº¯m
Ġd á»Ŀi
os t
Ġvá» ī
e i
ĠH on
ĠÄĲ áº¡o
Ġ0 3
Ġ6 5
Ġph e
Ġng u
F A
ĠO n
D A
ĠU y
Ġ7 5
Ġqu Ã©t
Ġlá» ıng
ĠM our
Ġl Ã¢y
ĠK r
ng Æ°á»Ŀi
Ġng Ãµ
ĠLiv erpool
Ġd e
ĠL á»ĩ
ĠB er
4 3
Ġb á»įc
Ġd á»Ļi
Ġl iá»ģu
Ġnh á»ī
Ġ Ã¢n
ĠThu áº¿
ĠMess i
ĠM c
ĠV á»ĭ
Ġvá» Ł
Ġk iÃªm
ĠÄĳá»ĵ i
ĠM á»©c
ĠB Ã¡
Ġl á»ĵng
ĠB áº¯t
ĠE x
T GT
Ġx á»ī
ĠLe e
AT O
Ġan d
Ġh Ã£i
ĠP er
ĠÄĳ áº¯p
Ġlá»Ļ n
Ġch Ã©m
l ad
Ġs áº¡t
ĠV Å©ng
ĠM C
ĠII I
ĠMour inho
Ġl Ã¹i
ĠK iáº¿n
o x
ĠQu Ã¡
ĠTr áº¯ng
ĠV áº¥n
Ġd á»¡
b a
Ġch Ã¡n
Ġquy áº¿n
Ġng á»£i
ĠD á»ĭch
ĠH iáº¿n
Ãº n
Ġlu á»ĵng
Ġm Ã¬
Ġkho Ã¡c
ex ico
Ġb á»Ĺng
ĠL áº¡p
B ank
Ľ n
ĠAr g
ĠL á»ĭch
Ġbá»ķ ng
Ġr á»¡
Ġh iáº¿p
ĠV á»«a
ĠT Æ°Æ¡ng
ĠHo l
Ġm áº¡n
Ġng Ã³n
Ġal bum
in o
B á»Ļ
Ġtá»¥ ng
ĠS áº½
ĠD Æ°á»Ľi
ĠO s
ax y
h uyá»ĩn
ĠTr iá»ĩu
ĠB KS
Ġvá»ī a
ot e
an a
Ġsá»£ i
ĠTh Ã¡p
ĠQ uyá»ģn
Ġb Ã¡t
Ġ Ã¹n
ĠM áº«u
ig ht
g iá»
PT NT
ĠN a
ĠS á»Ń
s ite
ĠGiá» Ľi
Ġ0 5
ĠTr iá»ĥn
Ġmá» Ŀ
ĠGal axy
ĠB al
ĠB ay
i en
x Ã£
ĠH áº§u
ĠM exico
Ġ4 6
Ġph iá»ģn
ĠL ib
ĠcÃ³ c
Ġmá» ıng
ĠC TC
_ _
Ġm áº¿n
ĠTh Ãªm
Ġch Äĥng
Ġn áº£y
ĠH N
Ġgi Ã¡n
it ed
k o
Ġthá» ±
I C
ĠE r
ĠV á»
ĠBar ca
an mar
ne y
Ġn á»¥
Ġtr iá»ģu
an e
ĠÄĲ Ãłm
Ġm á»ĵ
ĠT op
Ġt iá»ĩm
ĠB ÃŃch
Ġ12 0
ĠB ang
į a
Å© i
ĠS Æ°
Ġ Ãºy
ĠÄĲ Ãªm
Ġx Ã¡ch
Ġtr Æ°á»£t
ĠNH NN
ar e
Ġd á»ĳc
Ġb Ãºt
Ġho Ã£n
Ġl á»¥t
ĠCS ÄĲT
Ġtr Ã¹m
Ġc áºŃy
k a
Ġb Æ¡m
Le ague
Ġth áº¯t
ĠJ ong
ĠCh ar
Ġ áº¡
ĠV an
on y
Ġ Æ°a
Ġhá» Ł
Ġth Ã¡p
Ġho áº¡i
Ġv u
1 00
an o
ĠÄĳ áº±ng
qu áºŃn
ĠV FF
M á»¹
Ġk o
ĠArg entina
ĠX uáº¥t
ĠC áº£ng
Ġmá» ¡
ĠHÄĲ QT
E D
ĠH C
u c
Ġc áº¯m
ĠMy anmar
á» ¦
ĠP C
ĠX uyÃªn
ol d
Ġs Æ°u
Ġd Ä©
A N
c ow
ĠV ÄĲ
Ġ on
Ġd á»ĵn
Ġhá»¥ t
3 00
ot a
ĠM U
Ġnh áº¯m
ĠÄĲ o
ĠÄĳ uÃ´i
er ia
ĠF or
ĠKh Ã¡ch
cel ona
Ġb áº¿
ĠG ames
ĠM Ãły
G L
b ur
Ġm áº·n
Ġe uro
Æ°á»Ł i
al y
o c
ĠJ ack
ĠÄĳá» Ľn
r am
ĠÄĲ áº¡t
ĠMos cow
T B
on d
Ġ4 2
Ã Ĭ
4 7
i es
I S
Ġb áº©n
it h
ĠCh Ãº
Ġto p
T X
et h
ĠÄĳ Ãª
C K
Ġv oi
ĠM V
ĠT ao
á»ĳ p
ĠS al
ĠT ÃŃn
4 6
3 6
. ".
Ġtá» įa
áº· m
Æ ł
ĠQ H
Ġc Æ°á»Ľc
Ġch Ã©p
ĠN ATO
Ġthá»ķ i
ĠS Ä©
ĠU S
Th eo
Ġ4 7
ĠC om
Ġ200 3
ĠV á»£
ĠH IV
ĠGD P
Ġh uyá»ģn
ĠBar celona
Ġtá»ĵ i
Ġch Ã´n
ĠTr áº£
ĠÄĲ Ã¡nh
Ġg Ã£y
ĠA g
l es
Ġph u
ĠPr em
Ġch inh
ĠC á»Ń
w ard
Ġph iáº¿n
Ġ4 9
ĠM Ã¹a
Ġg om
áº ¤
Ġg áº¡ch
ĠÄĳ áº§m
ĠÄĳá»ĳ ng
ĠW al
ĠNh Æ°á»¡ng
Ġtr Ã¡ng
á»ĭ n
Ġh iá»ĥn
Ġ á»ĳc
TT XVN
Ġkh Ã©o
Ġl Æ°á»Ŀng
ĠD ai
Ġr á»±c
ĠPh ÃŃa
e en
ĠM ic
ĠT á»·
ik e
Ġ200 4
V iet
ĠV al
Ġvi rus
Ġkho áº£nh
ĠTh áº§y
ĠP GS
ĠS eo
% /
Ġth áº§m
ĠN D
Ġr áº¯c
ĠKh ai
Ġk em
ĠW ind
ĠM ac
Ġ8 00
ĠÄĲ an
ĠS iÃªu
y l
Ġdá»ĭ u
Ġnh á»Ł
ow s
ĠH Æ°á»Ľng
Ġb á»Ļi
Ġ5 1
Ġ4 4
Ġm áº£ng
ĠP ro
O T
ĠHu á»ĩ
ot t
ĠT Ã´
Ġnh ÃŃ
ĠM Ãł
ĠM or
Ġl ong
Ġgi Ã£n
ĠT iÃªu
ĠG eo
D I
ĠV H
g han
ĠTr áºŃn
Ġng Ãło
ĠB á»įn
ĠQ ÄĲ
Ġtr Ã¢u
ĠM in
Ġh ang
ĠT á»Ŀ
Ġ ong
Ã© c
Ġb Ã¬
Tr ung
Ġg á»ĳi
d i
Ġr Ã©t
Ġvá» Ľ
ĠC ub
ĠS EA
ĠT Æ°á»Ŀng
Ġl ÃŃt
Ġ25 0
ĠTu áº§n
is h
ĠV iÃªn
ĠÄĳ Ãłnh
ĠP ak
Ġd á»Ł
Ġweb site
Ġs á»¥t
ĠCh ia
Ġm á»įc
Ġgh Ã©t
Ġvi t
ar k
e a
iá»ģ ng
Ġc áº¡n
ĠÄĳ Ã¡y
ĠT om
CC C
ĠE n
ĠCh á»£
an n
Ġl á»©a
ĠcÃº m
ĠÄĳá»¥ ng
v e
Ġn Æ°á»Ľng
Q ÄĲ
ĠTH CS
P C
ĠS en
m m
ĠCh uyÃªn
E O
ĠAf ghan
ĠÄĲ Ã´i
ro id
ĠC Ã¡
ĠT V
Ġvit amin
g h
ĠNh Æ¡n
Ġlá» ¡
Ġs an
Ġm Ã³ng
- -
ĠÄĳ áº¯c
Ġl Ã¹ng
Ġnh an
Ġh Ã²n
Ġph á»ķi
Ġngo an
Ġtho Ã¡ng
ĠUn ited
Ġx Ã´
Ġch áº£
ĠHon da
ĠV en
ĠAfghan istan
á» Ĳ
4 00
ĠS H
en a
3 8
ĠNg Ã´i
Ġho t
ĠH am
Ġm anh
Ã Ĥ
Ġs Ã¡p
Ġc Ã¡p
Ġr Ã¨n
ĠT Ã´n
ĠL áº¡c
ĠS tr
Ġ )
Q H
ĠS Ã³c
m e
ĠTh áº§n
ĠBH YT
ĠGiá» ¯
ĠS á»¹
á»ı a
o ft
kh Ã´ng
Ġng Æ¡i
Ġh áº¡m
U SD
Ġm Äĥng
Ġg Ã¡c
Ġtr áº¯c
er ry
Ġm i
ĠÄĳá»© t
Ġn áº¥m
ĠPrem ier
Ġkh Ã´n
Ġ200 1
7 9
ĠC á»Ńa
Ġl Äĥn
Ġph un
Ġm Ã²
Ġc Ãłi
ber g
tain er
ĠTr áº¡m
K h
ĠT ay
X X
Ġl Ã¢n
........ ........
ĠL áº¡t
g on
ĠPh Ã¹ng
ch ester
ĠVÄĲ V
ĠT w
f i
ra b
Ġb á»ĥ
ĠF er
ĠK á»¹
TT Q
Ġc á»±
D C
Ġ200 2
Ġ6 4
Ġl áº·n
ĠY Ãªu
N ÄĲ
Ġch áº©n
ĠHA GL
e al
ĠP CCC
ĠWind ows
Ġnh áº¡t
Ġt uyáº¿t
Ġm á»¥
Ġm Ã¨o
ĠTuy áº¿t
Ġph áº¿
Ġd Ã¡n
ĠV ic
Ġ8 5
ĠI r
ĠT uá»ķi
ĠNh ung
ĠCub a
ĠMich ael
Ġng á»±
Ġc Ãºng
Ġtá»± u
s h
ĠAnd roid
Ġtho áº£ng
Ġr Ã²ng
Ġx ao
Ġ7 00
Ġr á»Ļn
ĠTh áº©m
Ġm áº»
Ġv áº¡n
ur a
ĠB áº¡c
3 3
ĠQu áº£
ĠJ e
Ġl áºŃn
Ġt á»ĳng
ĠPh iÃªn
Ġ4 1
e ar
Ġc ay
ot te
Ġ0 9
ĠD uyÃªn
ĠB Ãłn
ĠV TV
ĠTr áº»
ĠC ung
Iá» Ĩ
ĠB á»ī
ĠJ ames
ĠLÄĲ LÄĲ
Ġx Ã´ng
in s
Ġl áº¯c
Ġin ter
Ġkh á»ĳn
Ġd Å©ng
ĠO r
Ġ5 6
Ġl Ã¡t
4 8
ĠAng el
in k
p r
ĠPak istan
Ġg áº¯t
ĠNh u
ĠMar k
3 7
ĠB S
kh o
T A
á» µ
Ġthá» į
e e
Ġká» ģ
Ġngh á»ĭch
ĠHo áº¡t
ĠtÃŃ m
b y
ĠMic ros
Ġ ;
Ġcon tainer
ol l
ĠL áº¡i
ĠT Ã¬m
Ġx i
ĠM áº¥y
% ;
Ġkh Ã¡i
ĠT ok
Ġl áº·p
ĠG re
N A
Ġin ch
ĠK y
J C
D L
Ġkh iáº¿p
Ġt áº©y
Ġh áº¡ch
d o
ĠCÄĲ V
f ord
Ġn áº¿p
Ġd á»ĩt
Ġ á»ĵn
Ġb áº¯p
ĠS Ã¡u
ĠGeo r
Ġs uá»ĳi
ĠMicros oft
áº» o
ĠD on
ĠC á»±u
Ġ á»ĳm
Ġng á»Ļt
ĠC áºŃn
Ġth áº¥u
ĠT oy
l ines
ĠPh áº¡t
giá» Ŀ
Ġm Ãłng
m er
Ġtr Äĥng
9 5
ĠV Ã¢ng
Ġr áº£i
Ġb Æ°u
ĠR os
Ġ Ã´n
Ġ j
Ġh iáº¿u
ĠK ar
Ġch Ã¢m
ĠH ong
b o
ĠB Ã©
ĠG a
Ġl Äĥng
Ġnh o
w ood
Ġg á»¥c
Ġt Æ°á»Ľc
Ġn Ã£
Ġkh Ã©p
n er
Ġd Æ°a
Ġm en
us h
ĠK iáº¿m
ĠKh Ãª
Ġt Ã¡m
Ġx Æ°ng
Ġk iá»ģu
Ġ5 4
ĠK on
Ġgi Ãłn
ĠÄĳá» Ľi
ĠÄĲ Ãłn
Ġtá»± a
Ġs Ãºc
ĠMan chester
H N
Ġ6 3
Ġk Ä©
K T
Ġnh áºŃu
Ġg ay
Ġc Ã´n
ĠH uyá»ĩn
5 5
ĠB áº£ng
Ġinter net
ĠK T
ĠÄĳo an
ĠTr Äĥng
ĠCh Ã¢n
x it
Ġáº ¢
Ġo an
ĠMil an
Ġqu Ã£ng
Q G
Ġkh e
Ġd áº¡o
Ġ ao
ol f
ĠCh áº¥t
á» ĥn
ĠC áº¥p
Ġ201 9
Ġch áº·ng
ĠGi Ã¡p
Ġ5 8
Ġ5 2
ĠC Ã¢y
ĠC B
ĠN Ãły
Ġs á»¥p
Ġx Ã¡
ĠOn line
ĠÄĳ Ã²n
ĠHÄĲ XX
Ġr á»ī
Ġl Æ°á»¡i
ĠN iÃªn
Ġ199 9
ĠRob ert
á»§ a
ĠÄĲ Æ°a
3 1
Ġh á»ĳ
ĠB Äĥng
ĠÄĳá» įng
ĠM Ã´n
u z
Ġcu á»ĵng
Ġm á»Ļng
Ġho Ãłnh
ĠB OT
Ġx ÃŃ
Ġr áº½
ĠG l
Ġm an
ĠH D
Ġth iÃªu
ĠS k
ĠChr ist
ov ic
ar i
Ġtr á»Ļi
Ġh Ã¡i
Ġt áº§n
ĠH iá»ĥn
ĠPh á»§
ĠM as
Ġngh iÃªng
ĠAir lines
Ġg Å©i
U Y
Æ°Æ¡ m
Ġg en
ĠS un
Ġth Ã¡m
Ġc á»Łi
Ġk á»ī
3 4
ĠV iáº¿t
Ġc ong
Ġd Ã£y
Ġr á»ĥ
Ġl i
Ġho Ãłi
ĠÄĲ iá»ģn
B Ã¬nh
áº ¬
Ġl Æ°á»¡ng
Ġt Ã³m
Ch Ãºng
Ġx ÃŃch
Ġh Ãł
ĠT á»Ľi
Ġr áº¡p
ĠTh Ã¡nh
one y
3 9
Ġ199 0
ak e
Ġtr á»ħ
ĠV ÃĢ
8 8
t á»«
ou th
ĠS Ã¢n
ĠÄĳ uá»ĳi
ĠKh áº¯c
ĠPh Ã¢n
ĠV ua
ĠBl ack
Ġr á»ĵng
Ġm á»ī
ĠV KS
ĠQu áºŃn
Ġth áº¯n
ĠÄĳáº¿ m
ed ia
iv e
at t
Ġd áº¡i
ĠTT XVN
Ġl á»Ļi
ĠB Ã¡i
ĠToy ota
Ġs ex
Ġch Ãª
Ġch Ã¨
Ġc á»ĳc
ro up
ĠDai ly
Ġ9 5
ĠL áº¯k
ĠE uro
Ġc áº¯n
Ġk iá»ĩt
Ġ0 4
ĠV áº«n
ĠPh im
ĠN or
ĠTok yo
ĠÄĳ Ãºc
ĠI d
ĠÄĳ Ã¡n
ĠL áº¡ng
us t
Ġnh Ã¬
ÃĶ NG
b iz
ĠTh o
4 9
Ġl Æ¡
Ġd Ã´ng
Ġr anh
Ġt Ãª
Ġgh en
Ġth áº¯c
ĠlÅ© y
ĠN o
th eo
ian o
Ġkho Äĥn
ĠC or
Ġng Ã´
ĠL iÃªu
ĠN Æ¡i
ĠH er
C ÄĲ
ĠM uá»ĳn
Ġd áº£i
ĠTr Ã¡ch
N am
Ġ0 6
0 5
Ġs Æ°Æ¡ng
Ġk iá»ģm
ĠM od
Ġ5 7
id e
Ġtr Ã¢n
ĠTo Ã¡n
e et
ĠS w
ĠTim es
ia l
ot h
ĠL iá»ĩu
Ġr ung
ov a
ĠPh Ã³ng
ĠP aul
Ġl Ãµi
G B
ĠTh Ã¢n
ĠCl in
á»ĭ t
Ġgi áº¿
ĠM iss
Ġ199 8
% )
3 2
ro w
c ar
ĠG en
Ġx Ãł
6 00
ĠX II
Ġm Ã¡
ĠGiá» ĳng
S G
ĠB áº£y
Ġh Æ°á»Ľc
Ġlu i
6 5
ul l
ĠÄĲ ang
ĠÃģ o
ĠWil li
ĠÄĲ á»ĵn
Ġkho ai
ĠV iá»ħn
c m
Ġth áº¡ch
Ġbu Ã´ng
ĠM TTQ
ĠK Ã´ng
Ġn á»©t
Ġh áºŃn
ĠCTC P
ĠB á»©c
ĠK ong
ĠA NT
ĠL á»Ŀi
Ġkh Ã¡nh
ĠHar ry
ĠÄĳ áº¯n
Ġ6 7
at a
ĠY ou
Ġb Äĥn
ub e
ell a
Ġkhi Ãªu
ĠKh á»ĳi
ĠCh Ãło
Ġt áº·c
Ġ Ãło
ĠB iáº¿t
Qu áº£ng
qu e
p e
Ġquy á»ĥn
ĠCN TT
ĠC Æ°Æ¡ng
ĠÄĳ áº¡c
I M
Ġh iá»ģn
200 8
o un
á» ¤
ĠS JC
ĠKh á»Łi
ĠSt ar
ĠLH Q
Ġnh Ã¡t
el d
Ġnh áº·t
ĠTr Æ°ng
ill a
Ġth áº¥m
Ġ Ãªn
r en
il y
ĠN Äĥng
Ġd á»«a
% ),
ĠM á»Ł
et t
ĠA N
Ġ6 6
orn ia
Ġb áº¥m
Ġph anh
it ter
ĠBay ern
ĠT M
8 5
Ġh Ã©t
ĠT Ã¡c
Ġt Ã¹ng
ĠGi Ã¡ng
ĠX Ã¡c
Ġho áº¡n
Ġn áº¡p
m y
ĠLib ya
Ġl Ã¡ng
Ġch Ã¬a
if ornia
Ã į
ĠD el
c Ã³
Ġch á»Ńi
x y
Ġng Ã¢m
ĠIt alia
an ia
ĠPh Ãºt
ĠV á»ĭnh
ĠJ ose
Ġm á»ĵi
Ġc Ãºp
Ġp r
ĠC ap
Ġ á»Ľt
Ġso i
e ch
C Ã´ng
á» Ĩ
ĠK CN
ĠV Ã¹ng
ĠQu Ã¡n
v ent
o ck
Ġch uá»ĳi
Ġd áº¹p
Ġn á»ĵi
ĠH TX
Ä Ĥ
ĠC lip
Ġ5 3
ĠL oáº¡i
Ġto ur
w w
ĠV y
ĠTr Ã¬nh
os h
ĠS ai
Ġm Ã²n
r on
ĠX á»Ń
ĠNg Ãłnh
ĠR am
ad e
8 00
ĠQu áº¿
Ġh u
ĠClin ton
ĠC á»ĳ
Ġvá»Ľ t
ĠI V
tr ong
ĠCal ifornia
ĠS l
Ġb á»Ļc
al a
ĠS i
Ġs Æ°á»Ľng
N et
4 1
ĠT y
ĠNh Ã£
ĠCá»Ń u
ĠIt aly
ĠTr e
ĠVic tor
Ġ Æ¯
Ġ5 9
ĠV lad
ĠP an
ot o
ĠL i
Ġk áº¹o
' ,
Ġch anh
Ġv Ã³c
ĠHC V
z a
ĠÃ įt
Ġb á»ĵn
Ġph Æ¡i
Ġra d
Ġqu i
ĠV P
ĠTr Ã¬
Ġ6 8
Ġv Ã£
ĠU á»·
ĠW est
r l
n y
Ġgiá» įt
ation al
Ġkh uy
ĠHo áº·c
Ġs t
Ġt Ãºng
ĠvÃł nh
ĠC T
a e
Ġch áºŃt
. ,
ĠT uyáº¿n
ĠN áº¡n
4 4
Ġh am
ĠSt e
ĠO anh
TN O
Ġb Ãłng
ĠbÃ¹ n
N E
ĠV OV
ĠF I
e on
p er
ĠR á»ĭa
ic s
ĠTr áº¡ch
ĠN T
ĠS hi
Ġvu Ã´ng
ĠÄ Ĥ
ĠJ on
Ġm m
N LÄĲ
ĠHN X
ĠS á»©c
Ġ7 2
Ġ9 9
Ġr Ã¡p
Ġx Ã³t
Ġ 00
ĠK á»·
ĠM u
kho áº£ng
Ġchu á»Ļng
Ġx Ã´n
Ġthi Ãªng
ĠT al
Ġvá» ©
ĠR ich
ĠT I
s inh
ĠD iá»ĩu
Ġb áº«y
ov er
D N
Ġv áº¯c
ĠA c
ĠG ar
ĠIn d
ĠM ob
Ġi P
ĠW e
Ġvá»ĭ t
Ġgiáº¿ ng
ĠWilli am
li e
ĠK áº»
at ar
g a
ĠW ar
ĠB i
ĠM Æ°á»Ŀi
Ġá» ¨
ĠTh ÃŃ
6 8
Ġb Ã¡ch
ĠP at
ĠCh áº¥p
ĠH á»Ĺ
Ġ199 2
ĠANT ÄĲ
Ġgh Ã©
ĠV Ã²ng
Ġm áº¯m
Ġc ua
H S
V TC
Ġá» ª
Ġl Ãª
ĠF ed
á» ĺ
Ġng Æ°ng
Ġ0 8
ĠB Ã¡ch
et ro
Ġn Ã´n
Ġb l
ĠTw itter
Ġng áº¥t
6 7
B S
E R
bur g
ĠAs s
Ġlo a
us s
ĠT um
á» °
ĠFran k
ĠH uÃ¢n
ĠTh Æ°a
Ġd áº·m
ĠL ang
Ġtá»¥ i
at es
ĠF PT
ĠD Ã¹ng
ie v
7 00
ĠTh á»©c
ĠR Ãµ
B P
Ġf or
ĠS ar
Ġb áº¥y
ĠE VN
h e
Ġ9 8
ĠB Ã³ng
ĠB uá»ķi
ĠÃĤ m
ĠF DI
Ġb á»ĵ
Ġnh iáº¿p
G P
ĠTh Ã´i
ĠB M
ĠSau di
Ġ11 0
ĠC Ã¡n
Ġd á»Ĺ
ĠCh áº¿
Ġvá»ĭ nh
ĠM Æ°á»Ŀng
Ġbu á»ĵng
Ġ0 7
Ġshow biz
com bank
ĠViet tel
Ġnh Æ°á»Ŀng
Ġem ail
V OV
ĠK ur
Ġv an
us e
Ġx Æ¡
Ġb ar
ĠL á»¥c
Ġlu Ã¢n
Ġvá»© t
Ġs áº¿p
ĠBan k
Ġt Ã²
A nh
Ġv áº¡ch
ĠD iá»ħm
Ġt Ãº
Ġl Ã³t
Ġn Æ°Æ¡ng
ĠM un
ĠO DA
Ġqu á»·
Ġc á»Ľ
ĠS V
ĠC á»¦
ĠL áº¥y
ĠÄĲ á»ĳng
ĠT Ã¡m
nh am
Ġc om
ĠNg Æ°Æ¡i
ĠCá»¦ A
ĠH ang
and al
áº¿ ch
ĠS im
ĠÄĳ áº¯ng
ÃĬ N
ĠS il
ĠB ol
im ir
ĠHol ly
ĠÄĲ á»ĵ
ĠSt ev
ĠÄĳ Ã¨
A P
ĠÃ Ģ
ĠÄĤ n
t t
ĠV áºŃt
iv es
ĠH ÃĢ
Ġt Ã¡ng
ĠÄĲ áº£o
Ġs c
ĠKh ang
b on
Ġ7 7
ĠBÄĲ S
Ġth Ã¨m
Ġg iá»ģng
Ġqu Ã¡t
Ġn Ã´
Ġg as
4 2
ow er
u ck
Ġc Ã¡m
, ...
ĠG o
t u
ĠH en
ĠD Æ°á»£c
Ġthá»§ ng
ĠA v
Ġnh Ã³c
Ġchu i
K H
Ġtu i
ĠE s
Ġn o
ew s
ur e
Ġkh uáº¥t
Ġ7 8
ĠD an
ĠA TGT
Ġl Ã©o
Ġ6 2
il le
ĠB ao
ĠM e
ĠVlad imir
Ġng á»ĳc
Ġthá» ģm
Ġc Æ°ng
Ġh ao
Ġnh á»įn
ĠSeo ul
ĠB el
ĠS up
and a
U B
ĠL ou
im a
% ).
Ġng á»įc
Ġv Ã¢n
Ġngh iá»ĩt
Ġn Ã¢u
Ġá»¨ ng
ĠBar ack
Ġm ÃŃa
ĠQ uyÃªn
0 8
Ġc m
Ã² m
ĠM Ã´
ĠH an
ĠH ill
ob ot
ĠAF F
Ġx Ã´i
á»Ľ n
ĠM Ã´ng
ĠÃģ p
ĠT á»ĳt
ĠN LÄĲ
á»ĩ n
Ġchu Ã´ng
en c
Ġt i
Ġthá»ĭ nh
Ġ6 1
Ġl au
Ġ199 7
Ġkho ang
Ġs on
ĠÄĳ ÃŃnh
it t
Ġv Ã¡n
Ġv iáº¿ng
Ġx Äĥm
Ġmá»¥ n
ĠX anh
ĠP a
ĠK iá»ĩt
and er
Å© a
ĠF ord
Ġm Ã¬n
ĠKh anh
Ġ Ã³c
u ela
ĠL ig
ĠKh áº£i
ĠPal est
ĠUy Ãªn
ĠS N
otte nham
ĠB Ã¡n
ĠV áº¡n
ing s
ĠTH A
Ġn Ãłn
Ġg áº¥u
ĠO k
Ġv Ãº
Ġthá» ģ
ĠH O
ĠX Ã©t
Ġnh á»¥c
z y
Ġg áº§m
ĠB iá»ĥu
Ġ /.
0 9
Ġchi p
l an
ĠCA ND
19 9
ĠNg uyá»ĩt
Ġch á»įc
ĠG P
Ġ eo
6 6
m á»Ļt
Ġv áº·t
Ġh Ãłn
ĠG Ã²
ĠL Æ°á»£ng
ĠT el
Ġk áº½
ĠVen ez
ab e
ĠC EO
ĠB ur
ĠNh áº¡c
Ġv Ä©nh
ĠÄĳ áº¯m
Ġtr e
ĠO p
L C
in t
Ġd iá»ĩu
Ġx Ã¡m
á»Ľ c
ĠS n
Ġl á»Ļt
Ġch iÃªn
ĠT áº¡o
ĠCar l
an y
Ġn eo
l ÃŃt
ĠÄĳ áº¡m
ĠFI FA
m ent
ĠM TV
ĠMer c
ay a
ĠF lor
Ġc á»ĵn
is e
ĠGeor ge
Ġkh á»ĳc
Ġc Ã²i
A R
ĠMar tin
Ġ199 5
Ġ18 0
Ġng áº§n
ÃŃ p
ĠPh á»ĳ
ĠPalest ine
oun ce
w ay
E U
ĠO h
ĠR od
Ġr á»Ļ
ĠS m
Ġ6 9
ĠG hi
Ġng á»¡
Ġm Ã´ng
ec t
Ġt ia
ĠM us
Ġc áº¥y
Ġ am
ĠB ig
Ġkh ao
Ġb Ã¨n
ĠPl us
Ġn Ã©n
ĠÃĶ i
Ġl Æ°á»Ľt
ĠTr áº¥n
ĠL at
ĠS L
Ġr obot
ĠC Ãºp
ĠB ill
j i
s a
st an
ĠT ottenham
y an
ĠÄĳá»ĩ m
ĠRo oney
Ġ Æ°
Ġ199 3
ĠVenez uela
ĠPet er
Ġng áº«u
Ġt Æ°á»Ľi
ĠTh Ã¬
Ġ199 4
ĠQU Y
ĠH ung
Ġn áº¡
SC L
Ġm áºŃp
Ġon line
ĠS outh
Ġd áº·n
ĠF l
ĠA ra
Ġch ay
or s
Ġ Æ°á»Ľt
Ġl Ã¡nh
ĠC áº·p
ĠT Q
ĠV ina
ĠGu ard
V C
ĠM Ãª
ĠGiá»¯ a
Ġ8 8
ĠÄĳ iá»ģn
Ġr Ã²
ĠbÃ³ p
ĠÄĳ inh
at ch
ĠLu Ã¢n
u el
0 7
ĠiP ad
0 6
ĠPh Ã¹
5 2
t á»īnh
ĠM áº¡ch
ĠB Æ°u
ĠT or
ac o
á» ¨
ĠÄĳi Ãªu
áº¢ N
Ġm á»Ļc
ĠO ne
ir e
Ġc ar
Ġd áº¡n
en ko
Ġ [
d er
ĠR i
Ġth á»ĳi
Ġn á»ĳt
ĠKh áº£
ĠF B
t Æ°Æ¡ng
ĠTr Ãºc
Ġth áº¯p
Ġc á»įc
ĠG h
ĠF r
ĠT áº¡
ĠkÃ¬ a
ĠT á»«ng
Æ¯ T
ĠNg Æ°á»£c
Ġá» Ĵ
ĠU r
ĠBÄĲ BP
ĠGiá» įng
Ġtr Ã¡n
al i
ĠHolly wood
Ġk Ã©p
Ġr ao
ĠKh Æ°Æ¡ng
Ġlá» į
Ġc Ãłnh
ĠÄĲ á»Ļc
ĠM ur
el and
ĠV Ãłi
f e
Ġx en
ĠQu á»·
ĠÄĳ Ã´n
c i
t d
x in
al e
Ġthá» īnh
z o
Ġgi ang
ĠGi ai
ĠT Æ¯
d e
Ġhá»į ng
it s
Ġt áº¡ng
C O
ĠD Ã²ng
ĠCh Ãłng
áº¿ m
NG T
Th anh
Ġn áº§y
ĠR áºŃp
b ao
ĠT ur
v an
Ġvá» Ĺ
Ġ13 0
Ġ198 0
ĠH a
Ġqu áº§y
Ġs en
á»¥ a
Ġx Ã¡t
Ġx áº»
el le
ÄĲ Ãł
Ġ8 6
ĠTP O
eal and
b i
ph Æ°á»Ŀng
Ġr Ã¢u
ĠkhÃŃ a
ok ia
vent us
ĠChu áº©n
ĠM á»Ļc
ĠX I
Ġ9 2
Ġt áº¡
ĠphÃŃ m
Ġs Æ°á»Ŀn
ĠSp ort
g an
Ġtr Äĥn
áº¥ ng
S A
ĠS on
Ġgi áº·t
ĠE ver
ĠH Ã¢n
ĠK o
ĠG roup
al o
ĠM el
Ġf acebook
ĠN i
ĠB BC
ĠĠ ĠĠ
ĠB ID
ĠÄĲá» Ĭ
ĠL in
Ġ199 6
ĠM iá»ģn
ĠZ ealand
t op
áº» m
Ġn á»Ľi
th uá»Ļc
Ġn an
c us
Ġ1 000
Ġx Ã¬
ĠL os
Ġ9 00
Ġgi eo
Ġs Ã©t
ĠTh om
el s
ĠÄĲB SCL
ol i
Ġkh á»ī
Ġk Ã¨
ĠHÃł m
Ġ7 6
ĠGr and
ĠT K
ĠNh iá»ĩm
ĠAP EC
ĠG er
P A
ĠN okia
Ġchu á»ĵng
ĠB á»ĳn
ĠV TC
l ing
ĠM ua
Ġc á»Ĺ
m i
m o
ĠD Ä©
Æ¯á» ļ
ĠTr a
ch e
Ġt em
Ġb Ã³c
ĠN at
l ay
ĠD am
Ġv Äĥng
Ġvá» įt
p s
ak h
ĠL au
Ġd á»ĵi
Ġph áº³ng
ĠV Æ°á»Ŀn
ĠTr anh
Ġr Ã¡o
á»£ t
ĠCh uyá»ĥn
C A
ĠV á»ĳn
Ã Į
ĠT ai
Ġs e
Ġg áºŃy
ĠÄĲ á»ı
es h
Ġs iáº¿t
ĠCh inh
ĠÄĲo áº¡n
ĠS ir
iv al
Ġr un
ĠÄĳ Å©a
az a
Ġc áº©u
ĠTh áº¥t
Ġx uÃ´i
Ġg áº¡t
id a
Ġ7 1
ĠCh á»ĵng
G ÄĲ
ĠFran c
Ġch Ã©o
il a
ĠC os
Ġ7 9
ĠMar ia
ĠJu ventus
k ok
ĠV ND
Ġl ives
ĠPh á»ĳi
ĠT á»©
Ġn áº¯p
ĠJ er
Ġr á»ĳt
ĠK iev
ĠNS Æ¯T
ĠCh Ãºc
p ort
ĠL Äĥng
ĠD a
Ġr á»ĩt
R O
Ġch á»ĳn
ĠM ot
ĠSup er
Ng h
ĠCol om
ĠTr á»±c
ĠG TGT
ĠT NGT
ĠT TC
' s
ĠN ey
y e
ĠA li
ĠF C
ĠC as
w e
Ġnh a
ĠM B
ĠK i
ak a
ĠTr i
ĠNg Æ°
ĠA h
0 2
6 9
Ġch Ã¨o
ĠV á»ĩ
Ġn uá»ĳt
Ġ3 50
ĠB os
P P
ĠC O
y n
ĠÄĲB QH
ÃĤ N
ap p
ĠG I
ĠÄĳ áº¥m
Ġch áºŃu
Ġngh Ãªnh
Ġkhi Ãªm
7 7
Ġng áº·t
ĠB ern
8 9
ID S
Ġng á»¥c
ĠT inh
Ġm au
ĠNey mar
ĠN Ã¢ng
ĠYo ung
ed es
et a
Th Ã¡i
ĠX K
Ġch Ã©n
Ġquy Ãªn
Viet nam
Ġá»§ i
Ġn i
ĠL Ãłng
Ġs áº¡c
ĠM ang
ĠQ atar
ĠOs car
ĠTr á»Ł
Ġg ai
ĠSh in
Ġ199 1
ĠhÃ£ m
P G
Ġt Æ¡
ig h
Ġtá» ıi
ĠI m
Ġ8 4
ĠJ enn
20 20
ĠW hi
r ol
ĠN Ãºi
Ġd Æ°ng
ĠTh an
Ġ20 30
Ġb Ã¡u
pr ess
ĠKh uyáº¿n
Ġcu á»Ļn
Ġo xy
ĠD ani
Ġtr Æ¡n
ĠM ir
Ãģ C
5 3
Ġd Ã¬
i us
ĠBang kok
Ġc á»«
ĠÆ¯ á»Ľc
ĠT p
ĠÄĲ áº¯c
t á»©c
Ġtr iáº¿t
Ġl Ã¡ch
Ġrad ar
Ġm Ã¹ng
Ġr ong
g er
Ġx Ã©
Ġg Ãµ
7 2
Ġg áºŃt
ĠG old
Ġgh Ãª
Ġt Äĥm
ed a
Ġph Ã´
ĠBe ck
ar ao
ĠÄĲ á»©ng
Ġlá» Ŀ
Ġc Ã²
ote in
ĠC ro
Ġ7 3
ĠT Æ°á»Ľng
áº ¦
ĠCá»ķ ng
Ġb á»±c
7 1
200 7
on s
Ġn á»Ļ
iv i
ĠBu Ã´n
ĠC NN
ĠD is
Äĥ k
HN M
ĠÄĲá»Ĭ NH
ĠP ep
l l
ĠC at
ĠAl l
Ġr Ã¡ch
6 3
c y
Ġh á»ĳt
ĠS á»Ńa
ĠD iá»ĩp
Ġ áºŃp
Ġg u
c á»ķ
ĠM H
Ġn á»į
ĠJ un
Ġá»ķ ng
á» Ĭ
ĠL Ä©nh
0 4
ĠN ov
ĠD Æ°
er e
ĠkÃŃ p
j a
Ġqu áºŃt
Ġy ou
ĠI b
Ġl Ã©n
ĠG áº·p
ĠVá» Ģ
ĠN e
ĠCh uyáº¿n
ĠB Ã£i
em en
us tin
Ã Ŀ
m en
it co
ĠNG H
let ico
n es
Ġk á»ĩ
ĠTP P
Ġ8 3
Ġ Ãª
TT P
ĠG Ã³c
w a
ĠNg uy
Ġd Ã©p
ĠK u
Ġch iáº¿t
ĠKh ÃŃ
ĠMun ich
Ġ Ãªm
g ar
ĠÄĳ áº·n
Ġv áº¥p
ak i
Ġv Ã¡c
ĠC Æ°
Ġnh á»©c
ĠA C
Ġl á»Ļng
Ġch en
Ġd iá»ħu
ĠT C
ĠA z
Ġxo Ã¡y
ĠColom bia
ĠM ax
Ġch Ã¬
er son
ĠLig a
it a
9 00
ĠVKS ND
ĠM ed
ĠD r
ĠJ ord
ĠS ony
Ġtá»¥ t
ĠN V
__ __
ĠS Ã¡ch
ĠEd ward
ĠO ld
t s
Ġt áº©u
en ce
ĠCA TP
ĠN ig
Ġr Äĥn
Ġchá»£ t
Ġb Æ¡
ĠNh áº±m
en e
ĠD O
H o
ĠW all
ĠthÃ¬ a
Ġh áº»m
ĠVN PT
ĠK e
ĠI P
Ġl á»Ļc
sk i
Ġb o
ĠL ad
Ġm á»ĭn
Ġ8 2
ĠH áº¡t
ĠÄĳ Ã¹i
Ġl am
ĠL á»Ļ
Ġt am
Ġ8 1
ĠViet in
ĠN ic
Ġr á»Ľt
ro v
ĠC u
Ġv Ã¡ch
0 3
M S
Ġr Ã¹a
ag o
ĠL Ã²
Ġ Ãºt
ĠCr im
Ġx Æ°á»Ľng
Ġsu Ã½t
ĠB or
Ġn Ã²ng
ĠC Ãº
I NH
Ġb Ã´i
Ġcho Ã¡ng
ĠU ber
Ġgi rl
ĠAm er
Ġa xit
/ /
se y
Ġchi Ãªm
5 9
ĠT Æ°á»Łng
ĠSH B
ĠMi ura
Ġxo a
Ġc Ãºi
ac om
Ġkho Ã¡i
SC O
Ġ %.
Ġqu áº¡t
Ġthá» Ńa
M B
Q L
ĠÄĳá»¥ c
ĠJ im
Ġc á»į
ĠKh Ã³
ĠAt letico
T á»ķng
s s
ĠZ ing
Ġl áº«y
Ġ Ã¢u
Ġsc andal
ĠKhu Ãª
ĠN ick
k s
ch i
ĠTh Ãº
t ic
Iá» Ĥ
ĠT áº¡p
Ġh Ã©
Ġc Æ°á»£c
eng er
ĠÄĲ á»Ŀi
H áº£i
ĠH Ãło
ĠR ed
ĠÄĲ áº±ng
ĠTH U
k i
Ġkhuy a
Ġl ung
ai r
ĠB ro
Ġm Ãłi
ĠLou is
Ġ8 7
Ġt Ã¡t
T O
est ival
Ġs h
G i
5 4
Ġ8 9
b e
ĠM Ãłn
ĠSL NA
ĠBID V
ĠIn f
ĠVictor ia
ĠV er
ĠJ an
ĠL G
ĠL Ã£o
ĠM áºŃu
Ġb á»«ng
ĠB re
ĠTr Ã¢m
om e
Ġ7 4
n i
ĠÄĳ áº«m
: //
ĠL áº§u
Ġvá» Ŀ
Ġb á»ĩ
ĠÄĳ Ã¨o
Ġph Ã¬
ĠPh a
ĠS U
Ġpr otein
ĠM Ã¹i
ĠK en
ĠK at
th Ã¹ng
Ġc á»ĳi
Ġhá»ķ ng
Ġnh á»įc
ĠP e
s i
uk i
ĠKh Ã¡m
Ġm Ã¡c
ĠH aw
OS E
T H
ĠV ol
Ġt áº¥p
ĠMai l
Ġnh á»Ļn
ĠP ost
sk y
5 8
Ġ9 6
Ġl á»ĳp
ĠB áº§u
ĠM ag
Ġs á»į
ĠM r
Ġm iÃªu
ĠTe ch
Ġx áº¯n
b or
Ġb áº¡t
ĠE ur
Ã³ p
ĠBM W
Ġch á»Ľ
ĠPh á»¥ng
t ion
Ġb ong
ak u
Ġm áº¡
ĠK S
ĠMerc edes
Ġ Æ
ĠC M
ĠK Ã½
ĠPh á»ķ
s u
Ġm áº¯ng
ĠP o
Ġng Ã¢y
it al
pp o
Ġn áº¥y
H C
m ail
7 6
ĠA TM
Ġho i
ĠÄĳ an
ĠNh á»Ľ
ĠCh áº¥n
el e
-- --
Ġs á»«ng
ĠAra bia
Ġb Æ°á»Łi
ĠM Ã³n
ĠL á»Ľn
Ġlives how
c ol
ĠCrim ea
ĠId ol
ĠÄĲ Ã¡
ĠW enger
ĠÄĲ á»ģn
k er
Ġl á»¯
Ġch Ã¡o
Ġb áº©m
Ġ14 0
Ġv Ã©t
Ġth áº£n
ĠB us
ra h
Ġn a
ĠRich ard
ĠP ol
Ġr á»ħ
Ng Æ°á»Ŀi
Ġl á»¥a
ĠB á»ı
NLÄĲ O
Ġr á»¥i
ĠN Ãłng
ĠVI á»Ĩ
Ġ197 5
Ġl Å©ng
ĠS uá»ĳt
ĠM ong
ĠViet combank
Ġtr Ãłng
D S
Ġqu áº¥y
Ġnh iá»ħu
ĠA ud
ĠN ote
Æł NG
ĠTh áº±ng
Ġng á»ı
Ġ198 2
ĠG rab
á» Ķ
ĠKh Ã´i
ĠX i
ĠAng ela
Ġb Æ°á»Ľ
Ġ16 0
or y
Ġgi Æ¡
ĠF A
Ġl á»ĳc
ff ord
ĠJord an
Ġr i
Ġt áº¥u
ĠP SG
ph u
ĠE v
ĠT uyá»ĥn
ĠÄĳ un
et ty
r es
Ġg am
ĠAb e
Ġsex y
v i
S I
ĠT iáº¿t
GD VN
TT g
ĠFranc is
ĠMar t
arao ke
Ġl Ãºn
ĠC á»§
UB ND
b in
Ġr áº«y
H u
ow n
Ġngo áº¡n
Ġk araoke
ĠH á»ıa
B ÄĲ
n ik
ĠT Ã´ng
ĠCH DC
Ġch uá»Ļc
Ġ197 0
av e
ĠS ol
Ġt ivi
ĠN ad
Ġmu Ã´n
os a
Ġv Ã¹i
Ġv Ã²i
Ġd áº»o
ĠS G
i um
ĠKT ÄĲT
r is
Ġm Ã¢m
ĠU A
ĠC R
ĠGi áº£m
Ġi OS
ĠM áº¡ng
Ġng áºŃm
Ġd Ãª
ĠSk y
Ġnh Ã£
ĠÄĲ Ã´n
ĠD ie
os hi
ĠCh á»¯
d y
ero in
Ġn uá»ĳi
ĠT B
r ic
ĠAngel es
n ational
ĠS á»Ĳ
ĠÄĳ Ã²
Ġs Ãłnh
Ġv Æ°á»£ng
Ġr áº¡ch
Ġxo áº¯n
Ġl en
ĠÄĲ á»ķi
ĠIr eland
Ġx Ãłi
SN N
Ġ198 9
ĠBer lin
Ġv iá»ĩt
ĠB Ã¡nh
as er
Ġg áº§y
ut s
Ġgi Ã²
Ġn áº£n
ĠAn ton
Ġg áº·t
Ġng Ãłng
ĠM eg
ĠR es
ĠAnd re
an ce
Ġh ÃŃt
Ġ ).
Ġr Æ°á»Ľc
ĠH iá»ĥu
7 3
o om
Ġx ay
ĠT á»ĳ
im e
ĠS á»ĳng
ĠR á»ĵng
ĠS ev
Ġd Ãło
ĠV ir
ĠÄĲ en
Ġ12 5
ĠBo e
Ġb Ã¬a
Ġch á»įi
? ".
Ġs á»ıi
tr Ã¡i
Ġr Ã£
Ġmu á»Ĺi
Ġg olf
ĠKh Ã¡c
ĠI M
im es
Æ¯á» ľ
Æ¯ ÆłNG
ĠH Ã¡n
áº½ n
á» ¬
as e
Ġgiá» ¥
Ã ĵ
ĠCh Äĥm
Ġh Äĥng
Ġd ai
ĠN et
Ġg á»ĳm
ĠN ex
Ġh tt
ĠÄĳá» ±c
Ġb áº»
Ġnh áºŃm
ĠY am
Ġb Ã£
it z
er y
t Äĥng
en z
ĠAs h
Ġph Ãł
ĠV Ã´
ĠNS ND
Ġthu á»·
ĠD ar
á»¤ C
ĠC Æ°á»Ŀi
ĠÃĤ n
ra gon
ĠMo ham
L A
Ġh eroin
ĠW eb
Ġ198 8
Ġmá»ī m
Nh áºŃt
ĠR oy
ĠTh á»ıa
o z
ĠN TM
ĠF in
Ġm e
ĠM á»Ŀi
Ġs áº¥u
Ġn Ã¡o
ĠJ i
Ġk iáº¿p
ĠCHDC ND
ĠÄĳ áº£
áºł I
ĠC Ã¡m
ĠCh ile
ian a
ĠTh ÃŃch
Ġn Ã©
T E
ad o
g io
Ġh Ã¡o
Ġs tr
Ġph ao
Ġm od
ĠNhu áºŃn
6 2
ĠF estival
Ġn á»©c
ra ph
Ġho Ã¡n
ĠA CB
ĠSc ot
ĠNghi Ãªm
ĠL Ã¢u
on t
Ġb á»Ľi
ĠThom as
Ġc Ã´i
Ġkh á»Ń
il k
Ġkh iáº¿m
ĠT an
Nam Net
N V
ĠC Ã¡nh
itco in
ĠK m
6 4
ĠL á»¯
at ia
ĠT Ã¡o
Ġ á»ĵ
ĠH un
Ġ Ã¡
ĠGa al
ĠN áº±m
Ġn áº¡o
Ġr á»¥ng
ĠIn st
Ġs Æ°ng
Ġhá»ĩ t
s á»ĳ
ĠSh ar
ĠAb d
u ay
Ġx Ãło
ah a
ĠD j
Ġch á»Ľp
ĠÄĲá» ĺ
s ter
ĠÄĲ á»įc
ĠUS S
Ġl á»¥y
ĠH Ã²n
ĠÄĳ u
Ngh á»ĩ
o áº¡n
m und
og an
ĠAm az
ĠL Ã¢n
Ġqu á»µ
ÃĮ NH
ĠJ ac
Hu áº¿
Ġch Ã³t
Ġr Æ°á»¡i
it o
Ġ uá»ĳn
ar ez
ĠF ab
ĠCh Ã¹a
ĠInter national
Ġ9 1
Ġlo g
ĠC Ãłng
ĠH i
Ġ áº¡t
Ġr á»ķ
ĠHen ry
Ġx á»ķ
Ġx áº¥p
ĠV o
ĠBr un
ĠT our
ĠTh á»Ń
ĠT D
ĠW at
Ġtr Ãªu
Ġb e
ĠÄĳá»ĳ n
ĠKur d
g r
Ġbá»ĭ t
Ġs á»Ŀ
k el
ĠL and
Ġ27 3
ĠCom p
: .
Ġb áº¡
Ġs er
ĠP u
5 7
ĠÄĲ Ã¡m
ĠD A
ĠP ort
r ig
ĠCr ist
d en
ĠN ay
ĠN av
Ġph áº«n
Iá»Ĩ N
ĠM Æ°a
ĠS and
Ġ =
ĠV áº¥p
ĠN ik
ĠT CT
ĠT uÃ¢n
ĠC Ã´n
l u
ĠTra fford
ĠCos ta
Ġ áº§m
ĠG iáº¿t
ĠbÃ© n
Ġs Ã¢m
el li
if e
g in
ĠÄĲ iá»ĩp
Ġ198 6
Ġnh Äĥn
Ġnh Ã¡i
k ov
; ,
ig n
Ġ9 3
Ġhá»© c
ĠB Ã¡t
Ġl uá»Ļc
ĠPl ay
ĠC en
ĠB L
ĠTh uá»ĳc
ac c
Ġtr Ã¨o
ĠBl u
p t
ĠÄĲ áº¿
ĠG ÄĲ
h y
ĠL Å©
ĠUkrai na
Ġto a
ĠW on
Ġt áº£n
ĠNg Å©
d inh
' :
ĠG Ã£
or m
ĠB T
ĠÃģ i
ĠBoe ing
l us
ĠC áº£i
fi eld
or a
Ġl iÃªng
áº¤ T
ĠStev e
Ġth áº£y
ĠL ov
9 8
ĠgÃ³ t
ard o
Ãµ m
Ġthá» ı
, "
Ġth áº¡c
ber t
Ġd ang
ik a
Ġ Æ°á»Ľp
ĠN á»Ĺi
k in
áº¾ T
ĠChar les
ĠN ob
aw a
Ġr áº§m
Ġg á»«ng
ch o
ud e
ĠS C
ĠÄĲ áº¥y
Ġ11 5
ol e
ĠT ex
O N
Ġ Ã¡ch
ix el
Ġkh an
g en
ĠC á»±c
ĠMar y
Ġnh á»ĳt
ap top
Ġro ck
F C
Ġt Ãł
ĠTay lor
Ġ Ãºng
ĠS áº¯p
ĠN SNN
ĠFed er
Ġnhu á»Ļm
ĠÄĲ K
ĠN ap
ĠH áº¿t
ĠC ÃĶNG
M A
Ġgi Ã£
Ġth á»ĳt
Ġb Ãºa
Ġk Ã¬m
Ġgiá»¥ c
ĠB á»ķ
Ġgi Ã¡ng
ĠRo ck
ĠD iá»ĩn
Ġthá»¥ c
if er
Ġngu á»Ļi
Ãº m
Ãį NH
NE SCO
Ġv áº¯t
Ġnh Æ°á»£c
Ġs et
Ġtr Ã³i
ĠY emen
Ġnh Ã´m
ĠFB I
Ġb Ãº
ĠTT g
Ń ng
am i
ĠD ub
áº ¨
ĠÄĲ áº©y
ĠTr Ãłng
T ube
ĠH P
Ġng áº¯t
24 4
á» £p
ĠM ike
ĠÃļ t
ĠTr Ã´ng
Ġ" .
ch Æ°a
it ch
ĠK ing
ag en
p a
ĠB inh
ĠmÃ£ nh
Ġ198 7
Ġt iá»ĩt
ĠLu c
ĠMc C
ĠIn tel
Ġng á»Ńa
Ġn á»ĥ
Ġm Æ°Æ¡ng
ĠTr áº¡i
ob al
ĠB ob
ĠF ar
Ġnh á»ĭ
ĠCh an
os s
V iá»ĩt
Ġth Ã²i
ĠL av
ĠD inh
ĠS el
á»£ n
ĠJ am
Ġc Ãło
ĠM Ã¢y
ĠTr á»¥
Ġbl og
Ġk eo
Ġ198 5
Ġm ÃŃ
ĠM az
ĠQu áº§n
ĠU td
ĠYou Tube
ĠnÃ³ c
Ġtá»ĳ p
ĠN Ãło
Ġl áº©n
Ġngh áº¹n
ĠCh iá»ĥu
ĠD es
Ġch Æ°ng
ĠR ach
ĠHo t
Ġkhá»ı a
ĠCh á»įn
N áº¿u
ĠT Ã¹y
ĠX Ãª
ĠI l
Ġh Æ°ng
Ġtho áº£
Ġcá»« u
ĠVH TT
er on
ĠNig eria
ĠTM CP
ĠCá»© u
Ġm á»ĳt
Ġk iÃªu
Ġm ini
Ġb Ãºn
b le
Kh Ã´ng
Ġt áº¡t
Ġh Ã´ng
... ,
ĠCar ol
ĠMo on
Ġr á»ĵ
ĠC Q
5 6
Ġb á»į
ĠJack son
Ġng áº¡t
ĠMod el
ĠR AM
Ġ4 50
Ġk iÃªng
ĠS ec
o C
Ġv ÃŃt
Ġb Ãºp
re y
ĠV ang
ĠnÃ³ n
ĠÄĲ Ã¡p
Ġr á»Ĺi
Ãµ ng
8 3
Ġtr Ã¹
ĠM ah
ĠGre en
ĠB ul
op a
ĠJon es
ĠT áº¡m
ĠK ia
ĠO li
inh phu
Iá» Ģ
ic an
ĠTTC K
ĠH áº£o
Ġnh á»§
Ġ19 60
ĠAmaz on
9 2
M P
ur i
Ġr áºŃp
7 4
ĠG e
ĠDN NN
ÃĢ I
ĠH TC
Ġngh áº½n
ĠSh ow
Ġb á»ī
m ua
Ġs á»Łi
ĠC áº§m
ern and
o ut
Ġng áº£
ĠH Æ°á»Ŀng
Ġth áº¡o
ĠÄĲ á»ĩ
ĠTr áº£i
ĠU NESCO
ĠÄĳ Ãłng
ath er
ph áº£i
á»¨ C
8 6
ĠPh Ã¡o
AS A
Ġb ik
ĠT á»ĭnh
Ġd áº¥y
ĠPh áº£n
ĠM á»ĳi
5 1
ĠX a
ĠDie go
ĠY e
ĠG B
ĠFor m
ĠM Ãłu
o an
ĠO ai
i F
Ġph Ãłn
im ex
Ġlá»ģ u
ĠH á»ıi
te in
ĠNg á»¯
Ġw ww
ĠS om
ĠAss ad
ĠDani el
ĠS X
ĠH el
ĠG ad
Ġm ÃŃt
an c
ĠM áº¡c
ĠGia dinh
ĠE li
Ġ17 0
ad i
Ch inhphu
ĠK ÃŃnh
ĠÄĲ Äĥk
E S
Ġ9 7
ĠG ra
k aku
Ġg Ã²
ĠÄĳ áº·ng
Ġv Ã¡
ag ram
ĠL S
t is
ĠB il
Ġl Ãºng
ĠT X
ĠAle ppo
ĠHill ary
ĠN iá»ģm
r ick
Ġc Ãły
ĠLH P
Ġl áº§u
e am
ĠE a
ang e
ĠKh Ã¡n
ĠEm ily
Ġvá»¥ n
et te
ĠJo e
ĠScot land
ag a
ĠBl oom
Ġ ),
ĠS A
Tr ong
Ġh it
ĠT Ã³c
Ġph Ã¡c
ĠX u
Ġr á»Ĺng
ĠC IA
Ġd áº¡t
Ġc Æ°a
ĠCh ina
á»¡ i
ĠU á»ĳng
Ġnh á»ĵi
Ġth ÃŃnh
Ġn áº¿n
Ġch Ã¹m
Ġqu á»³
ĠAlex ander
Ġl Æ°á»£n
Ġth on
ĠV n
ĠRom a
c Æ¡
is hi
W h
Ġtr o
ĠNgh iá»ĩp
ce an
ĠPh áº¥n
Ġm iá»ĩt
Ġho Ãł
Ġgi Ã²n
ÃŃ u
Ġkh inh
ĠT s
ĠGi áº£
ĠCro atia
ĠH uáº¥n
ĠCTC K
ĠC D
und ai
X B
ĠG T
ĠChr is
es el
ĠL Ã´
ĠQu Ã¡ch
ÄĲ H
ell o
Ġd Ã¨
ĠTh á»Ľi
Ġqu áº¥n
Ġnh á»ĭn
ĠÆ ¯u
ĠTr Ã¢n
ĠZ h
Ġx á»ĭt
it an
ĠHung ary
Ġb á»©t
ĠSai gon
ĠBr ad
ĠAd am
Ġ10 8
Nh á»¯ng
Ġv s
ĠDam as
ĠK a
ĠÄĳá» Ŀ
m it
ĠHy undai
ĠLe on
et ing
ĠÄĲ áº·t
ĠN K
ĠN ÄĲT
ĠC ast
ĠD om
Ġx ÃŃt
ĠR ad
ĠJenn ifer
ĠL ED
Ġl aptop
ĠCH ÃįNH
m Ã£
! ".
Ġt een
ĠDo Ã£n
Ġb Ãªnh
Ġ198 4
H Q
ĠF ox
t an
Ġcá»¥ t
ĠJ ustin
Ġb áº§y
ĠF LC
A D
Ġkho anh
ĠV Æ°á»£ng
ĠM áº¥t
id er
Ġ10 5
ĠA p
ĠCh á»ĳng
Ġch áº£o
ĠÄĲ áºŃu
ĠAnd r
ĠB Ãłng
ain t
ĠD Æ°á»Ŀng
ĠP T
n áº¿u
a eda
Ġb á»įt
Ġm á»ĵm
ĠB á»Ŀ
ar o
Ġth en
; )
ĠNG UY
ĠH á»¡i
ĠA sia
ĠN ÄĤ
B V
ĠJe an
Ġhtt p
Ġl Äĥm
Ġch á»ĳc
ÄĲ á»ĵng
ĠÄĲ áº¥u
ĠNo el
ĠB as
r ay
Äĳ Ã£
m l
ab a
ĠT O
Ġ2 20
re am
ĠM id
ĠL Ãªn
ĠHar v
ĠBal e
ĠSte ph
ĠSu arez
ĠM áº¯t
ĠÃ Ĭ
22 4
ĠRach el
acom bank
E M
ri bank
ĠCh á»Ŀ
ĠH al
ĠTex as
Ġx Ã¡o
i ola
Ġ ac
ĠL en
Ġb y
ĠGi Ã´
ĠChar lie
tr Ãº
ĠS um
at o
E P
Ġv e
6 1
ĠS in
c Ã´ng
s á»Ńa
M edia
ch er
le c
ĠH Ã¨
N K
N Q
ah oo
ng á»¥
) ...
ĠD áº§n
ĠL iá»ĩt
ur n
ĠV Ä©
ch iáº¿m
m ad
8 4
Ġto an
eg as
ĠDamas cus
Ġt Ã©
ĠnhÃł o
ĠW in
E F
Ġ( +
ib an
n ews
as on
B A
ĠNg á»ĵi
et s
ack er
ĠR io
ĠHÃĢ NH
Ġtr Ãºt
is a
ĠP VN
Ġph iÃªu
Ġr áº¡n
Ġr áº£nh
ĠNg á»į
h at
ĠB Ã´ng
ut nik
ĠK iá»ĥu
ĠL Ã¡i
ĠV ai
man n
200 6
ĠTe h
ĠÄĲ Æ°Æ¡ng
ĠA M
Ġnh Ã©t
Ġng Ã¡n
g y
ĠJu li
ĠMos k
ĠT ang
ĠÄĲ am
ĠD ong
Ġru á»ĵi
Ġk áº¹p
ĠC Æ¡n
H O
b us
Æ¯á»ļ C
ĠL im
Ġv uá»ĳt
Ġv áº«y
Ġ is
Ġlá» «ng
ĠX Ã¡
C D
ort mund
iv er
ĠAN TT
Ġy áº¿n
ĠW ay
Ġm iÃªn
Ġng uyá»ģn
ĠPh u
ĠP or
ĠTh uyá»ģn
ĠKh áº£o
T W
Ġx áº£o
Ġá» Ķ
ĠG IA
Ġká» µ
ĠCrist iano
ĠB uá»Ļc
ĠCN VC
ic ester
ĠTo Ãł
ĠFlor ida
Ġbik ini
Ġm iá»ĩn
ĠRod rig
ed an
Ã ĥ
or i
ĠGuard iola
f a
Ġs áº¯n
ĠH áº¡m
ĠG Æ°Æ¡ng
ĠK az
ev a
ĠC anh
em a
ĠMon t
ĠD V
Ġs Ã²ng
ĠNad al
ĠPh á»¥c
ĠT áº¥m
os ter
ak s
ĠR u
Ġl á»±u
ĠD em
ĠÄĲ áº£m
row n
ĠV CK
ĠL eo
Ġmá» ³
ĠF re
ĠB in
Ġtr á»įt
Ġm Ã©p
Ġ( -
Ġth Ã¢u
ĠThu á»Ļt
8 7
Ġv áº§y
ĠD áº«u
Ġs Ãło
ĠV it
Ġáº¤ y
Ġth á»ĳn
rah im
Ġtá»ī a
ĠMer kel
O NG
t á»ķng
ĠVin am
ĠJohn son
ĠTal iban
C Ã¡c
ĠTr Æ°a
ĠT uyá»ĩt
Ġ1 01
ĠG etty
ĠInst agram
ĠL ÃĿ
ĠÄĳ Ãºp
ĠV áº»
Ġc áº©m
on ia
ĠNT K
ĠW i
ĠR og
ĠD ortmund
ĠX Æ°Æ¡ng
B TC
E N
ĠBu ff
tr on
b rid
Ġng Æ¡
ĠTr á»«
ĠSp utnik
Ġ áº©u
ĠTr Ã²
ĠS Æ¡
Ġn ang
ĠHo an
X D
Ġgi áº·c
Ġk Ã©t
ĠWal es
ĠLu is
v o
ĠS ur
Ġ197 9
ĠV u
ĠO cean
und er
Ġc Ãµi
ĠH OSE
ĠM Ã³ng
t áº¥n
ĠThá»ĭ t
ĠE b
ĠMosk va
m s
Ġs áº¹o
ĠLe icester
Ġm ic
at i
c ast
Ġv Ã´i
ĠV ui
ĠÄĲ Ã³ng
Ġb in
ĠT á»©c
ĠSan t
Ġ9 4
ÄĲ S
ĠNgh Ä©
ĠR ay
lo ck
Ġ áº¥u
ĠS Ã©c
Ġtr Ã¡
Ġg Ã¢n
ro p
Ģ ĭ
ĠC ÃģC
ĠP le
Ġ áº£
Th e
ĠFer g
iv ers
ev er
ĠB R
ĠA th
ĠK al
r in
ĠF al
ĠU ng
ĠGl obal
ĠSu z
ĠxÃŃ u
ĠB CH
ag h
Ġth ung
ĠEU RO
ĠC Ãºc
ĠBr id
ĠA ward
ĠK el
Ġs áº§u
ĠJ av
V T
c Ã´
ĠC y
ÄĲT B
u x
Ġtr á»ĩ
ĠGi u
ĠL á»ĩnh
Ġt áº¡c
ĠS acombank
ĠSer ge
Ġtr á»ķ
ĠA I
Ġ198 3
Ġs Ã³i
V n
ĠFer r
et sk
ĠEver ton
Ġs Æ°a
Ġph á»Ł
ĠP og
ĠIb rahim
ĠN á»£
Ġmu á»Ĺng
Ġs im
g ia
ac t
op e
ĠH all
................ ................
Æ°á»Ŀ m
ĠAg ribank
Ġqu áº·ng
d or
.... ..
ĠTeh ran
Ġb á»«a
ĠAud i
Ġl áº§y
8 2
Ã² e
is on
ĠH á»Ļ
od y
Ġnh uyá»ħn
Ġthu á»Ł
Äĳ Æ°á»Ŀng
ĠF i
nh Æ°
K TS
if ic
Ġng Ã³
m ed
Ġnh á»ķ
d am
ĠB ir
Ġng á»©a
ĠÄĳ iáº¿u
Ġs anh
az z
im bank
Ġngo áº·t
¯ a
da fi
Ġl iá»ħu
ĠMot or
ĠH it
Ã ļ
r om
ok e
ĠL ion
ĠTI N
D Ã¢n
Ġng á»¥y
Ġs Ã´
ri an
ĠL Ã£ng
ĠMaz da
ĠS áº¯c
ĠS P
enc ia
ĠD áº¥u
ĠVP F
r ed
ĠL ar
ĠD áºŃu
9 7
Ġth Ãł
ĠL iá»ħu
ĠDub ai
Ġm Ã©o
M C
Ġqu áº¥t
I n
Ġs Æ°á»Łi
ĠEn ter
á»° C
ĠA rab
ĠV Æ°á»£t
ĠL Ã¡
ĠFeder er
ĠNG ÃĢ
ĠSm ith
Ġl Ã³c
ph Ãºt
ĠVo ice
ĠCat al
Ġr Æ¡
ĠÄĳ ao
ĠM P
ĠP ac
Ġs áº¥y
ĠAS IA
ĠUS B
ok ovic
s hi
Ġk i
ĠHar i
Ġ>> >
ĠT uyá»ģn
ĠDo w
Ġkh Äĥng
ĠB on
ĠKr Ã´ng
Ġtr áº·c
us on
Ġgh e
Ġv Ã¡ng
Ġ197 2
Ġu á»·
Ġr ay
ĠK ev
ĠS av
C Ã³
ĠCh Ã¡y
ĠE ng
ĠG á»įi
ĠS E
Ġv acc
ĠC uá»ĳn
Ġr Ã³t
ĠS uá»ĳi
ĠW ill
Ġhá» Ŀ
Ġ36 0
ng uyÃªn
ĠDon etsk
Ġl e
Ġph áºŃt
kh á»§ng
ĠCá»¥ m
áº¬ P
ĠXII I
Ġ it
in ess
ĠForm osa
Ġv Ã£n
I T
ĠGad dafi
ĠC el
ĠN XB
Ġh Ã³c
ĠD áº¡
Ġv iá»ģn
C L
C on
Ġl ay
ĠV á»Ĺ
Ġx á»Ļn
ĠPh ÃŃ
ĠNÄĤ M
ĠDj okovic
v in
ĠD á»±a
ĠG or
Ġlo go
ov o
Ġl anh
ĠSan ch
ĠJ ol
ĠT er
ĠTr Ã¡nh
Ġlá» Ńng
ĠK erry
ĠCh Ãł
ĠLu áºŃn
Ġ z
ĠTh áº¯m
ĠB itcoin
Ġkho áº»
ĠBloom berg
w an
ok o
ĠK Ãªnh
Ġj e
Ġm á»§
Ġch ÃŃch
ĠT á»Ļi
ĠT uáº¥t
Ġ Æ°ng
ĠAl ice
Ġngh iá»ģn
ĠS ung
ĠG ab
s us
Ġn áº¿m
ĠAr t
og a
in et
ĠQu ay
á»ķ n
ĠMus ic
Ġ á»ıi
Ġr Æ¡m
ĠKr em
Ġ Æ¡
g g
ig er
ĠY ang
I N
ch á»§
ĠFerg uson
ĠTr Ã£i
au d
ĠJ ae
Ġv Æ¡
Ġ á»©
ĠTr ans
ĠR on
z z
ĠX V
A F
ĠPog ba
st ar
á»ģ nh
ĠE c
2 50
Ġch áº±m
ĠV illa
Ġh á»§
ĠP ers
+ )
O C
9 1
iF one
Ġs i
ĠS aint
ĠW ell
ĠCh áº¡y
ĠtÆ° ng
Ġgi áº±ng
ĠCh ic
ou d
ĠCQ ÄĲT
Ġc Ãºc
ĠR anh
U S
ĠB at
ik i
Ġkh iáº¿t
á»ĩ ch
ĠP i
ĠB ab
x press
z ab
Ġx oÃłi
Ġdi esel
Ġ20 25
ch á»ī
ĠH Ã³c
ĠL Ã¡ng
Ġc áº¡o
ĠOp en
g á»ĵm
ĠR áº«y
ĠÄĲá»ĺ NG
8 1
o id
v el
ĠL á»Ľp
ĠÄĳ áº½
iss an
KTS G
Ġ10 3
ĠCh Äĥn
ug uay
ĠG ot
ĠN ASA
ĠNh Ãłn
ĠHy un
ĠM W
Ġch áº£i
ol as
U NG
Ġkh áº¯t
ĠF ort
ĠNgh á»ģ
Ġ11 3
ĠVinam ilk
Ġ áº¿ch
ĠvÃł n
ĠStr eet
ĠNex t
ĠCh ÃŃn
ul a
ĠB ÃŃnh
A I
t hi
Ġch á»¯ng
ĠMob iFone
ĠK enn
ĠN ep
Ġá» Ĳ
Ġ196 8
il d
ĠSerge i
ĠEx imbank
ĠJ ung
Ġl Æ°á»Ŀi
I ÃĬN
Ġtá»¥ y
ĠM etro
ing ton
Ġmá» Ľ
ĠS ub
ĠJu an
ng h
ĠA ut
Ġl em
ĠTh iÃªm
b r
Ġkh ang
al k
ĠB Ã¨
Ġm áº£i
v es
ĠND ÄĲT
Ġg Ãłng
Ġd iá»ģu
ĠJ in
ĠTr iáº¿t
m in
Ġtu Ã½
ĠSt an
ĠT á»ĳng
ĠN Æ¯á»ļC
ĠS Æ°Æ¡ng
L S
ass age
Ġth áº¯m
H Ãłn
Ġng uyá»ĩt
ĠB oy
Ġkho Ã¡t
ĠViet NamNet
ĠP ower
áº¢ I
ĠT W
ĠÃĲ a
ĠM ill
Ġ198 1
Ġh Ã¡n
ĠH ey
ol og
c Ã¡c
ÄĲT CK
ĠB á»¯a
ĠPer u
l Ãłm
ĠP as
Ġn Ã¨
ĠKS ND
Ġ19 50
ĠVietin Bank
o ph
Ġch áºŃp
ĠS ud
ter te
Vn Media
art a
l as
ĠK ir
n ing
ĠA T
Ġ19 45
V ÄĲ
ĠÄĳ áºŃy
ĠT ak
ĠH ua
ĠBr it
ĠUr uguay
Ġh áº¥u
H á»ĵ
Ġkhu áº¥y
ĠMan ila
Ġcá»§ i
K hi
ai t
ĠI CT
ut ube
Ġxu á»ĵng
Æ¯á»ľ NG
ĠGi Ãºp
ĠAn n
Ġ up
ĠQ uáº¥t
ĠR en
ĠB Ãª
ĠR yan
ĠVal ent
L Ãło
ĠL ew
ĠChic ago
Ġqu ÃŃ
ĠHuy nh
ĠDu terte
es se
ĠHO áºł
ar us
ol y
Ġb áº§m
Ġng Ã³ng
ļ I
ĠKrem lin
ĠN á»ķi
l Ãł
Ġ197 6
Ġ" ,
ien th
ĠL oÃłi
ĠF o
ĠSn ap
w in
ĠS á»¯a
Ph Ã¡p
ĠEr d
ĠSanch ez
k y
ĠH ano
ĠBeck ham
b Ã¡n
ĠASIA D
Ph Ãº
ĠS us
Ġb á»ĵng
ĠNh anh
ĠR au
ĠPH Ãģ
t Ãªn
Ġng Ã¹i
ĠNg Ã£
ĠNob el
K iáº¿n
ĠNh Ã¬
ĠKev in
ik u
ĠIn s
ĠH or
j an
at ra
ĠÄĲT QG
Ġch áº¡p
ĠLu Ã´n
Ġcan xi
ĠG á»Ńi
Ġvacc ine
Ġth Ãªu
Ġx ua
Ġx iáº¿c
ĠS Ãª
A n
Ġv Ã²m
ĠT ony
áº¾ N
ĠVal encia
ĠCP I
ĠJe ff
ĠF ace
ĠT ÃŃch
ĠL as
Ġmod el
Ġch Ã¨n
ĠM áº«n
ĠU N
ĠQU AN
Ġch Ã³i
ot ti
ĠC oi
it ion
Ġch Ãł
tu áº§n
1 50
ĠB ush
ĠTr Ãłm
Ġng Ã²i
Ġr eo
Ġc at
Ġng áº©n
Ġ as
ĠT Æ°á»£ng
ĠÄĲT VN
Ġd áº§m
ĠD J
Ng a
ĠKh mer
M á»Ļt
Ġr ang
ue z
ĠVir gin
ĠB om
ĠA k
ĠD ay
ĠG Æ°Æ¡m
ĠB Ã£o
ĠC áº¥m
áº³ m
ĠC á»Ŀ
ĠA R
CC I
Ġph en
b ek
ĠYam aha
Iá»Ģ U
ĠB P
a f
Ġtho a
j et
ĠH az
Ġr Ã´
ĠJ ess
A IDS
ĠU l
ĠR ang
ĠD en
ĠK n
ĠA TTP
ĠNor th
C áº§n
ĠT Ãł
A C
ĠYo utube
ĠLov e
Ġd er
Ġ Ã¡t
ĠV ill
Æ°á»£ m
ĠP ot
b our
Ġg Ã¡y
Ġch Ã¡nh
Ġ197 4
ĠSuz uki
ĠD ao
ĠX IV
E m
S V
ienth uc
ĠH á»©a
c c
S ao
ĠK ate
ĠAn k
um a
Th Æ°Æ¡ng
tr al
ash in
ÄĲ B
200 5
ĠR áº¡ng
ĠAb u
ĠSU V
ĠSl ov
Ġ Â
Ġl Ã¬
9 6
ch a
H z
Ġth Ãª
Ġg Ãło
Ġ Ãºp
Ġ ur
ĠvÃµ ng
ĠT iá»ĩp
ĠRa f
Iá»Ĥ M
Ġb iáº¿u
ĠTh ao
Ġf l
ã ĥ
Ġ13 5
Ġf ile
ĠP en
n ay
ĠA DN
if t
v Ãł
ĠM ik
ed y
ĠÄĲ á»£t
Ġ Æ°Æ¡m
Ġ en
P M
Ġ197 3
ĠB rown
ĠF ernand
g or
ĠD Ãłn
Ġcá»ĳ p
ÄĲ Ã¢y
ĠEli zab
ĠÄĳÃ´ la
z e
ĠB iáº¿n
Ġg á»Ľm
Ġv áº¡
Ġn Ãªm
ĠN ou
ĠErd ogan
ĠS M
Ġc á»ĵng
ĠA y
Ġph á»ĵng
osh enko
ĠA D
ĠJ Ãª
Ġtu a
Ġngh áº¹t
ĠKh iÃªm
ĠT áº§n
ĠX ung
T Ã¢y
Ġ áº¿
om p
Ġr Ã´n
ĠK l
em an
Q aeda
ĠMar c
ĠM en
ĠO ff
s y
ĠK id
ÄĲ á»©c
il on
r et
Ġph Ã´i
Ġs áº£nh
ĠJÃª sus
ĠM edia
ĠElizab eth
ĠFrancis co
Ġl Ã¹m
Ġch Æ°á»Ľng
Ġqu áº©n
Ġto Ã¡t
ĠF ir
abe co
ĠIM F
d in
Ġhu á»·
3 70
Ġ at
ĠTr á»£
Ġg á»Ļi
b es
pp er
201 9
ell er
ĠRom e
ĠEb ola
ĠR áº¡ch
ph Ãª
Ġnh ai
áº¬ T
ĠJac ob
ig an
ĠS oo
Ġn áº§n
9 3
ph a
E FA
x e
P S
ĠFr ed
ĠK an
T Ã¢n
t en
ĠI D
Ġ24 0
Ġ197 8
ĠSer bia
Ġm Æ°á»£t
ĠWhi te
E L
v ed
ĠM ek
d ney
ĠSc ott
ĠB ash
ĠS D
r u
r ad
ĠHano inet
m on
ĠR y
c Ã¹ng
ĠTh áº¡c
K ienthuc
Ġtr Æ¡
ĠU z
ĠLav rov
ĠNGÃĢ Y
l am
ĠCh áº¿t
Ġstr ess
Ġr Ã£nh
Ġl ike
E T
s o
ĠSh e
it er
uts al
ĠM Å©i
ĠI van
ĠN á»ģn
áº¦ U
Ħ N
ĠÄĲ Ã¢u
ĠK á»ĭch
Äĳ Æ°á»£c
ĠJol ie
V Å©ng
Ġng áº¥m
ĠTh Ã¬n
c ao
Ġch Æ°á»Ľc
A ss
ĠT i
ĠAnk ara
Ġg t
ĠÄĳ iá»ģm
Ġv Ã¢ng
ĠTCT D
ĠK áº¡n
ic al
Ġh iÃªn
ĠTh á»¥
ĠG ran
ĠC áº¡nh
ĠGD ÄĲT
ĠG ea
nh Ãł
Ġn ung
ĠD mit
ist o
z one
ak ia
Ĵ NG
Ġv ung
ĠAb b
li g
m ond
od e
ĠT á»ĳc
ur y
ĠDis ney
ĠÃĲ áº¥ng
Ġgi Ã´ng
ĠSil va
Ġp op
Ġng áº«m
ĠHo me
áº¢ O
g as
ĠPh Ãª
ĠF an
S t
Ġ el
ĠD á»ĭp
Ġnh á»ĩn
ĠÄĲ au
ĠAg u
ĠSy dney
ĠL Ã£i
Ġsu Ã´n
Ġth áº³m
Ġb us
th Ãłnh
j o
Ġk n
Ġg ang
ĠL áº½
ĠD áº«n
Ġnh áº±n
ĠNh áº¯c
Æ¯á» ¢
Ġ12 8
Ľ t
ĠnhÃł m
ĠCam eron
Ġ ^
ÄĲS PL
Ġkh áº½
Ġl Ã¹n
ĠGiadinh Net
ĠÄĲ á»īnh
nh ap
Ġng Ãł
rol imex
ĠR T
ĠW ood
ĠAmer ica
Ġg o
ĠG Ã¢y
ĠSer ie
X em
Ġph Ã´ng
ĠPet ro
ĠM iáº¿u
ĠKh a
h ai
ĠC á»ĳc
Ġph o
ĠPh Æ°á»Ŀng
ad n
Ġ11 2
C l
Ġw ith
ĠV áº£
Ġ %,
ĠBre xit
ĠCh á»©c
b ai
Ġc á»Ļi
ĠLÄĲ BÄĲ
á»¤ NG
Ġc l
Ġt áº»
ĠNep al
eg a
em ent
ĠTD TT
th er
Ġ or
ĠL ife
ĠLe x
Ġkh Ã©t
Ġd áº±n
ĠMur ray
Ġt áº©m
ĠEr ic
* *
Ġv un
ĠW TO
Ġthá» «ng
amp ton
ĠnÄĥ n
ĠN ar
Ġh áº¥t
Ġxá»ī u
Ġm áº©u
ĠNg Ã´n
ĠHo use
ĠVi k
ĠJ et
ĠT á»Ķ
Ġb ung
Ġng á»«
ĠT Ã½
ĠV á»¹
ĠPl aza
ĠX ÃŃ
Ġ7 50
ĠN á»¥
Ġ10 2
ĠQU áº¢N
Ġm assage
ĠA IDS
NH NN
Ġn áºŃp
ĠQÄĲ ND
ĠH áº¡n
j u
Ġh Ã¡
ia s
B áº¯c
al em
ĠAn na
ĠMat t
ĠYo nhap
ĠU p
Ġch á»ķi
ĠT un
ĠAl bum
Ãģ O
B M
at or
e f
ĠGi Ãªng
ĠGP MB
on et
ĠR ub
Ġgiá» ı
ĠQu á»³
ĠTho a
Ġm á»©t
Ġx Æ°á»Ľc
ĠR á»«ng
ĠO l
Ġn áº·c
ĠM Æ¡
Äĳ á»ĳi
ĠM ul
ĠV á»įng
Ġl aser
p op
h Æ¡n
ĠB ia
ĠS IM
K D
ĠHÃĢ NG
ĠbÆ°á»Ľ m
Ġr Ã¡n
ĠM et
ĠQ uyáº¿n
in n
ĠLion el
Ġx á»ĳp
t ra
ĠIbrahim ovic
tr Ãªn
Ãģ NG
A NH
y m
Ġtr u
Ġm áº«n
ĠU Ã´ng
w ell
Ġh Ã¨n
ĠJ ak
ĠM áºŃt
ĠGen eva
ĠAnd y
Ġmic ro
ĠG aza
ĠAs ian
c t
ĠK it
ĠÄĲ áº§m
Ã ¼
ĠGuard ian
Ġph á»¥ng
ĠG ard
Ġr Ãª
ĠTh á»¥c
Ġqu Ã¢y
is ion
t á»±
ĠWilliam s
Ġnh áº¥p
Ġtá»§ i
b an
Ġtr Ä©
ĠRob in
Ġm ark
lad esh
ĠG Ãł
ĠBl ue
Ġt áº§u
Ġc Æ°á»¡i
Ġth Ã©t
ĠR ai
Ġcar bon
ĠBash ar
Ġn áº¡t
ĠR oll
9 4
es c
ly n
ou ch
ĠV AM
ĠD á»¤NG
ĠBel arus
ĠHaw ai
ĠWay ne
! !
ĠB QL
ĠC áº©n
ĠFor bes
Ġmáº¹ o
ĠAl g
Ġk Ã¨n
ĠR em
gi áº£m
S S
ĠM Ã£i
Ġr Ã¹ng
ĠG om
Ġnh Ãłn
Äĳ áº¡i
Æ°á»Ľ n
Ġn ÃŃu
Ġ197 7
TB KTSG
Ass ad
ER S
ĠI a
ĠNg Ãł
ĠNh áºŃp
et o
ĠĠĠĠ ĠĠĠĠ
Ġ uáº¥t
ĠG ame
ĠHy e
ĠG V
ĠBen z
ĠVin ac
ĠAnton io
ĠX Ãºc
at s
ĠSh er
Ġc Äĥm
P V
Ġ20 21
ĠEm ma
Ġg Äĥng
ist a
Ġl t
ĠN áºŃm
Ġn Ãłnh
Ġs p
Ġqu áº¿
ĠÄĲ á»ĳc
ĠGi áº£ng
I L
á» ŀ
ĠD ev
ĠK er
ĠhÃ£ nh
ĠEur opa
ĠE ar
ĠBang ladesh
ĠBrid ge
Ġch áº±ng
Ġv o
Ġr en
Ġho r
ĠB y
ĠY ong
s eo
Ġv Ã£i
ĠN ational
at er
ĠGi l
Ġs Ã¡o
I P
Ġm áº©n
Ġlo Ã£ng
ĠD ream
p le
Äĳ oáº¡n
ĠC á»§a
Ġr Ã¬nh
ĠmÃ´ tÃ´
ĠVIá»Ĩ C
es e
R C
ĠB G
Ġtr Å©ng
ĠT Ã¡i
Ġb Äĥm
Ġn ude
x cÆ¡
ĠM and
ĠHol land
ĠTy pe
ĠNH TM
ĠU EFA
ĠL Ã²ng
enn is
ĠD iÃªn
ĠÄĳá»Ļ n
ĠH Ã¡t
ĠPers ie
Ġh Ã¢n
Ġv on
ĠB h
ĠPh iáº¿u
ÄĲ áº¡i
it ar
ĠCh Æ°
ĠT á»¥i
ĠM ass
ĠN AM
Ġ10 7
ĠBr uss
A r
Ġt ÃŃt
ĠAir bus
ĠMi G
ĠTh áº»
ester ol
ĠAward s
Ġr oi
ĠS ul
ou gh
ag es
Ġt áº£o
Ġ10 4
ĠB iz
ĠCarl os
Ġc au
ĠM Ã¡t
ĠGi rl
cel and
ĠJose ph
ĠÄĲ Iá»ĢU
ĠÄĳá» į
L T
ĠY an
ģ Ħ
ĠBos ton
ĠH Q
ĠZ id
Ġs á»¥c
ĠT áº§m
ĠT erry
ĠLad y
w ei
ĠÄĳ Ã¡i
ĠÄĲ á»©a
Ã Ļ
el f
ĠShin zo
ĠMek ong
F i
á» Ģ
Ġx Ã¹m
Ġng ao
ĠF uk
ĠTh Æ°á»Łng
ĠLu m
Ġnh ÃŃch
Ġho ay
ĠUz bek
ĠquÃ½ t
N inh
un a
á»§ i
" ...
ĠW B
ĠTu á»ĩ
ĠSw ift
ĠPle iku
ĠC á»ĳng
ĠS uy
ĠS á»¬
ĠYe ah
ĠCor p
ĠG Ã³i
ĠH H
h en
ĠTh á»īnh
ĠHawai i
ĠUA E
ĠM áº§m
ĠD ia
ĠN issan
Ġto Ãł
ĠTh Ãºc
ĠThÆ¡ m
áº¬ N
Ġh e
ai re
ĠB ell
____ ____
ĠDu áº©n
Ġ197 1
y s
Ġca bin
ĠSteph en
ĠZid ane
C adn
ĠI celand
Ġs á»¡
ĠK ang
ic on
ĠSn ow
Å į
ĠTor res
ĠCh Æ¡i
ĠTr á»ĵng
ĠD á»°
Ġ' '
Ġm á»ĭt
ĠJ ay
200 4
ĠBus iness
Ġng á»Ńi
Ġc á»Ļ
Ġtu á»Ļt
ĠY u
th á»ĭ
Ġl on
ĠCl ub
est a
ashi on
ĠM is
ĠH CB
O M
Ġngá»§ i
ĠL uyá»ĩn
á» ĦN
ĠPh áº£
ĠHarv ard
Ġg á»Łi
ĠAngel ina
d ie
ĠCNVC LÄĲ
cast le
v á»Ľi
ĠC av
Ng Ãły
ĠM its
ĠCh ev
im b
ĠcÃ¡ u
ĠSer gio
v ille
ĠL ÄĲTB
ur t
ĠAndr ew
v ia
Ġh acker
ĠGi an
Ġvá» ĵ
ĠN oo
ĠPan ama
PL O
á»Ń u
h ay
p lay
ĠE lec
ĠB á»ĺ
Ġtr Æ°á»Ľng
Ġnh ang
ĠS á»ķ
ĠNH ÃĢ
ĠAl b
Ġnh Ãºng
Ġng á»Ŀi
S P
Ġd áº«u
Ġs á»ī
ĠF u
ĠLa w
ĠSc ar
? !
ĠF el
ĠVN ÄĲ
ĠPhil ip
ĠÄĲá» Ĳ
ĠC á»±
Ġnh ung
ĠMob ile
Ġn á»ī
ĠH á»ķ
ĠB ak
ĠP op
ĠBruss els
Ġkho Ã¡
ĠÄĲo an
Ġk Wh
ĠB XH
Ġ11 6
ĠUzbek istan
Ġqu Äĥng
l ott
ĠT ÄĲ
Ġ10 6
Ġtr Ã³t
ĠT á»ī
Ġca fe
Ġng á»Ľ
on i
ĠZ ika
D ÄĲ
il ton
Ġcho Ãłng
ĠX U
ĠX X
ĠN as
ĠL PG
ĠPh Ã¡
od o
ĠCH á»¨C
ĠPh one
Ġs ty
us alem
ĠDmit ry
Ã ¶
áº ®
ĠY ahoo
Ġ196 9
Ġcho l
â ģĦ
o a
Ġc as
ĠP R
ĠG ates
Ġp iano
s au
agh d
Ġg áºŃp
Ġn ilon
ĠÄĲ á»£i
ĠInf onet
ĠHit ler
Ġ. ..
Ġ6 50
N S
ĠMar io
Ġs Ãºp
Ġng Ã¡ch
Ġgiá» Ł
rai n
ĠCh ang
ĠFerr ari
ĠX H
ĠAF C
Ġlo Ã©t
B D
ĠTh iá»ĩu
ĠJer usalem
ĠKh Ã¡
ĠVHTT DL
Ġh á»ĳc
Ġph á»Ľt
ĠhÃ² m
ĠTh áºŃp
Ġ10 9
r or
ist ics
ĠMed ved
ĠL or
li b
ĠPet rolimex
B a
ĠW ang
ĠCon te
th a
ĠQL TT
ĠV ar
Ġy á»ĥ
Ġ23 0
SG GP
ĠZ en
ĠMon aco
w alk
Ġv áº·n
d ro
Ġ á»ĳp
ĠH um
n ia
Ġh Ã²ng
Ġd á»Ļt
ĠPac ific
ĠSG K
Äĳ i
ĠBa h
ĠPor oshenko
Ġb áº¹p
ĠT áº¿
ĠP ap
Ġx iáº¿t
ÄĲ iá»ģu
ĠHC ÄĲ
Ġ3 20
ho áº·c
Ġ196 7
á»Ń ng
Æ°Æ¡ u
ĠVI I
ĠG ang
ov ich
Ġth iáº¿p
Ġch Ãłi
O R
áº ª
ĠHá»į a
ĠL á»ĳi
á»ı m
ĠM Ã¡i
Ġbá»ĭ ch
ĠVI II
g áº§n
ĠTh ai
Ġch Ã²i
ĠT ar
ĠC Ã¹
ĠX p
ĠSan ta
ĠCh im
ĠM Ã£o
Ġo ff
ĠJ ang
Ġr es
ĠH á»Ľi
ĠY ing
r ot
Į C
Ġs al
ĠL á»Ĺi
ĠF ri
ic t
ĠValent ine
ĠBrun ei
Ġ |
ĠÄĳá»ĳ m
ĠVin ashin
Ġc uá»ĳng
ĠlÃŃ u
il o
ĠGen er
ĠHaz ard
Ġs Ã©c
Ġnh Ã¡y
Ġ11 1
ĠThu áºŃt
ĠCal isto
ĠÃ ī
ĠDel hi
ĠR h
Ġg á»Ļp
ÄĲ K
Ġqu e
ĠCam era
Nh Ãł
ĠCN LÄĲ
Ġc alo
ĠNew castle
ĠH Æ°á»Łng
ĠHo us
Ġd á»©a
ĠViet jet
c Ã²n
ĠG ood
k ÃŃp
b l
Ġchol esterol
w ich
Ġx Ãª
G ia
ĠChrist ian
c á»§a
k hi
ai s
... ".
ĠTim e
ĠMedved ev
Ġr á»£n
r at
T D
ĠCA Q
Ġb áº©y
Ġn ick
ĠPr in
Ġt Æ¡i
ĠAmer ican
ĠC ong
g u
Iá»Ĩ P
ĠCh e
Ġp ro
á»Ĳ C
ĠTel eg
Ġvi sa
ÃĶ ng
ĠSim on
gar ia
ĠS ay
ĠL á»±a
B erry
ĠT ed
Ġh Ã©c
P R
p age
Ġm y
ann y
ĠO x
Ġ196 5
Ġp en
ĠA qu
ab i
Ġnh áº£
Ġr Æ°á»£t
Ġch Ã¡t
kh Ã³a
Ġb á»¥c
l áº§n
ĠbÆ°á»Ľ u
P EC
Ãģ N
ĠB und
ĠTh uyáº¿t
ĠNg á»įn
ĠX NK
ĠV egas
abe u
ĠD ol
Ġb en
ĠIn c
ĠCh á»Ĺ
L ong
Ġd ay
T á»«
Z ing
eb er
ĠPh o
ĠLang don
Ġs áº·c
Ġv áº©n
Ġnh áº¥c
ĠCM ND
o is
ĠS Ã³ng
Ġkhuy nh
ĠT á»µ
ĠP in
ĠVN M
ĠBern abeu
ĠT ab
Ġ áº£m
Ġr áºŃm
Ġtr au
ĠHua wei
ĠRam os
3 50
ĠXi ao
Ġchi Ãªng
ĠX Äĥng
ĠH igh
akh stan
ĠP ier
Ġg Æ°Æ¡m
h iá»ĩn
Ġtr á»Ĺi
ĠND T
24 3
ĠVietin bank
ĠKh ung
Ġn Ã£y
ĠBlack Berry
A h
Ġl Ã¬a
ĠP au
Ġy áº¿m
ĠTH á»°C
Ġkáº½ m
ĠNh o
one x
Ġser ies
ĠICT news
ĠC ang
ĠTo áº£n
ĠGi Ã³
ĠKel ly
ĠV CB
ĠSud an
ĠCan nes
ĠL eb
IV E
ĠP itt
Ġ5 50
ĠA K
ĠPH áºł
ĠB ut
ĠV GP
ĠD ep
Ġg áº¯m
Ġlo ay
ĠEm ail
ĠSt ud
ĠD y
ĠmÃª nh
A G
e u
j ect
Ġs áº£o
Ġbá»ĭ a
ĠGi Ãłu
ĠCar ter
ĠLex us
Ġmark eting
ĠD ig
ĠC C
Ġ2 10
ĠGi Ãłng
ĠKho Ã¡ng
ĠKen ya
e ed
ĠC ry
ĠM ak
A NG
ĠN m
ĠVirgin ia
s c
ĠR Æ°á»£u
ir ates
V iá»ĩc
am b
ĠUn ivers
ĠSar ah
Ġd Äĥm
ĠAs ton
k ip
ĠJo han
ĠS á»£
m es
ĠS áº§m
ĠTh y
áº¦ N
ĠC áº¤
ĠG M
Æ¯á»ļ NG
ĠAlg eria
ĠPV C
cel otti
ĠRoy al
ĠT Ã³m
ĠK os
ĠVIá»Ĩ T
al ines
ĠBul garia
ĠS Ã¢m
ĠRos s
ĠH Ã´n
nh á»¯ng
ĠLad en
Ġth iá»ģn
Ġb Ã¨o
ĠAgu ero
Ġr iáº¿t
Ġth Ã³c
ĠLa z
Ġrá»§ a
ĠCh oi
ĠJak arta
). -
B H
HNM O
ĠH áº¡ng
un e
re ak
w on
w are
Ġb Ã¹a
x x
Ġ Ã²a
Ãģ CH
ĠNGUY á»ĦN
Ġqu áºŃy
ĠAn celotti
ĠH art
ĠNN PTNT
ĠSev illa
ul t
ob ile
b ach
ĠN uÃ´i
ĠLat inh
ĠKenn edy
Ġnho Ã¡ng
Ġxá»ī n
2 000
ĠÄĲT DÄĲ
ĠT GÄĲ
ĠE nd
ĠDV D
Ġc uá»ĳc
Ġtu Ã´ng
ĠHe e
ĠJ ob
---- ----
Ġ196 2
Ġc áº±m
ĠLo ck
Ġ17 5
Ġc Ã²ng
Ġl Ãºt
Ġ Ã´i
ĠTH ÃĶNG
Ho a
Ng uyá»ħn
ĠL op
ĠD er
ĠL Æ°
ĠAn t
h á»įc
Ġcat walk
l uck
ĠCap ital
Ġc Ã¢m
Ġph ai
ĠÄĳ áº¥ng
ia go
f or
ĠC ook
ĠJess ica
Ġ196 6
Ġ om
d ragon
ĠH K
Ġrad io
es a
orn ing
ĠP PP
ĠTR ONG
ĠC our
ĠM á»¤C
ĠKh Ã³a
s iÃªu
Ġh áº¯t
b ie
Ġlog ic
ĠXp eria
T imes
ĠJ ane
c an
ĠB áº¢O
ĠS ri
Ġr á»ĳn
f ia
ĠP L
ĠB C
ĠCh en
urn al
Ġp lay
Ġm áº¥u
ĠM oy
gh ini
Ġl Ã¡n
ĠVá» ¤
Ġch á»ĩch
Ġr Æ°ng
ĠDo ug
ĠLum ia
f er
Ġh Ãºc
as ter
ĠLam bor
o ff
Ġáº ¨
ĠBlu es
l at
ĠB á»Ńu
Ġch Ã³c
ĠSh ang
Ġs á»§a
v en
Ġ12 3
od ay
Ġthá» ī
ĠLiv e
ĠNap oli
Ġng áº¡o
Ġthu n
Ġ196 4
ĠC Æ°á»Ľp
Ġv Å©ng
Ġ11 4
ag an
st em
ĠP enn
ur es
ĠKaz akhstan
Ġm Ã¡ch
ĠL ind
ing ham
ĠLambor ghini
ĠTeleg raph
ĠW olf
ĠM T
X P
L IVE
ĠHolland e
Ġph ot
ĠV Ãłnh
ĠSnap dragon
Ġs edan
ĠN ev
ĠTT HC
R A
Ġkh Ã¹ng
Ġx Ã¹
ĠTh Ã¡m
ĠJo urnal
O L
r it
... )
ĠLu mp
b oy
th á»±c
ĠVá» ļI
ĠStev en
w ang
Ġ19 0
ĠCast ro
ĠTH ÃģNG
v iet
ĠÄĲá»Ĳ I
Ġl ive
ĠN ag
ation s
ĠN Ãł
ĠL A
ĠÄĲ áº¹p
ĠA V
ĠAn th
ĠM S
av i
n Ã³ng
ĠB iá»ĩt
ĠBenz ema
ĠC it
ĠC le
ĠKh Ãºc
ĠC ur
ĠC Æł
ĠBe au
Ġx Ã³i
ĠR ol
ĠCÄĲ CS
ĠIS O
Kh Ã¡nh
ir l
ĠCh á»©
ĠT em
ĠTa e
ĠKH CN
xcÆ¡ va
Ġláº» o
Ġv áº¡t
ĠF ul
ĠL ab
ĠP ri
hi p
un t
Ġ14 1
us se
Ġy en
ĠNh iáº¿p
ĠVina Phone
ĠDN A
K CN
á»ĭ m
ĠSt am
Ġtr iá»ģn
Ġr ÃŃt
ĠH á»£i
re gas
ĠRodrig uez
H T
am ine
Ġ12 1
ĠâĻ «
Ġ195 4
Ġd el
ĠP ra
ĠJohn ny
ĠBiz LIVE
b it
ĠNg áº¯m
Ġvá»ı n
s an
Ġc áº¥n
Ġs á»įc
st al
ĠSw an
ĠEm irates
ĠVn E
ĠF il
ww w
p ot
ĠB Ã©o
ĠÄĲK VÄĲ
Ġc Ã¹
ĠJ ar
c ent
TV QH
ĠIs land
ĠS ab
ĠP ors
TP HCM
ĠFran co
Ġ Æł
ĠK as
Ġh uyá»ĩt
Ġgiá» Ĺ
ĠC á»«
ĠTh Ã´n
ĠA B
ĠS at
th ur
at us
ĠO t
b ox
p son
ĠQu een
Ġm o
ut e
id i
ĠRa j
Ġph iá»ĩn
ĠMos ul
ĠYing luck
Ġth Ã¡n
o ol
ÃĤ Y
ĠS SI
ĠD eb
Ġm et
O A
ce pt
ĠC V
ĠPh Ã¡i
ah u
B enz
ĠK ey
ĠKu ala
Ġd ÃŃ
ĠC I
ĠÄ ĥ
ĠI X
Ġk Ã¨o
Ġm á»ĵng
ĠCB CS
Ġv Æ¡i
ĠF TA
olog y
Ġo Ã¡n
Ġn Æ¡
ĠSen kaku
Ġn Ã¡u
Ġh áº±n
Ġph Æ°á»Ľc
Äĳ á»ĵng
Ġng á»ķn
ĠT ÃĢI
ĠL áº¯c
ĠP ed
ĠK ÃŃch
Ġd Ã£i
r as
ĠG un
ĠLÄĲLÄĲ VN
h ar
Ġk Ã¬nh
Ġb Ã´
ĠM iá»ħn
ĠTr av
ĠPors che
ĠLump ur
i j
ua t
ĠF ire
tain ment
Ġch áº¯t
an on
Ġ12 7
ĠS áº¢N
ad or
ĠFab regas
g á»įi
ĠT áºŃn
Ġgi Äĥng
ff e
ĠKh e
t im
ĠC á»ı
ĠTH á»¦
b ar
Ġ10 60
et ta
ĠViet lott
ĠS ap
ĠSá»Ń u
ĠÄĳá»Ŀ n
al ty
if i
Ġb áº£
ĠBro ok
ĠTH I
ĠVI P
ĠTh Ã©p
m un
ĠN áº¯m
ĠTr ip
ĠM Ã¢u
ĠCh iÃªm
ĠG áº¡o
ĠCH I
ĠSe ung
r ie
Ġm iáº¿u
Ġvá»¥ ng
ĠW HO
Ġs um
k ing
ĠD áº¡y
ĠL Ã£
ĠVAM C
kh u
gi áº£i
ĠMac ron
o e
ĠNh á»ĭ
ĠHar ris
ĠR Äĥng
A V
ĠCh iÃªu
c l
ĠHo ld
Ġt á»§y
Ġs áº£ng
ĠSt ore
x ÃŃt
200 1
ĠVN A
Ġph Ã¡ch
ĠB ent
TV S
n ie
ĠWe ek
ĠT Ãło
Ġng a
ĠÄĳÃ£ ng
ĠK am
Ġkho áº¯n
Ġnháº¹ n
ĠR ain
Ġ <
ĠL Ãłnh
em y
ĠD á»ĩt
TT T
S E
ĠQu al
ĠR uss
Ġgi un
Ġhá» ħ
ĠW an
lig ht
d u
ĠTK V
qu y
ĠP N
ĠJ es
ĠRog er
Ġng Ã³i
ĠD or
ĠEnter tainment
Ġg ram
Ġd áº«m
ĠVin alines
Ġs Ãł
Ph Ã³
200 3
m and
Ġv áº§n
Ġtá» £n
ĠB Æ°á»Łi
ĠJ ul
ĠCol um
ĠT Ã²ng
ĠId lib
Ġ11 8
ĠKh an
S au
b all
Äĳ a
Ġd ong
D P
ĠRom ania
Ġ11 7
p ol
ĠD S
Ġm ar
ai ne
ĠP CT
ch ia
Ã³ e
ĠM ol
au s
Ġ27 0
vi ew
ĠM anh
ĠS mart
om an
12 0
ĠO K
op y
ĠKho áº£nh
ub ishi
ĠChá»ĭ u
ĠÄĲ á»Ļt
ĠP y
Ġg á»įt
ĠC Äĥng
Ġ Ð
% -
ĠA BC
ĠNh iÃªn
h ot
Ġr Ãłnh
i i
ĠtuÃ½ p
ua dor
Ġ12 2
ĠÄĲ Ã³n
ĠD un
ĠX áº¿p
ĠM á»ĺ
Ġ12 6
Ġb ai
ĠB ad
ĠR áº±ng
á»ģ u
ĠAlex and
Ġx ui
Ġs á»¯ng
B Ã¡o
d uc
ĠL áº¡nh
Ġvá»¥ t
ĠUA V
Ġb áºŃy
ĠT own
? ).
Ġn om
bo ard
Ġta b
Ġc ent
Ġm ix
iá»ĥ ng
22 5
ĠKh Ã¡ng
ĠDe ir
ĠAl f
ĠIn n
Ġtá» Ł
ĠSec ret
Ġc áº±n
ĠG Ã³p
ĠStam ford
ĠNh Ã¢m
Ġcas ino
ĠTun is
m one
d r
ĠRaf ael
R I
ĠG on
r áºŃp
Ġm Æ°á»Ľn
h ad
ĠB iá»ĩn
ĠD anny
ĠMoy es
ĠF ED
ĠR ap
ĠPal ace
b ook
R E
c ia
ĠTh oáº¡i
ĠA j
ob e
ri ch
H A
l Æ°á»£t
ĠC áº¯t
F TA
ĠC ab
ĠTr Ã¹ng
ster dam
id el
or th
ĠM ach
ĠNGH Iá»ĨP
Ġt est
Ġr áº§u
ĠCan on
Ġb Ã³i
ĠÄĳá» Ĺi
ch iáº¿c
ĠSV ÄĲ
ĠEc uador
Ġb á»£
ĠH inh
áºł N
Ġt Ã²i
Ġc áº·n
Ġr Ã¬
ÃĢ N
ĠH at
brid ge
ĠGI Ãģ
l av
tr Æ°á»Ľc
C G
Ġr Ã¡t
ĠS abeco
ĠW oo
Ġv áº¿
ot elli
ĠG am
ÄĤ N
ĠLen ovo
ĠCA H
under land
k V
ĠN an
ing er
com m
Ġkh Ã¢m
Ġbu á»ĵm
ap an
c al
Ġhor mone
19 45
Ġv est
aul t
ĠH TV
ĠM Ã¨o
ĠMá»ĺ T
Ġt á»Ļt
Ġthá» ĩ
ĠCol e
ĠKho an
Ġ98 1
Ġd áº¥n
ĠK or
ĠSt and
ĠCA P
rol et
Ho Ãłng
ĠDe f
gi Ã¡
á»Ģ N
t áº¡i
Ġch áº¯p
ĠCh áº£
ĠG AS
F O
iv a
ĠP art
c ord
ĠBV TV
ĠN á»Ńa
Ġl áº¡y
uck er
ĠCo un
ĠH ir
ĠO m
C X
r ent
ĠMat a
ĠCen ter
Ġ ad
ĠC z
ĠOli ver
ĠKhu Ã´n
V P
Ġb Ãłnh
ĠB aghd
i or
Ġm Ã¨
ĠGab ri
i el
k en
Ġkho Ã©t
ĠGe un
m g
ĠV a
ĠSouth ampton
Ġ36 5
Ġb á»Ŀi
Ġm áº§u
ĠNh an
od a
Ġs Ãª
ĠS S
ĠChev rolet
b Ãªn
ĠDO ANH
ri que
ĠGar eth
AT GT
ĠBal otelli
ĠAlex is
z h
Ġ @
Ġgi áº§y
ĠGP S
Ġ15 5
Ġtrá»£ n
ĠB ella
Ġst art
ĠBL HS
ĠSus an
H D
Ġch ao
ĠHOáºł T
ĠT ower
V Ã¬
ĠÄĳ iáº¿m
ĠB áº¥y
ĠA ug
ĠMat th
B T
os ti
Ġje ans
ã Ĥ
ĠÃģ ng
Ġ28 0
ĠtÃº m
Ġ196 3
ĠTR ÃĮNH
Ġ19 30
ĠCar ib
ĠAsh ley
ĠB Ã²
th á»©
ĠVietnam net
ĠBund es
ĠAnth ony
Ġg á»Ŀ
ĠHo áº±ng
ĠNic olas
ĠO d
ĠS ter
ĠD á»«ng
ĠG od
io us
' '
Ġnh áº½
Ġnh áº£m
ĠL il
Ġnh Ãºn
ĠMits ubishi
ĠR IA
ĠTh er
ĠVI C
b ul
ĠKh áº©u
ĠH ig
v á»£
Ġ13 2
Ġl áº©u
Ġh Äĥm
ow ski
Ġth uyÃªn
Ġs ho
IC A
ather ine
ĠB all
ĠI v
19 75
ĠT L
ĠCai ro
ĠGi Ã¢y
ĠLy n
app y
ĠS underland
or g
li ga
Ġp l
ĠBen j
ĠR ON
ĠL á»«a
ĠCh áºŃm
ĠD á»ħ
Ġlog istics
Ġtá»Ł m
Ġn áº¥c
Ġ ex
Ġg Æ°á»£ng
ĠThu áº§n
Ġ26 0
ĠG as
ĠTech combank
b u
Ġtr á»įc
as il
ĠGi áº¥c
ĠAm sterdam
Ġb anh
ĠM orning
ĠL IÃĬN
ĠP ay
ĠG ary
v est
Ġs áº§m
Ġvá»ĩ t
H á»Ļi
Ġbá»Ļ n
Tr Æ°á»Ŀng
Ġs á»Ļ
ĠS Ã¡t
ĠC es
ĠS ara
ĠCol or
Ġl áº¡ng
ĠG all
Ġt áº¯n
as a
Ġdu á»ĩ
Ġn u
Ġn Ã¡ch
ĠD ra
ro g
Ġh en
ĠV AT
á»Ĭ CH
ĠJim my
Ġt áº¥c
Ġqu áº·c
ĠTr uyá»ĩn
Ġcá»Ń u
ĠB rian
ĠL otte
k ins
Ġr áº§y
ĠGal a
ĠL áºŃy
Ġl Ã©p
ĠH áº³n
C Ã´
s tr
Ġb oy
ph ia
Ġqu ai
ĠM A
ĠK ane
w ork
Ġh áº¥n
ĠK yo
um i
ĠSC IC
iz za
Ġtr uáº¥t
ĠRobert o
? .
ĠLu x
ine a
q a
s son
ĠB our
ĠSh aw
Ġnh á»ĳi
l ic
o on
Ġl iÃªu
Ġ12 4
ĠRoll s
Ġh an
ĠN á»Ĺ
g et
ull ah
au x
P et
ĠÄĳ Ã¹ng
Ġl im
Ġch Ãły
ĠQu Ãª
ĠCo ca
á»± t
M an
Ġl áº«m
ĠHu gh
c ert
y le
ĠK ab
d au
at han
Ġp oly
ĠC oo
ĠS AR
ĠAl bert
Ġs áº£
ĠLeb anon
s er
Ġch Ä©a
Ġ á»«
Ġd ÃŃp
ĠTh ung
ĠX á»©
ĠY oo
Ġy our
ĠViet G
ĠCÃ´ng ThÆ°Æ¡ng
Ġá»Ķ ng
Ġng Ãºt
Ġquy á»ĩn
ĠUB CK
ĠLan ka
ĠQual comm
B NN
Ġm Ãºc
Ġs Ã¡
w n
ĠL ÃŃnh
Ġth at
Ġr áº±m
ĠB á»ĵi
ĠS Ãłn
ren ce
ĠR un
ur s
ĠFran ce
ĠD al
Ġkh ay
ĠP re
B ook
Ġnh Ã´
Ġl á»ĳ
Ġo anh
ĠGom ez
Ġd á»ım
ĠV áº¿t
ĠPh n
ĠPer ez
ĠMor gan
ĠJo el
ĠWar s
Ġgu itar
re al
ĠIm ages
ĠGard en
f Ã©
Ġr Ã¬a
ĠCh áº£i
Ġcom p
Ġch at
ich i
ush ima
Ġnh Å©
ĠWil son
h Ãłng
Ġlá» £p
ĠA st
ĠdÃ¬ u
ĠI BM
ĠAl an
g irl
v is
Ġgi áº¥m
ĠLuc as
ĠBr u
Ġnhá»Ŀ n
Ġc á»Ļm
ĠKH áº¨
oll ah
id d
ĠVit amin
ĠH Iá»ĨN
ĠvÃŃ a
ĠMir ror
ĠTh iá»ĩt
ĠMich el
Ġn iá»ĩu
ĠMar ie
w ar
giá» ¯a
G C
ĠTHA NH
ĠK em
ĠW atch
ĠOk ay
Ġm Ãºi
ĠD á»¯
Ġ á»ī
Ġhy dro
Ġb iáº¿ng
ĠBar ry
ĠT ess
ĠMo z
Ġl iáº¿c
ĠT oshi
Ġch áº£nh
ut a
ĠBenj amin
Ã ī
ĠÄĳ ong
ĠTr áº§m
Ġ11 9
ĠMich elle
ĠBundes liga
U N
Ġch Ã´m
ĠL á»Ĺ
ĠJ ason
ĠMan uel
Ġt Ã¬
ĠB ud
ĠQL DA
Ġg Äĥm
ir i
ĠIs a
E E
ĠL is
tr y
ab le
ĠJob s
ĠH Æ¯á»ļNG
Ġ195 9
ĠPHáºł M
ĠAr thur
Ġáº¤ t
ĠR an
ĠEx press
ĠSlov akia
ot s
ĠSport s
ĠCz ech
re e
Ġs elf
ĠK KT
Ġac id
Ġ195 8
E X
ĠSt oke
ĠH ann
ĠDav is
Ġtá» ħ
ĠO PEC
ĠH ab
ĠU h
t ÃŃnh
ĠCen tral
it i
Ġr Ãªu
ĠKh uáº¥t
ĠC K
ĠH im
% );
Ġs áº£i
ĠT ouch
ĠL Å©ng
Ġf eet
" :
à ¸
ĠFernand o
ĠS ib
ĠA TVS
ua tin
Ġy oga
ĠTunis ia
ĠC á»Ļt
ĠWhi t
Ġt en
ĠCarol ina
ĠKh al
F I
ĠPed ro
Ġv Ã²
ĠTh iá»ģu
ĠT áº§ng
ĠK N
u oid
ĠJes us
Ġc over
Ġph áº¥t
ĠP M
en na
T F
Ġn áº¥p
e h
ĠChrist oph
Ġ et
ĠHai ti
áº« ng
Ġder by
ĠT áº¡ng
ĠL CD
Ġh on
b en
Ġs Ã¹ng
ĠP A
oth er
r Ã´
ĠF ashion
nam e
ĠÄĲH QG
ĠF ut
ĠÃĶ n
ĠKHáº¨ U
V Ä©nh
ow een
T Æ¯
ĠÄĲ á»§
Ġsá»Ń ng
ĠY as
Ġur ani
ĠM SN
ĠHu go
Ġg Ã¡n
ĠCáº¤ P
et z
Ġo p
ĠDan ce
uoid uatin
ĠC ard
ĠK lo
Ġmu á»Ļi
Ġnh Ã¡
Ġr Ã¢m
ĠB TV
ĠMir anda
ĠLat in
ĠNg Æ°u
ĠB Ã¹
ĠO ut
eto oth
ĠÄĲ Ã¨n
ĠM á»ı
Ġ196 1
Ġnh Ã¡c
C V
ĠK INH
Äĳ Æ¡n
ĠL Ãłn
â Ģĭ
ĠBr and
m áº¹
on o
ĠRes ort
in ch
Ġc áº³ng
ĠR ick
ĠH ag
ĠJam ie
ĠL áº¡ch
Ġngo Ã£n
ĠNh á»±t
Ġ14 5
B Ãł
ĠC ass
H ÄĲ
Ġs il
end er
ec tor
ĠSom alia
áºª N
ĠT ill
ent al
ĠZ ucker
att an
ĠN Ã©t
ĠB ai
Ġâ Ģĭ
ĠL es
H ay
Ġnh am
ĠK ai
ĠX inh
Ġs áº¡p
ĠR ah
ĠN Q
ĠSnow den
m á»Ĺi
Ġ ar
ĠD C
ĠÄĳo Ã¡i
F S
i ra
Ġr áº©y
ĠÄĲ áº¦U
ĠS or
Ġ {
Ġm ui
ĠV CCI
Th á»§
Iá»Ĩ M
y Ãªu
ĠT itan
Ġf rom
Ġ19 40
at ed
ĠMay a
i ff
Ch á»§
ĠPat rick
Ġg á»ī
ĠHous ton
ĠT á»
ĠG aga
om a
ĠGu inea
ĠT ED
Ġh Æ°Æ¡u
ĠR ose
Ġch á»ĵn
ĠN áº¯ng
Ġb áº§n
ĠL ight
ĠâĢĭ âĢĭ
ĠD ragon
Ġt anh
Ġm eg
Ġn áº¡c
ĠLe g
ĠHá» ĺ
dau tu
Ġb Ã¡i
3 20
n t
ĠLu kaku
ins tein
Ġyá»ĥ m
ĠN ight
ĠCH á»
ĠTr áº£ng
Ġh at
Ġng uÃ´i
ĠJ osh
itt le
ĠTN CS
ch ip
ĠMill er
ĠKlo pp
Ġn ÃŃn
ĠK ore
Ġ16 5
ĠSant os
ra w
ĠBi eber
V in
Ġk il
Ġn áº¯n
ĠM á»«ng
ĠVik tor
ĠT Æ¡
ĠTim or
Ġb Ã¡ng
Ġng ai
ĠNov osti
Ġbo ong
ĠVinac onex
ĠLeon ardo
Ġd iÃªm
ĠÄĲ Ãª
ĠH iÃªn
ĠK ath
Ġbl ue
Ġd áº³ng
as ka
ik h
ard y
Ġká»ģ nh
Ġso lo
¡ n
b ack
ĠXU áº¤T
Ġn em
ĠB á»Ļi
ĠG Ã¡i
Ġhá»Ł i
1 30
ĠG CN
Ġs ing
ĠC áº¥u
T uy
Ġthá» Ľt
ar io
ĠR ica
col n
ĠH av
ĠS ina
ĠMar cel
ĠAs us
att le
ĠBaghd ad
ĠS anh
ĠW el
ye ong
ĠBah rain
R S
ĠF ull
Ġx Ã²e
ap ixel
ĠMoham med
ĠCry stal
á» Ĥ
U D
d á»±
ĠB AN
ĠCh er
Ġself ie
el y
th u
ĠT CN
ĠEx p
% ...
g l
ĠInd ex
ĠBuff ett
qu Ãª
ĠS T
Q S
ĠC er
any ahu
G TVT
ĠU m
ĠF idel
ĠHall oween
ĠOff ice
con om
w en
w agen
th Ã´n
ĠNat han
ĠCH áº¾
Ġláº» n
ã ģ
ĠAli b
ĠBr om
Ġnh Ãµm
way s
Ġm Æ°á»Ľt
" ;
ĠW hat
Ġg á»ĵng
ĠB ook
ĠTech n
ĠAbd ul
l en
Ġt e
Ġn ot
ĠE PA
aw i
ĠT áº£
ĠT á»įa
ĠZucker berg
ĠL á»Ńa
al s
Ġpen alty
r ight
ĠT es
ĠBal tic
ĠNg á»±a
Ġká» ģn
Æ¯á»ľ I
ĠT áº·ng
as aki
ÄĤ NG
Iá»Ĥ N
Ġb all
ĠAndre a
ĠÄĳ áº§n
ĠG az
Ġl Æ°Æ¡n
ĠTT O
ĠÄĲH CÄĲ
ĠNG O
ĠM ig
ĠAb ram
ĠNet anyahu
ĠAlib aba
Ġu áº¿
ĠI an
Ġw on
ĠB est
ĠK Ãª
ĠkÃ© n
Ġtrai ler
Ġtr áº§y
ĠLin coln
Ġng Ã¹ng
ĠD áº£i
ĠR us
ĠHo Ãłnh
Ġ13 4
áº¨ M
tr á»«
Ġ um
Ġn Ã´i
ĠB ec
TT H
ĠSh ak
Ġm uá»ĳng
ĠCh á»¯a
ear l
" -
Ġnh áº¡o
ĠTr á»Ļm
il ia
ĠVol ks
D T
Ġ áº¯p
Ġl Æ°á»£m
ĠD ur
z i
ĠSo c
ĠCr u
ĠJet star
Ġ13 8
ĠRom an
Ġg l
Ġng á»£p
ĠS á»©
ĠSp r
n á»¯
ĠJu ve
f o
ĠE ve
op ol
ĠEr ik
ĠPr ess
b Ã¬nh
w ait
Ġsh op
ĠIsa ac
ear s
Ġl uyáº¿n
ĠG PL
ĠC re
z en
stan bul
ĠS áºµn
ro om
t Ã´ng
ĠC L
on na
ĠTel e
ĠV ÄĤN
tr e
R P
ĠH ÄĲT
ĠW ik
ĠG han
ĠR et
ĠTT XH
Ġc Ãµng
ĠMoham ed
d ay
Ġnh Ã²a
ĠM ao
ĠIP O
Ġl iÃªm
Ġ22 5
ĠAr ena
ĠMas ter
ĠEx c
H Ã²a
ĠPot ter
Ġth áº·ng
Ġb Ã¹i
ĠE C
g ov
ĠM INH
ĠCh ap
ĠSer ies
S h
ĠK aw
Ġm Ãło
ĠP es
ĠR Ãł
Ġx á»ĭn
ĠÃģ N
ut ter
ĠN y
ĠP omp
Ġ3 30
ÄĲ oÃłn
ĠCh Ã³
Ġ195 6
Ġth áº¹n
au t
ĠO zil
ĠT ob
Ġph Æ°á»£ng
H iá»ĩn
Äĳ áº§u
ĠQU á»ĲC
b Ãł
ĠkhÃ³ m
D F
ĠB B
ĠMi ami
Ġ áº¯t
Ġc ac
Ġbá»ĳ t
o M
Ġâ Ģ
ia g
ĠJ apan
li an
Ġn oi
ĠPro ject
Ġb iáº¿m
ĠMal i
ng er
Ġb on
ĠRe g
ĠNg áº¡n
ĠNguy en
Ġc Ãłn
M TTQ
Ġfl ash
Ġthá»ī u
ĠS ah
Ġh Ã¹m
ĠD áºªN
Ġ á»ķi
Ġm áºŃn
ĠSy stem
ĠAr men
ĠBar b
ĠS ak
ar s
ĠTR á»
ĠGener al
ĠI stanbul
ĠAut o
ĠGeor gia
ĠHS BC
f an
ĠF e
Ġph Æ°á»£t
ĠB ond
ĠM b
ĠK om
ĠVolks wagen
V á»Ľi
Ġngh iáº¿n
ul d
st ock
1 000
Ġv Ãºt
am o
ons o
h ol
ĠB ey
ĠFuk ushima
Ġv ali
ĠT iger
em b
ia t
ĠArsen e
ĠNg uyá»ĩn
ac y
ĠL ink
ĠAl aska
l oáº¡i
ĠA NH
ĠJ ud
eb e
S á»Ł
Ġn áº»o
ĠKh á»ķng
s burg
Ġtu á»³
g hi
Ġh Ã©o
im er
Ġo ut
ĠRob ot
Ġn it
ĠB á»ĵng
ĠBe at
t iá»ģn
ĠT áº¯c
ĠC á»ĵn
ĠH uyáº¿t
ĠWeb site
ĠVnE xpress
Ġtr áº§u
er i
ND N
ĠLu ke
Ġxo Äĥn
uz ia
ĠHan oi
ĠUB TVQH
ĠNi Ãª
Ġd áº»
ĠSal ah
ĠCh anh
ĠV es
Ġgiá» ¡n
ath on
ĠSwan sea
Ġgen e
J et
W B
Ġm Ä©
ĠE X
Ġg ames
ĠP av
le g
r ard
Ġm in
ĠL amp
le x
L Ã¢m
ĠH ad
ĠL U
W S
± a
ĠTho Ã¡t
Ġd es
ĠCh á»¥p
ĠLop ez
ĠStand ard
ĠT áºłI
at in
Ġch uá»ĵn
ĠB á»Ļt
ĠHo ward
Ġc H
oy ce
Ġch áº§n
ul in
ÃĢ NG
ĠLy on
ar in
Ġfan page
ĠBol iv
p ing
ĠC ore
ĠJav a
ĠF ur
ĠT G
ĠÄĲ Ã¡c
ĠBr ent
D R
Ġm Ã³
Ġn Ãºp
ĠHam as
Ġs áº¥m
ĠSt one
ien ce
Ġv Ã£ng
Ġn ao
ĠH T
Äĳ á»ĥ
ĠÄĳ Ãły
ĠPh áº«u
s p
Ġt eo
Ġc ard
Ġnh Ã¡o
Äĳ iá»ĥm
Ġ Ã¬
ĠTill erson
S H
ĠS áº¿p
ĠK ol
ĠEd die
ĠCatal an
ÃĢ NH
mar k
al le
Ġ3 000
ĠR ud
Ġb á»±
Ġs Ã²
ĠL Ã¡t
ĠD iana
Ġ195 7
Ġm g
ĠZ imb
ĠKu wait
Ġb uá»ĳt
Ġnhu áº§n
ĠKH ÃĶNG
Ġng Æ°á»Ľc
ĠEn rique
C áº§u
Ġnh Ä©
ĠL Æ°á»Ľi
ĠD ell
Ġtá» µ
ĠE ti
ĠKh á»§ng
Ġláº½ o
ĠSl am
ĠG ol
tr ick
Ġres ort
ĠNg á»§
Ġ13 1
E VN
Ġ19 46
ĠO S
o f
ĠN ak
hi o
ĠCam bridge
ĠBS T
ĠGre g
ĠÄĳ iáº¿c
Ġl Ãªnh
p u
ĠM á»ħ
up e
ĠAn ne
ĠBru ce
ĠT iáº¿c
ĠP ad
ĠGr uzia
ĠPhn om
ar ia
Ġtho i
ĠSer ena
ug h
ĠCh á»ĳt
Ġk ali
c es
ĠMc D
ĠArmen ia
Ġ all
ĠCar lo
k á»ĥ
Ġch á»Ļi
ĠÄĲ S
ĠMeg a
Ġ13 6
ĠOlymp ia
ĠMar co
ond er
ĠS Ãºng
ĠMar cus
ĠM em
lo ad
T o
Ġd Æ°á»£ng
ĠL og
ĠNG Æ¯á»ľI
ÃĬ U
ĠÄ ©
ĠMart ial
ĠÄĲ áº¡m
ĠKr ist
ĠMB H
Ġg Ãłi
ĠC Ã¢n
ĠC TV
ĠK Ã©o
ĠW im
ĠSe a
Ġb Æ°ng
Viet NamNet
l anh
Ġs pa
ĠnghÄ© nh
ĠBlu etooth
C ap
ar m
ĠY our
ĠGold en
v ania
hi ng
Ġth Ã¬nh
ĠNg oan
ĠWal ker
ĠTh Ã¡o
ĠR over
ĠTR Æ¯á»ľNG
Ġr Ãºng
ĠL áº¡m
ĠK um
HN X
ĠM Ä©
q qa
Ã Ĵ
áº ¶
ĠT iÃªm
ad y
TC K
ĠCS HS
ĠÄĳ anh
ĠÄĲ á»ķng
N a
m as
ar en
ĠFranco is
ess a
ĠPet ers
Ġn ai
CO M
P K
S Æ¡n
u th
Ġng Æ°á»£ng
ĠN áº§y
ei ro
ĠCh Ãłm
ĠSh ah
H OSE
Ġhá» Ŀi
ĠR and
20 21
ĠCl aire
t Æ¡
Ġthá» ıi
ĠTh Ã¢m
ĠAll en
7 50
Ġph Ã¬nh
ĠSam uel
ĠCr uz
ĠS O
ĠD Æ°a
ĠKh iáº¿t
ĠZ e
Ġ un
ĠChar l
ĠLew is
c Æ°á»Ŀi
ĠW ave
ĠcÃł phÃª
ĠKid s
Ġtr á»ĵ
á»¥ n
ĠNH áº¬P
ĠS qu
ri p
m et
ĠV A
Ä ¨
ĠS ad
Ġs Ã¹i
ĠTh áº£m
ĠJo ong
ĠBab y
ch eon
Äĳ Ã¡nh
ian e
P hi
ĠH ass
ĠTHA DS
Ġch áº§u
ĠB A
Ġ15 2
Ġg Ã³a
ĠM end
Ġtrá»¥ i
Ġb áº¥p
Ġá»Ĳ c
ĠGon z
Ġl ink
ie z
ĠSt ock
ĠCo ut
ĠI T
Ġ19 44
ĠMar sh
ĠMc G
Ġl Ã¬nh
Ġ20 50
Ġe kip
D o
s in
Ġs Ãłi
ĠS XH
ĠColum bia
1 10
s á»±
ĠI C
ĠSa f
ĠLÅ© y
bor ough
ĠÄĲ á»ķ
al t
ĠCP H
ĠC li
ĠJ ag
ud a
ch á»ĭ
ck er
en se
ond o
yl on
Ġhá»Ŀ n
ĠLo áº¡t
ĠVin com
ĠT ev
ĠM ap
Ġ12 9
200 2
Ng uoiduatin
ĠTHU áº¾
bour ne
Ġg r
on line
ĠTele com
ĠIn i
ho a
u an
b ro
hi s
il i
ĠAnd erson
Ġtr Ãłm
Ġng áº§u
Ġá» ľ
Ġc áº¡p
eo ple
ĠÃĲ oáº¡n
Ġv Ãªnh
ĠDo c
ĠAh mad
Ġd Æ¡i
ĠÄĲ áº«y
Ġta l
Ġtr Ã³c
ĠV ing
ĠC iv
ĠVÄĲ QG
ĠH áº¯c
Ġnh eo
ĠT Æ°á»Ľc
ĠFir st
ĠE ast
ĠF ood
ent e
Ġmá»ī a
g ie
ĠM ov
y ad
ĠR Ãºt
Ġxo Ã¡
ĠLaw rence
ĠGPL X
ĠAr áºŃp
ĠPH á»¦
shi re
C hi
ĠO hio
gg s
ĠTh Ã¡ch
ab we
ĠPhil lip
Ġtab let
ĠAl pha
yl vania
om on
uk ov
Ġs áº£y
ag i
O O
ĠN el
tr ol
ez b
Ġu h
k av
ĠE co
... "
Ġ áº£i
ĠG ro
el ine
TT M
ĠTal ent
mo on
ĠHA G
ĠPort o
c ini
m at
ĠD ir
23 6
ĠXiao mi
T I
d an
ĠT ui
ĠX y
ĠE un
ur as
Ġp ixel
ĠMcC ain
ĠTr Ã¹m
ĠK ro
ĠK pop
ĠKCN A
R oyce
ĠKh Ã¡t
Ġhá»ķ i
ĠPh e
Äĳ áº·c
áº¤ n
ĠX D
Ġ13 3
Ġt w
ĠCh áº¡p
it ez
d g
Ġr e
ĠM um
ro ud
ar on
ĠEs p
ĠC and
ĠRo ad
ĠN ich
ĠJ en
ik o
ÃĻ NG
ĠT Ãºc
ĠCam ry
ĠWal ter
ĠMin sk
Ġkn ock
ĠX M
V H
ĠN Ã´
ĠhÃ£ n
ĠLar ry
ĠN á»ĺ
ĠH á»Ļp
ĠBl ock
ĠRa qqa
ĠZimb abwe
Ġ q
Ġ7 20
ĠP S
ĠBen itez
ĠV iÃªm
col ate
ĠAth ens
Ġst atus
ĠT á»ĭch
ĠV Æ°Æ¡n
ett s
Ġgi áº«m
ĠI mp
Ġf utsal
ĠSi u
ĠPe nh
b at
c Ã¡i
ĠTr ai
ad ona
Ġh áº»o
Ġb ÃŃt
ĠIni esta
1 60
ĠF all
ĠNg Äĥn
ill as
ĠH as
ĠBern ard
V Äĥn
Ġb lock
ĠTN XP
ĠM Ã¹
ĠRodrig o
ĠÄĳ c
ĠH ezb
Ġx Ã³c
ÃĶ I
ko zy
ĠÄĳ Ãºt
Ġng Ã¡y
Äĳ á»ĭa
ah n
78 71
ei ra
ĠY áº¿u
id en
r Ãºt
I B
Ġnhá»Ľ t
n o
ĠX o
ĠKh áº©n
ĠTH ÃĢNH
ĠTev ez
ĠLu k
Ã §
Ġt áº±m
ĠTr á»©ng
ĠT NDN
ĠGra ham
ĠPHÃģ P
ĠVen ice
ĠP ir
Ġ195 3
Ġ Ã³i
ĠA G
ĠTS CÄĲ
Ġ195 5
áº¤ N
ĠB un
ĠMar adona
Ġw e
Ġt Ã£
Ġb áº¿t
ch ain
Ġ14 2
og ue
ĠC ad
Ġx á»Ľi
Ġ19 20
Ġtráº» o
ĠTa xi
ĠBH TN
Ġh Å©
Ġtu á»ĵng
Ġh á»Ļt
ĠSel ena
b s
Ġgi Ã¹m
4 50
ib o
Ġhu á»³nh
um an
ina wa
Ġsty le
Ġch Ã¹i
Ġn á»ĩ
Ġthá»ı m
Ġs á»ĩt
ĠOcean Bank
G iá»
al in
ĠVietG AP
Äĳ á»Ļi
Ġo ai
ĠVing roup
ĠN ot
Ġcá»ı i
Ġm Ãºt
ĠN M
Ġgiá» Ŀi
Ġm ake
ĠTh iá»ģn
Ġnh á»¡
Ġn áº·n
n s
ĠKar l
Ġvá» ¯a
ĠM á»Ļ
ĠR S
l ia
Ġ13 9
ĠPark er
ĠHá» Ĵ
Ġbá»ģ nh
Ġ. ................................
ĠD im
ĠTes la
v Ã¬
Ġk iá»ĥng
Ġ19 42
Ġqu Ã¡ng
ĠV Ã©
ĠK Iá»ĤM
ĠPer ry
ĠEar th
Ġch an
Ġs am
ĠGi Ãł
ĠVN CB
Ġgi en
ĠL ag
ĠJer sey
Ġng á»Ľt
ĠU g
is ter
c Ã¡ch
Ġh Ãª
ĠManh attan
u er
ĠN á»ķ
ĠN Ã³ng
ĠTh Äĥm
ĠB áº¯n
ĠD Ã¢y
ĠGi ggs
ĠHezb ollah
ĠF ell
ĠPHÃģ T
Ġr á»£
ĠI A
ĠCr oss
s ay
Ġho áº¡
ĠVin cent
Ġn Ãłi
Ġcá»© a
Ġo k
c áº£
g mail
ĠL ily
ĠCl aud
ach us
ĠHon d
Ġt Ã©p
Ġb r
Tr Æ°á»Ľc
Ġb áº·m
Ġg ym
A sia
ĠE th
ĠSch ool
bur n
ch iáº¿n
ĠPH Æ¯ÆłNG
ĠOk inawa
i ro
ĠGr iez
ĠSar kozy
Æ¯á»¢ NG
ĠX ong
is co
Ġb á»Ł
ĠDav e
ĠCh Ã¹m
han na
Ġt eam
Ġl Ãµm
Ġph ui
ĠB á»Ĺng
ĠKh iáº¿u
re en
ĠSy l
Ġl áº³ng
ĠM I
th á»Ŀi
iz e
ĠChá»ī nh
Ġp izza
ĠBor is
b áº¯t
Ġáº¨ n
o und
Ġg áº¯p
Ġ15 6
te ch
ĠGriez mann
l ist
Q P
ĠG Ã¬
Ġ9 11
ĠAm y
ĠM á»Ļng
ĠNh Ã£n
ĠR Ã¹a
Th Ãłnh
um ber
ĠTT ATGT
din and
ang nam
ĠJ or
ĠH Ã£n
ĠColor ado
ĠB áºŃt
i os
ĠÄĲ V
ĠD á»įc
ev el
ĠChristoph er
ĠHá»ĺ I
Ġv áº£y
Ġr Æ°á»Ŀm
ĠNg á»Ļ
ĠNh áº¥n
ac tor
ĠAD B
ĠR as
M al
ĠNg Ãłn
Ġk iá»ĩu
ĠR aul
ch u
ĠMod ric
b á»ĭ
ĠR Ã´
ĠKho ai
T in
Ãµ a
ĠGr am
Ã ¤
ĠS á»Ľm
ĠO mar
ĠGer rard
Ġt Ã³t
enn y
Ġph Ã¨n
ĠG á»Ĺ
ĠGi roud
Ġso Ã¡i
ĠFer dinand
ĠT U
ĠC atherine
ĠY i
s áº½
Ġ13 7
Ġ __
Ġn á»±c
ĠJ os
Ġ8 50
ĠM Ã¡u
Ġx uyáº¿n
ĠV el
Ġch á»«
Ġm á»ĭ
" ?
P ost
g s
Ġl uá»ĳng
Ġhá» Ľ
ĠP elle
Ġm áºŃu
Ġx y
ĠAr ch
Ġd áº·t
ĠHond uras
s et
t áº¡m
Ġl Æ°
Ġm áº§y
ĠWar ren
ĠA TP
G A
ch enko
ĠF utsal
ĠW ol
op ia
ĠS TB
ĠNh á»ĭp
l Ã´
ĠMar se
ĠBal i
Ġmeg apixel
ĠTR A
ĠEd ge
ĠCarol ine
Ġtá» ³
am ond
ĠMatth ew
T iá»ģn
Ġ oi
Ġnh Æ¡n
Ġn ano
ĠBol ero
c rai
Ġm l
ĠÄĲ áºŃp
N á»¯
Ġ14 4
ĠHO ÃĢNG
Ġn á»įc
Ġph Ãło
ĠNH ÃĤN
ĠCh av
ĠU s
' ),
li pp
Ġth iá»ģu
Ġ37 0
con i
h r
x tan
ĠN u
ĠCas illas
ble don
Ġ Ã©o
ĠT oday
ĠTr eo
ĠL Ã´i
ĠPh oto
Ġdá»¥ m
ĠNT D
ĠCh á»Ľ
Ġh áº«ng
ĠN ao
ĠCh áº¥m
Ġ20 22
ĠCl ar
ĠB ry
r era
ĠY eon
ut t
ĠFo ot
ĠK Ã¨m
ĠE V
ĠTh Ã¡c
ĠM iÃªn
ĠFl ash
ĠNh áº¡
b áº£n
Ġkhi Ãªng
Ġch ang
Ġx á»ı
ĠCH O
v al
ur u
lin s
ĠQ C
ĠFal cao
uy a
ĠP K
il ly
Ġr Ãªn
ĠB et
en o
ien co
ĠRi hanna
Ġ4 80
az e
ĠTH X
Ġc Ãºt
nh Ã¢n
Ġlá» ıi
ĠCoo per
TT S
ip e
Ġsing le
d ong
ĠU PC
ton ia
ĠLamp ard
g n
ĠX S
man uel
ĠK TS
ĠQu e
re z
Å ¨
ħ u
ĠH á»·
ĠV oi
ĠV ald
th áº§n
ĠYo on
ĠJun ior
l ess
Ġh un
ĠMass achus
Ġng á»£
ĠD z
ul f
ĠCu Ã´ng
ĠT as
ĠH Æ¡i
ĠR ou
ce p
han ol
ĠSter ling
Ġch Ã´ng
Ġg anh
Ġtá» ĥ
ĠWim bledon
Ġ5 000
SD ÄĲ
Ġ15 3
D B
a j
ĠK un
ĠD á»¥c
ĠLe v
Ġxo ang
ĠCh á»«ng
Ġgiá» ħu
ĠJo on
H ai
Ġr ich
ĠT Ã´m
Ġs áº«m
ĠH á»ĳ
ĠvÃ© n
Ġn Ã¡m
Äĳ áº¡t
K V
ol o
ĠC X
ĠH áº¹n
Ġsu Ã´ng
Ġg áº¡
ĠD á»ĬCH
ĠBoliv ia
Ġg ao
ĠB á»ĵn
ĠÃ į
er bai
ĠPenn s
L D
t Ã´i
Ġdo wn
ĠNH Iá»ĨM
ĠPau lo
ĠdÃ¹ i
ĠUS A
ĠGar cia
v Ã´
Ġth Ã²
Ġk V
ĠMan cini
B iÃªn
et ti
ach i
ĠGre at
Ġnh á»į
ĠM oto
ĠR eb
ĠAr iz
ĠMad uro
Ġ are
Ġh Ãº
ĠTh ang
Ġnhu á»ĩ
B L
Ġl Ã¡c
Ġph á»ĵn
ann el
ĠGabri el
b á»Ļ
Ġchá»ī n
ot on
Æ¡ ng
Ġr Ã¨m
Ġcon cept
ĠJ ust
ĠRe x
ib ank
Ġtr á»ı
ĠH Ãłi
ĠB ac
ĠG ai
Ġ16 7
ar is
Ġkh ÃŃt
ĠS eb
ĠDom in
rog ba
ĠC opa
ĠSer g
N Äĥm
ĠBe ach
ĠCh uá»ĳi
ĠT áº¾
ĠC ov
ĠkhÃ³ e
ĠIns ider
Ġb reak
ĠD aw
Ġ14 6
c er
os ite
ĠT CC
ĠD á»«a
Ġnh á»īnh
ĠGi áº½
ĠUB KT
Ġkáº» o
bur y
Ġd Ã¬m
Ġlu á»ĵn
ĠR á»Ŀi
ina w
N ame
ĠAm b
w orth
um in
ĠL B
ĠP egas
ĠTAND TC
ĠMark eting
ĠMotor ola
ĠZh ang
ĠPenns ylvania
f orm
ĠPar ag
Äĳ Ã´
ĠL isa
ĠNS A
ĠPier re
C á»¥c
Ġn et
ĠS und
ap ova
iver se
Ġd ance
ear ch
ar ov
ĠH áº¢I
ĠR ash
ĠO L
J I
ĠT Ãłng
ĠTh ua
ĠTr Ã¡ng
ĠGhan a
ĠK BNN
ĠM Ã¡c
b ell
Äĳ ang
ĠEti had
Ġh anh
ad er
ĠAr k
ĠJon athan
erbai jan
Ġtr á»Ľ
on to
Ġb ÃŃch
ph Ã¡t
ĠNex us
ĠÄĲá» Ķ
R T
Ġ18 5
ĠC Ãĵ
ĠD á»ĭ
ĠD rogba
ank a
er ty
Ġ14 3
ĠMassachus etts
c Å©ng
l ish
ĠLu cy
ĠM ug
ĠD áº¡o
r ice
Ġ. ,
ĠE zz
ĠMÃ¡t xcÆ¡va
M I
ĠB TS
ch t
ĠLu Ã´ng
ĠOx ford
ab ad
Ġng Ã³t
us ra
ĠSe an
Ġnh áº¿ch
i Hay
ĠS ic
ĠCl ark
ĠGu am
ÄĲ Ã´ng
Ġhá»¥ i
t om
ĠT áº£o
ĠB it
ast ian
h ail
ĠC ech
ĠB kav
ĠR A
ĠKy r
ĠTh or
ĠSec ur
t our
ĠL ittle
ĠD Ã¬
Ġbá»ķ n
ib le
ĠRich ter
ĠH il
Iá»Ĩ U
ĠC áº¡n
ĠSal v
M G
Ġch áº§m
Ġb it
Ġ16 2
ĠÄĲ Ã¨o
Ġ2 12
ĠK L
ĠE instein
Ġ16 8
Ġ uyÃªn
ph y
ĠTr Ã¡c
ĠA L
ĠD ick
ĠEuro zone
L iÃªn
g es
er m
ĠShar apova
ĠPCT N
ĠAlf red
Ġx á»Ł
ĠÄĲ em
ĠBir d
Ġto Ã¡i
ab y
ĠSp ace
ĠSer v
Ġb ody
ĠY oshi
Ġ17 1
ĠSa ch
ĠK V
ĠD h
ĠSing h
ĠAriz ona
c u
Ġl áº£ng
ĠBan d
Ġt áºŃu
ĠH ind
Ġ19 43
ĠGor don
Ġ ev
ĠP ul
ĠLi u
ĠPeters burg
ĠM ini
Ġlo ang
ĠEm manuel
Ġ19 00
ĠJul ia
ĠG Iá»
ĠCH Æ¯ÆłNG
ĠPT NT
f urt
ĠMarse ille
Ð °
Ġ19 49
Ġtr Ã¡o
Ġx Ã©n
ĠEs tonia
ĠÄĲá»Ķ I
Ġ áº¯c
ng uá»ĵn
h ye
o us
ĠV áº£i
ĠR ib
LV T
o use
ĠD iv
áº© ng
Ġ19 41
Ġ4 20
ĠBrun o
ĠD Ä©nh
ĠMan ag
Ġl áº±n
Ġ14 7
ĠSh inaw
ĠPi que
Æ¯á»¢ C
ĠLÄĲTB XH
G Hz
ĠJ oo
Ġ38 0
ĠTN MT
Ġgá»Ŀ m
c Ã¢y
Ġtiáº¿ u
ĠAt l
ĠTC ty
ĠX avi
or p
ĠÃ´ xy
rid ge
Ġd r
ĠKat ie
B ay
Ġm Ah
ĠMil ey
Ġs l
ĠÃ ģn
ĠGu ill
ĠAt t
ĠB ung
ĠL td
Ġl á»ĳt
Äĳ Ã³ng
Ġb á»§a
ĠL ing
Ġt Ã½
Ġc á»Ľm
ch ar
ĠJ ake
ĠCH UY
m ir
ĠT Ã¡
GD P
Ġlo an
Ġdi ox
ant s
ĠKy odo
N ATO
t á»ķ
ĠAr n
ĠPr es
ĠAbb ott
ĠShinaw atra
ĠNg á»¥y
ĠJ r
PT PP
ĠLiv es
let t
ĠHe al
ĠH PG
Ġca fÃ©
ak er
ĠH V
P I
Ġtr Ã²ng
ĠCh un
ĠQ G
ĠKh Ã¡i
ĠAz erbaijan
c ott
Ġr Ã´ng
Æ°Æ¡ c
im i
ĠF air
Äĳ áº¿n
ĠO f
x a
Ġm on
ĠC Ã¡o
ĠSu kh
IM F
ĠB Ãłu
Ġ19 47
ĠIn vest
Ġvá» «ng
Ġ15 8
ĠBil ly
ĠGirl s
ĠT Ãły
Ġtu Ã´n
ep end
ke i
c ess
ĠTr ail
ĠK iá»ĩn
aks in
B I
G V
Ġb Ã©t
ĠM es
ĠK ard
ĠHo w
ut ion
ĠJack pot
ĠBol ton
ĠA aron
Ġ15 4
ĠMart ine
ĠSerg ey
Ġt uá»Ļc
ra ft
ĠIr ina
ĠQUY á»ĢN
U n
ĠD I
al es
C o
Ġb itcoin
ĠÄĳÃ³ a
ĠJ ur
TP P
ĠBV H
Ġstart up
Ġc áºŃt
ĠK aka
Ġt ennis
Ġkh áº¥n
ut hi
hi re
ĠCon s
ĠB YT
ĠG áº¯n
ĠEd ition
NV V
h Ãłnh
ÄĲ Ã³
ĠJ a
ĠChu ck
ĠChr ome
ĠE le
ĠTHA AD
Ġb á»¡
Ġg áº·m
ĠN á»ĳi
ĠB áº¡o
ĠHo ms
id o
Ġ Ã¹a
ĠV at
ĠD L
ĠUnivers ity
... ).
ĠtrÄ© u
ĠN Ãª
ĠDN NVV
ĠRol and
Ġlo ve
ĠMich igan
ĠHol mes
ĠKe angnam
ad el
ĠRob ben
ĠXV II
l á»Ľp
w i
ĠC in
en ia
all as
Ġen zy
ĠUg anda
ĠN in
ĠR um
tin o
c am
ĠV SA
ĠR á»Ńa
ĠBo x
Ġm il
ĠKh á»ķ
as y
ĠBr asil
ĠTom my
Ġnick name
j in
Ġm á»Ńa
ĠNh á»ı
Ġ3 40
th Æ°á»Ŀng
Ġ17 8
ent ial
x Ãª
ĠK CB
ĠElec tron
ĠPegas us
A A
ĠN Ã©n
ĠD UY
ĠMar vel
Th á»¥y
ĠMi u
ĠBas el
Ġvá»ĵ ng
ĠHass an
f ace
ĠUPC oM
b áº¡n
ĠC Ã¡p
ĠKh en
Ġb áº£nh
ĠAn field
ne xpress
ipp i
ĠPl an
T Ã¬nh
p ad
Ġm etro
ĠP ao
Ġtu á»ĵn
is ha
H P
Ġlá» £
ĠÄĳ Ã¡t
Ġd Æ¡
Ġb ol
ĠRad io
ĠPelle gr
en os
ĠSu k
Ġ Ã³ng
Ġv áº¯n
ĠÄĲ Ã¡n
ĠPomp eo
ĠH Ã´
ĠJac qu
Ġm ÃŃch
Ġ14 8
ĠRe p
Ġvá» ±a
ĠVi enna
Ġf ax
uk a
ĠPH Ãį
Ġl Ã³ng
ĠR O
or o
te ur
Ãģ NH
ĠUn der
ĠInn ova
ĠL iz
ĠBob by
ĠBG K
al ie
EU T
P lus
ĠB ack
ĠNg á»±
+ ).
ĠÄĳ ÃŃt
Ġqu Ãłng
ĠB ow
ĠNG ÃĤN
Ġs áº¥p
Ġnh Ãºt
ĠCH á»¨
ĠCN C
ir us
L a
Ġv áº©y
ĠC ent
ĠVin as
ĠBill board
ĠPes kov
ĠB N
ĠK D
ĠAr m
ĠEd en
Ġrich ter
ĠC áº¥n
ĠL áº¡y
ĠG áº¥u
ĠR Æ¡i
ĠW h
Ġ á»ĳt
ĠB ag
ĠNg ang
ĠR ic
at ter
un er
ĠNic ole
p in
ĠMáº¹ o
lus coni
1 40
ĠK ay
ĠD Ãłnh
Ġ195 2
ĠNa j
ĠS Ã¹ng
Ġch áº¥u
ch ai
ĠBey on
Ġm á»įng
ĠN BC
ĠIn cheon
Ġ16 3
ĠLau rent
Ġx Ãºi
ĠA BS
ĠMel bourne
pp ing
est e
ĠTÄĲ C
ĠAc t
P etro
ĠAl ves
ĠNet work
f l
ĠR iver
ĠSm all
ĠY ak
ĠLu iz
ĠY a
22 6
ĠSo ft
ĠMat tis
A Bank
ĠHig u
ĠGi Ã¡c
ĠI gor
Ġmai l
ĠNap ol
S M
ĠUn iverse
iss a
ĠBer lusconi
ĠC orn
ĠB CT
ĠGi o
ad ing
Ġr ub
ĠHo tel
ĠSch we
Ġgames how
Ġph ÃŃch
ĠB uá»ĵn
ain i
bour g
ĠrÃ¬ u
ĠL Äĥk
Ġ38 9
ĠTrip oli
al ke
be ck
Ġrock et
Ġl á»ĵi
Ġ $
ĠV áº½
ro gen
Tr Æ°á»Łng
ĠSp ec
ĠL ÃĢ
ĠThu Ãª
Tr iá»ģu
k an
Ġm oi
ĠTh S
ĠCh ur
ĠX oÃłi
Ġl áº£
ĠD á»¥ng
ĠE thi
ĠSh utter
ĠH ur
em e
á»ĺ C
EUT ERS
M W
ĠH ans
ĠÄĲ á»ĵi
ĠTT VN
ĠJo ey
ĠTher esa
Ġqu áº¹t
ĠP G
ĠMid d
am ex
ĠP ass
ĠTh aksin
v á»ģ
Ð ¾
ĠK end
ĠÆ ¯ng
L Ãª
Ġch uá»ĳt
Ġngá»£ m
ĠPellegr ini
c Äĥn
d iá»ħn
Ġ á»¥
ĠF ast
o ot
ĠMon ica
Ġb eta
at on
ĠHu d
Ġáº¢ NH
ĠT á»¤C
ĠNh iÃªu
Ġ9 99
Th á»Ŀi
ĠBl ade
l Ãªn
Ġhá» īnh
ĠB á»ĥ
ĠCh am
un es
ĠEr n
. ).
ĠÄĳ iá»ĥu
ĠL TE
Ġphá»ĳ t
om en
ĠMas ters
Ġth Ã³t
ĠK ent
ĠCl ass
Ġ25 6
ÃĤ M
M K
ĠCol le
ĠChav ez
b áº±ng
ĠV EC
ĠDaily mail
Ġst ud
ĠExc iter
B áº¿n
Ġw as
f s
ĠNel son
C an
Â Ń
ĠTor onto
ĠDoug las
ĠHigu ain
ĠI ng
ĠFrank furt
ĠTr ÃŃch
gi ai
ero on
ĠHD Bank
ĠV á»Ł
ĠM á»±c
ĠS et
ĠchÃŃ t
ĠMos s
v id
ĠL et
v Ã©
Ġc ast
Ġnh áº¥m
ĠWat er
is m
ĠMot ors
ĠHá» ¢
ĠKH O
ĠRem ix
ĠC ay
ĠBl anc
Æł N
Ġl á»±
Ġng Ã¡o
ĠS B
f u
an ie
ĠTh Ã³i
ĠMac au
ĠHOáºł CH
am an
ĠIr on
rot imes
ĠKh Ã³i
Ġthi s
ĠMo ore
Ġhot girl
ĠKho Ã¡i
ov e
Ġin s
ĠD K
N C
b ang
ĠKh áº³ng
IC O
V iá»ĩn
Ġkh a
ĠS MS
ri o
ĠDi amond
á»Ĳ NG
i y
ĠV edan
ĠG olf
H á»įc
H GÄĲ
L Ãłm
Ġtr á»ĩt
il et
c uá»Ļc
ĠE st
ĠHo dg
Th u
ĠDu c
K A
ĠB ÃģO
ĠR EUTERS
ĠGi b
Ġra pper
ĠCatal onia
ĠÃį ch
l og
ĠN Æ°Æ¡ng
ĠSte in
ch uyá»ĩn
Ġ15 1
V ND
ĠAir ways
ĠRi yad
ĠÄĥ ng
ĠÄĳ uá»ĳc
Ġh uÃ¢n
ĠCon ne
ĠTe en
6 50
Ġt ÃŃa
Ġkh á»Ŀ
ĠAl onso
ĠP eople
ĠCh in
ĠHo ang
ĠTN CN
ĠHá»¢ P
b áº¥t
ĠTh a
ĠMac Book
ier i
ĠXH CN
z er
ĠB I
ĠW iki
ĠBent ley
Ġkh iÃªn
ĠH á»§y
az er
ĠMin zy
c in
z an
Ġv áº¹o
ĠL ac
ĠD ark
ĠE va
Ġng áº©ng
Ġcho colate
ĠS id
B O
s ov
ĠBV ÄĲK
ĠBra h
ĠDO JI
Ġl áº©m
ĠTh á»£
ĠH end
Ġh Ã³m
ĠC au
ĠCam eroon
ĠSG GP
ĠÆł n
W HO
Ġ á»ĳi
Th á»±c
ĠVP Bank
ĠNov ak
ĠHun t
ĠChan el
ĠTh áº£
ĠCHá»¨ NG
ĠCh and
iv o
aw k
ĠL GB
ĠNh áº£y
á»ı e
our i
f ica
Ġnh áº£nh
et er
ĠY oko
ick y
ĠTR Iá»ĤN
ĠPN J
n Æ¡i
CL OS
B o
C amp
á» ®
Ġt Ã¡p
Ġh ec
Ġng áº©m
ĠPh ot
ĠHá» ĮC
C uá»Ļc
Ġph áº£
hi r
ĠPas teur
ĠV as
ch en
Ġm Æ°á»Ľp
em on
ĠMas an
ĠÄĳá»ĥ u
ed onia
ĠZ ar
Ġ29 0
ĠMor ata
Ġli u
ĠNGH á»Ĭ
ĠParag uay
ĠAn a
Ġ14 9
ĠRash ford
Ġph Ãłm
ĠAl v
v Ãło
end o
ĠPh ar
Ġro om
ĠKh Ã¢m
ĠKore a
ĠN á»Ļp
ĠL it
ros s
ĠOL ED
Ġd áº¿
ĠTh áºŃn
ĠI R
Tr áº§n
ĠLig ue
Ġl áº¥m
ĠN A
ĠV á»ı
ĠHill s
ĠWat son
Ġth Ãºng
Ġr Ã¡ng
ĠV C
ĠW onder
Ġp oster
A l
p l
Ġ uyá»ĥn
Ġx iÃªu
GD ÄĲT
K iÃªn
Ġ19 48
ĠJuli an
en er
ĠU FO
han i
TN MT
Ġs Ã¡n
199 8
ĠHeal th
w ondo
ĠÄĳ Ã¹m
om o
az i
g ate
Ġh ack
ĠTr á»ĳng
ĠS K
Äĳ iá»ģu
ĠChu á»Ĺi
ĠLHP N
ĠR ow
ĠE TF
Ġche ck
Ġch á»±c
ĠMartine z
S á»±
Y Ãªn
ĠK in
ĠShang hai
ĠG áº¡c
ĠG ho
ĠBil bao
ĠL áº¡
ber ry
Ġn ÃŃt
ĠX ÃĤY
ĠJ as
k us
s ch
Ġr Ãº
ĠH and
ĠR Ãª
Ġ18 9
ĠMod i
ĠB á»īnh
ĠTour e
ĠFo und
ĠJar ed
ĠHarv ey
Ġg Ã¹
Ġhá» ±c
ĠW ard
áº¤ Y
ĠMik hail
ĠGram my
Ġch Æ¡n
qu an
el en
ĠPV F
ĠMad onna
Ġ áº¯ng
Ġn áº¿t
ĠK CX
Ġo áº£i
Ġl Ã¡o
Ġx áº»o
anc ial
ĠStar ling
ĠAV G
ĠFoot ball
ĠS I
ĠPh Ã¡n
Ġ15 7
Ġ amin
ĠL ow
c ul
ĠB LÄĲ
ĠV S
ĠCh iáº¿u
ĠSt art
ĠCar r
ĠDA NH
ĠTr ust
Ch ÃŃnh
ĠKard ashi
Ġch Æ°
ĠD in
ĠSt ew
Ġvi ew
T U
ch áº¡y
Ġ15 9
o ch
Ġr á»¥t
ĠN em
ĠH em
Ġthá»¥ t
T áº¡i
Ġ au
ĠH UY
ĠTr áº¡ng
Ġra p
k inh
Ġv áº±n
ĠTr u
ĠQ Ng
th ay
ĠD um
ĠNik kei
c le
Ġph áº¿t
Ġl áº¹
Ġngh Ã©n
M V
ĠH eb
ch y
ĠCh annel
ĠX Ã³m
Ġa h
d ar
Ġng Æ°á»Łng
ĠDe an
ĠKab ul
ĠJor ge
ĠC all
ĠL á»įc
ĠK Ã¬
ĠX á»¬
ĠTe am
ĠBrook lyn
ÄĲ áº¯k
ĠCP U
ĠTC VN
h u
ĠC ienco
ĠB KH
ĠBro ad
au ss
Ġdo ping
ĠSch alke
Ġr á»įi
st one
ĠBrit ish
y ch
Ġr an
ĠD Æ¡i
ĠOs aka
ĠNT NN
ĠWell s
B áº¡n
Ġl á»ĭm
ĠcÃ³ p
ĠPep e
ĠCout inho
M art
Ġm áº¡t
and owski
Ġ( !
ĠInd epend
X T
ÄĲ á»ĥ
Gi Ã¡m
y ahoo
et e
ĠQue ens
V inh
ng oÃłi
Ġh ÃŃ
my ra
nh e
Ġn Ãł
Ġr Ãºp
ĠInd ia
ĠCru ise
ĠVÃł m
Ġf t
ĠEthi opia
b ass
ĠQu Ãªn
ec ca
ĠEl ly
ĠCong o
ĠSap a
Ġph á»Ļng
us hi
Ġá»ª m
ĠFell aini
ĠN Ã¨
ĠTh uyÃªn
ÄĲ iáº¿u
Ġtrá»¥ y
Ġc á»¯u
Ãĵ A
gy z
Ġm áº£
ĠB og
ĠLGB T
Ġnh á»£t
ĠNH M
Ġhi u
ĠQUY áº¾T
Q uá»ĳc
ĠVi os
ĠHam burg
ĠMu ham
ĠP ic
ĠAh med
ĠT ol
ĠV is
ĠS ag
Ġdi va
ĠCB CC
ĠDá»° NG
ĠRang er
ĠVes pa
ĠH ap
ol in
ĠSt ark
ĠIs ab
ert o
ĠCorp or
m áº¥t
Ġng Ã¡c
ĠC II
ĠM itch
ĠAng ola
Nh iá»ģu
inn ess
B an
Ġh Ã³t
Ġm Ã¡nh
ĠH U
Ġ9 50
Ġná»ĩ m
Äĳ oÃłn
lipp ines
ĠShutter stock
ĠChrist ina
ĠSo chi
ĠTay y
tr eam
ans as
ĠAbd ullah
ĠÄĳ áº±m
ph áº§n
qu ang
ĠK P
ĠNh áº«n
ĠCav ani
ĠS as
ĠCS CÄĲ
ĠNá»ĺ I
ĠD T
p an
ĠFlor ence
t Ã¬nh
á» ¸
ĠC áº¢
ĠM ald
ĠPal myra
ĠAbram ovich
n ers
ĠS ien
ĠMan s
ĠChu á»Ļt
ĠGran t
ĠN áº¥m
ĠH anh
ĠM á»ĭch
ĠK DC
Ġ17 4
Iá»Ģ N
Ġnh Ã¡p
ĠNh á»±a
ĠUB MTTQ
ĠFort uner
t inh
ĠL áºŃt
ind er
u al
ĠAj ax
ĠHÄĲT V
1 01
Ġs áº©y
er mo
ĠMar gar
ĠTTC P
ĠBec amex
F DI
s ao
Ġm Ãºn
ĠB á»ĳi
ĠS ex
ĠE PC
19 99
ĠLew andowski
C Ãł
ĠP Ã´n
eo t
p ers
Äĳ á»Ļc
ĠTa j
Ġl Ã´n
ĠC NH
ĠCT G
p i
Ġv Ã¡t
ĠM am
el in
ĠHu ll
Ġw hi
ĠPhil adel
ĠSN SD
Ġg Ã´n
ĠH ernand
ĠV ers
ĠUB TÆ¯
Ġje an
ĠLaz io
a a
g ram
r ates
ĠJ ab
ap e
gi Ã¢y
Ġsh ort
ĠP un
en ne
B ar
ĠT ÃŃ
Ġngh Ãªu
id as
CN V
ĠGho uta
D V
Ã¢ t
ĠNH áº¬N
ĠD Æ°á»¡ng
av ia
ill s
uch i
ĠCamp bell
Cl ass
Ġc á»£t
ĠB art
ol lo
ĠBu ck
Kh u
ĠEv ans
ĠHold ings
ĠKardashi an
at ti
ub lic
H Ã£y
f ish
Ġr Ã¨
Ġhá» Ľt
g Ã¢y
l on
Ġph á»ī
ĠB áº¿
Ġcá»ĳ m
Ġ us
Ġl iáº¿m
ĠV L
ĠQu Ãł
ĠViet Jet
ĠL LVT
ĠI L
78 43
ĠBen fica
ĠCharl otte
ĠKyr gyz
ĠD id
5 50
ĠR ico
stan tin
ĠBR T
ĠXV I
qu á»ĳc
ĠS ig
ĠFul ham
c over
ĠHar per
ĠKy le
om b
ier ra
ush u
Ġhec ta
Ġch á»Ńng
ĠT ung
ĠC rai
Ġ20 2
ĠU V
ins te
ĠMah m
ĠSib eria
Ġ one
ĠGi Ãły
ĠNhu á»ĩ
ron t
ĠNe il
ĠN on
Th Ã´ng
ĠCy rus
ĠBat man
ĠPhiladel phia
ĠM ERS
19 95
ĠSun ni
ĠMid u
ĠS áº¯t
Ġtrá»« u
ĠNav ibank
ch áº¥t
ĠS á»ĳt
ĠF ish
tr id
ĠMar s
Ġel ec
Ġn á»¡
ĠB uk
pr om
ĠL ÃĬ
Ġma fia
ĠX Ã³a
Ġkhu áº¿ch
id ent
Ch á»ī
ĠUr s
ĠS á»ŀ
ĠKat y
ĠTO ÃģN
B á»ĩnh
Ġv ol
ĠMar it
Ġp ic
viet nam
Ġl Ã²a
Ġd á»Ĺi
ĠP il
ĠTR UNG
ĠAqu ino
ĠTayy ip
I s
ĠFin ancial
Ġh áº¯c
Ġm iáº¿n
ĠC Ã²
ic ia
ĠCiv ic
r d
ĠB Ãºt
Ġ3 10
he ed
usse in
d ore
ĠX L
ĠW es
ĠBH L
ĠT á»ĵn
le e
T am
ĠLe c
tin ental
Ġc Ã¡ng
Ġs Ãº
Ãª t
ĠBrit ney
ĠMcD onald
Ġcast ing
V CCI
Ġs á»©t
Ġb Ãºi
ĠV T
ĠS amp
ĠHo uthi
Ġ19 39
ĠKy ung
Ġ77 7
ĠNGO ÃĢI
T Ãłi
Ġg áº£
Ġáº µ
ek wondo
Ġt itan
Ġn áºŃu
ĠB ug
ĠLau ra
ĠD ak
ĠSt ate
ĠMarcel o
ĠâĢ ¢
Ġm á»įt
ĠB ran
ĠV R
ĠY oga
ĠRe cord
ĠLim ited
ĠBuff on
Æ°Æ¡ Ã¬
ĠP ixel
ĠW ester
il iano
ĠDo an
Le aks
ĠK op
ĠG Hz
ĠW u
ĠSt yle
ĠGu inness
Ġco c
ĠATVS TP
ĠLives how
E G
en berg
ĠRe agan
ĠGr ay
ĠMum bai
Ġch Ã²m
ĠSh ay
land o
ĠVat ican
ĠU t
ok a
ĠMal l
ĠHel en
ael en
ĠOp era
hol m
ĠStew art
L I
og raph
Ġfan s
v et
Ġv áº¹t
ĠH ÃĮNH
ch á»ĵng
ĠL Ãºa
á»· u
oy d
h á»Ļ
Ġg áº«y
ĠM ind
ĠP ab
Ġ18 7
ĠcÃº n
Ġáºµ m
ĠStud io
N usra
S ing
ĠQu in
Th áº¿
ĠFri ed
qu oc
ĠTh aco
ĠP ok
ĠA ur
Ġa xÃŃt
ĠSach s
ĠVSA TTP
ĠC PTPP
Ġ19 2
12 5
ĠH Ã©
ĠÄĲ iá»ĥu
ĠM uá»ĳi
Ġbá»ĭ p
Ġch á»Ļp
ĠCh iáº¿t
ĠW y
ap pe
ech en
Ġcá»į p
ĠKia tis
M O
Ġ á»ĳ
ĠW ins
ĠEzz or
ĠH uyÃªn
ĠÄĲ O
¡ i
ĠP ow
ĠP aelen
ber l
ĠAv iv
ar ch
ĠSt ur
Ãģ I
ĠiP od
ĠSant iago
ĠT Ãºi
Ġtá» ģ
Ġcon cert
ĠHernand ez
ĠF our
23 4
ĠCes are
qu a
ĠW o
ĠO wen
ut ch
ch áº¿t
ĠD Å©
ĠR á»ĳt
ope nh
A i
ĠH Ãª
ĠK w
ĠLe ver
uk e
AM A
ĠLock heed
H á»į
ĠO ppo
c H
ĠN est
Ġ5 70
n ar
u le
ĠÄĳ Äĥm
199 7
ĠB Ã´
Ġ. ........
ĠO ng
ĠIb ra
ĠFre e
Ġr áº¡c
ĠA eg
s á»ĳng
Ġm Ã¡ng
... ;
ĠMc L
ĠNGUY ÃĬN
Ġth ong
ip edia
ĠAir es
ĠVÃĢ O
Ġni u
ĠScar borough
Ġurani um
C ity
ĠTh Ãł
á»Ł m
ĠL ot
inste iger
a hi
Ġd á»ĳt
ĠC ath
ĠK ings
ĠY uri
ĠTH á»Ĭ
ĠLo a
ĠVI B
ĠVill ar
u f
ĠD allas
av a
c áº§u
l ai
ĠEd in
m el
x on
Ġ4 60
ĠFB NV
ĠT ag
ĠT iá»ģm
ĠX Æ°á»Łng
ĠKyrgyz stan
Ġ est
uat em
ĠMig uel
Ġ pp
ĠÄĳ Æ°Æ¡c
ar ak
Ġw ifi
AS EAN
ĠMax im
ĠTr Ãło
Ġ17 2
ig o
Ġ16 4
ĠInd ustr
ĠWal t
ĠMb appe
Ġbol ero
Ġg ara
ar u
ĠMor ris
oth y
Ġd is
Ġkhu á»·u
ĠF ro
áº¾ U
Ġop era
Ã ĴNG
ĠÄĳ Æ¡
Ġd iáº¿t
ĠSam son
Ġlá»į i
Ð ¸
ĠMa j
Ġ Î
Ġl Ã¢ng
ĠTh is
ĠM R
ĠS martphone
ĠNG á»
b áº£o
Ġtá»ĭ nh
________ ________
m ingham
ĠP ink
il s
Ġ16 1
ĠJo an
ĠBu enos
ĠOr lando
bao dautu
ĠAsh ton
ĠH ama
Ġ4 30
ah awk
us ta
ĠAbb as
ĠUrs ula
b uck
Ġc Ã¹i
Ġc up
ĠE conom
ĠHá»į p
ĠZ am
g ers
Ġnh Ã³i
ĠH ussein
ĠÄĲ ak
ĠK ilo
ek o
ĠJan eiro
ĠSchwe insteiger
Ãģ T
Ġ ed
Ġb áº½
K L
ĠD uyá»ĩt
Ġto ilet
h ama
Ġr áº¡
us ic
ĠRe port
ph i
Ġx á»ĩ
ĠH ilton
ĠÄĲ áº¡
ĠTr ay
ĠO re
U A
am ily
ĠNgh á»ī
S c
CM P
ĠLan e
Ġqu áº§ng
ĠC á»§ng
00 00
I t
p ire
ĠS Ã¢u
ĠMarsh all
Petro Times
ĠTh uáº¥n
ĠN ike
ĠV Ã¡y
43 2
ĠLin ux
uatem ala
b ay
Ġl Ãµng
Ġk á»ĭ
is i
ĠOcean bank
ĠW ong
Ġg el
ĠB NN
Ġ18 1
ĠT Æ°Æ¡i
ĠH ank
ĠTh iá»ĩp
ĠVi v
ag awa
Ġc oll
ai ca
Ph Ã²ng
n an
Ġng áº£i
qu in
ĠPV D
ĠAtl ant
ĠB ing
ĠÄĲ ÃŃnh
á»¥ m
ĠPet r
p ir
ĠPC LB
ĠDow n
ĠN ix
ĠWal cott
ĠFi or
Ġr á»ĭch
ĠJo y
ĠB CÄĲ
ĠM iÃªu
Äĳ á»ģu
ĠVI D
Ġshow room
ĠKro os
Ġng Ã³c
ĠV e
ĠVin p
bur gh
ĠFrank lin
ĠK ÃĿ
Ġ21 5
Ġh ÃŃch
ĠAp ollo
K á»³
Ġv Ã¡nh
ĠTr á»¥c
EC D
ĠLib erty
Viet Q
Ġgiáº¿ m
ĠMul ler
ĠWhit ney
M áº¹
Ġkh áº¿
ĠMus k
Gi áº£i
ĠColle ge
0 50
ĠÄĳ áº£n
Ġl Ã³
Ġ17 6
ĠTr á»Ļn
Ġp ar
Ġc á»Ĺi
ĠCÆ¡ m
ĠSil icon
ĠGo etz
Ġg á»ıi
ĠBur n
k ong
ĠPhan tom
ĠMi y
ĠvÆ¡ ÃŃ
Ġn á»ĩn
Ġph Äĥng
Ġhá» Ńng
Ġlo anh
ĠBÄĲ KH
ĠHS G
ĠXI X
ĠInf in
Ġstud io
ĠFound ation
ĠInter pol
Ġnh áº§y
Ġx iÃªn
ĠD H
ak ov
ĠBir mingham
ĠT it
ĠL O
ĠG uatemala
Ġ3 90
let on
d ep
Ġs uyá»ħn
Ġnh en
ia h
Ġs á»¥n
ĠEver est
ĠExp lor
nh Æ°ng
Ġl áº¡ch
Ġch áº¡c
ĠB phone
ĠG uy
eng ers
8 50
Ġl á»¥i
ĠRe v
Ġth Ãły
Ġh Ãłu
ou k
do ch
ĠNan cy
k á»³
l ow
Ã´ á»ĭm
ĠGr ace
ĠHot line
Ã´á»ĭm á»Ľi
O n
d Æ°á»Ľi
ĠT on
Ġhá» ¡i
ĠP am
osh op
ĠGh á»ģnh
Ġnh Æ¡
ch ÃŃnh
ĠCh Æ¡n
Ġ20 5
ut o
ach e
V á»ģ
c ci
ĠN ow
ĠN ani
am bi
ĠWiki Leaks
ight s
ĠHÃłn Ã´á»ĭmá»Ľi
oth ers
ĠStock holm
n Æ°á»Ľc
ĠX Æ°a
ĠCap e
B ao
f ri
ĵ ng
ĠTh iago
ĠI U
ĠJav ier
ĠAug ust
k ey
x em
ĠMi ra
ĠRos si
ĠTI ÃĬU
m ore
Ġr áº·ng
ĠKh á»ıe
ĠAl ber
ĠVen us
ĠMoham mad
Ġn Ã²i
ĠI z
ĠEnd er
ĠCorpor ation
L L
L Ãºc
Ġch á»«a
ĠG E
ĠHÄĲ LÄĲ
ĠAlb ania
Ġdu á»Ĺi
ĠAM G
ĠDuc ati
tr Æ°á»Ŀng
ĠHe art
ĠHer rera
199 3
ĠNaj ib
tr ic
kus en
ĠH ÃĵA
ĠDon bass
D M
Ġ Ã³
ĠB á»Ķ
ĠBh ut
ĠP ur
ĠGI áº¤Y
Ġl Ã³e
Ġch áº»
ĠD TTS
Ġdo áº¡
b á»ĳ
m Ã¡y
Â °
Ġng á»ĳn
qu ez
esse nger
ĠS ierra
ĠNh Æ°á»£c
Äĳ áº¡o
ĠSe attle
ĠCB S
Pet rotimes
ĠWel beck
ĠL P
Ġlu áº©n
ĠR al
ĠI Q
ol et
to is
ĠEnter pr
C om
ĠH appy
tr ung
Ġ17 7
pp e
ines e
ĠCH QS
ood y
ĠHam ilton
ĠLat via
Ġcac bon
ĠPab lo
Ġs Ãłm
ĠÄĲ ÄĤNG
ĠKo h
f ox
Ġkh á»īnh
Ġx Ã¢u
ĠÄĲá» ĴNG
E x
ĠY un
lad e
ĠL á»©c
Th á»«a
O P
and ro
ent s
ĠVI E
18 0
ĠLU áº¬T
ĠM ub
ĠL ay
hi ll
ĠtÃ¹ m
19 54
ĠcÆ¡ i
ĠI o
ie g
ĠSand ers
Ġelec tron
Ġl Ã¹a
ĠVinp earl
Ġn Ãºm
av en
ĠCon f
el ia
Äĳ á»©ng
ĠGer man
ĠGIA O
ĠĠĠĠĠĠĠĠ ĠĠĠĠĠĠĠĠ
v iáº¿t
z ania
ĠT CM
om i
eg al
ĠSch ol
ĠM á»Ĺ
te c
ĠRom ney
ĠBos nia
A ir
ĠC raw
ĠTA SS
oc us
ĠRam sey
199 6
ĠLis bon
Mal aysia
Ġch Ã¢y
ĠH á»ĵn
ĠNg Ãµ
ĠW W
Q uÃ¢n
Ġch áº¡nh
ph Ã²ng
ĠM Äĥng
ĠG y
ĠHo b
n ic
Ġng á»¥t
ĠM og
ĠD M
Ġ195 1
d is
Ġc áº¡y
Ġr á»¥c
ĠR ag
ĠI phone
ĠPat ri
al an
ĠNgh Ã©
CB M
Ġbá»ī m
Ġgi Ã£i
ĠTh uá»Ļc
ĠK ob
M Ã¬nh
ĠÂ °
h áº¡ng
i que
Ġnh á»«
Ġ16 6
Qu á»·
ĠFor ce
ĠAl c
f ood
n ess
Ġng Ã¹n
ĠC ort
Ġx áº©y
ĠP ict
ĠD au
ĠKh am
ĠW ith
acom in
D D
r Ã´ng
Ġc r
Ġnh Ãºc
Ġso fa
ĠBe ng
ĠMc K
ĠPu erto
ĠCHá» Ī
Ġd Ã¡t
ĠS em
3 60
ĠC ec
ĠG an
ac le
ĠBus an
ĠSukh oi
ill o
h á»Ļp
Ġng Æ°Æ¡Ã¬
Ġr am
ĠV all
ĠEs s
ĠM Ã¡
ĠS Ã´
Ġlo Ã¡ng
ĠLever kusen
c Å©
Ġr áº¿t
ĠÄĲ Æ¯á»¢C
ĠRe y
lan ta
Ð µ
ĠB ong
ĠÄĲ ÃŃch
ĠMac edonia
yl an
n b
ĠM Ãºa
th am
og o
ĠTrav el
Ġl Ã¨o
ĠI ll
Ġ: .
ill er
ĠCrai g
Ġn áº»
ĠGi Ãłnh
ion al
Ġ10 80
il li
Ġ18 6
ĠTV B
ĠMand ela
K im
tr á»¥
ĠDig ital
ph iÃªn
qu áº£
ĠTH EO
ĠSal man
ĠL ake
ĠCh ai
ĠI N
Ġnam e
gi ao
á»Ĳ I
ĠPo int
Ġn at
ĠD Ãłi
ĠF at
ie u
ĠTI áº¾
? ...
Ġ( *
Ġ5 40
el o
ĠO ver
ĠVid al
ĠÄĳ ay
ĠL ung
ĠPh iáº¿n
Ġh ave
ĠC openh
Ġ2 11
ĠS ne
ĠQ aeda
ĠW is
ĠNgh Ã¨
c os
Ġn á»©a
og en
ĠMu eller
ĠLin da
Ġn Ãª
Ãª Ã¹
ĠÄĲ áº¾N
Ġ18 00
ĠTM ÄĲT
ĠWe ibo
C Ã²n
l ong
ĠÄĳ Ãªnh
ĠÄĲ Ã¡y
ĠAbd el
ĠComp any
ĠAsia d
C I
M ar
s Ã¡ng
ĠT Æ°ng
Ġd Ä©a
ĠdÃ¹ m
ro e
ĠAd ri
ÄĲTB XH
ĠH ell
ĠM áº¡i
ĠCh iá»ģng
ĠF O
oc co
t á»·
ĠR az
ĠJ erry
osh ima
v Ã¹ng
ĠT áº¯t
ĠH ard
ĠYoko hama
Ġtho áº¯t
ĠVin at
áºł NH
Ġng Ã¡t
ĠG ul
ĠBl og
ĠPC I
ĠvÃŃ u
Ġsal ad
Ġr uá»ķi
ĠMark et
ĠStar buck
ĠRuss ell
Ġhá» ī
Ġso da
ĠVI T
Ġváº¯c xin
ĠB od
ĠP TTH
Ġhy brid
ĠRo os
P ro
S B
Ġtr á»ĵi
ĠM áºŃp
ĠZ in
Sing apore
S T
ĠT ÃŃt
Ġ5 20
Ġth Ã¢y
ĠC CB
ch uyÃªn
ĠCh alle
kh Ã¡ch
ĠOli v
nh Ã³m
ĠA re
ĠN az
ĠA H
ĠBr on
he imer
ĠH áº¡c
ĠX Ã¡t
ĠThom pson
ĠK á»µ
ĠFu j
ÄĲ Ãłi
á»Ŀ n
ĠO tt
id es
Ġ17 9
ĠAl ba
ĠUl tra
ph ora
Ġr em
Ġcho áº¡ng
ir d
CA TP
ĠÄĳ Ã¡u
ĠT á»§
ing rad
ĠGiá» ıi
Ġkn ow
z on
ĠN á»ĳt
78 45
ĠÄĳá»ģ m
ed l
ĠSh oi
ĠIs lam
Ġhtt ps
ĠJam aica
ĠSá»¬ A
ĠCour tois
ĠRan ieri
3 80
ĠH ist
ĠP B
ĠR Ã¡c
us sia
iz on
ĠWar ner
m b
Th áºŃt
Ġgi Æ°Æ¡ng
ĠK áº¾
Ġ15 00
ĠDo ha
ĠSh op
ĠPol y
ĠTr Ã¢u
SGGP O
A NT
Ġn ylon
ĠL em
et on
th Ã´ng
ĠRe illy
end s
ĠRiyad h
ĠMuham mad
Ġr Ã´m
Ġ5 60
av er
oy a
ĠPhilipp e
ĠEU R
ĠTom ahawk
ĠTan zania
ĠNix on
P ad
n Ãª
ĠNh ÃŃ
ĠTh Æ°á»Ľc
ĠKho ang
ĠSt u
ok u
ĠAnd ers
ĠPhar ma
Ġ. ................
ĠJ ICA
th e
ĠMarit ime
k Wh
r ine
Ġt Ã³e
ĠÄĲ Ä©a
ann i
ĠEs c
ĠSur face
ĠT TTM
ĠM áº£nh
ĠM essenger
ĠInd ian
Ġá»Ĳ ng
is er
ex t
ĠHodg son
Ġph iá»ĩt
ĠÄĲ ua
ĠL ine
ĠJ ai
ĠCar rick
199 4
Ġom ega
ĠS r
ĠP age
ÄĲ á»Ļi
ĠE y
ent o
Ġn ew
ĠGra echen
Ġcoll agen
ĠKar en
ĠPrin ce
Ġ22 4
ĠGD CK
ason ic
s áº£n
u ter
Ġ ion
Ġt Ãłnh
Ġs áº¡m
á»± ng
ĠP od
Ġlá» µ
ĠSh a
M inh
ĠÄĲ ÃĢ
th Æ°Æ¡ng
ĠHÄĲ BA
l Äĥng
r áº¥t
43 27
c z
Ġt on
Ġh Ã¹
Ġnh Äĥng
Ġr áº£
ĠM Ã£n
ĠKh ash
Ġi T
ĠTR áº¦N
im o
ĠX Ãł
ho use
B áº£o
j e
Ġc or
qu i
ĠV ay
Ġtu r
ĠX á»ķ
ĠVillar real
ĠB iden
ĠM ick
ĠCh Ãªnh
ĠLib an
3 40
Ġ Ã¡ng
th al
ĠIndepend ent
d al
w ick
Ġc á»±a
Ġd Ã´i
ĠN eo
ĠO man
Ġgh áº»
ĠN PK
ĠE o
ol ic
th á»§
Ġblog ger
Ġ18 3
ĠZ lat
Ġj azz
v á»ĳn
ĠAn to
ast ic
Ġá»Ķ n
Q uy
au rus
og gi
ĠGrand e
ĠGold man
ph an
ĠR ac
ast as
2 20
ĠB ord
ch Ã¢n
ĠD ec
Ġ, .
ĠGu cci
ĠTI áº¾T
á»Ĥ N
ĠCopenh agen
Ġch Ã¹ng
Ġb ack
ĠV iÃªng
ĠChi p
ĠSim e
ĠSD F
T áº¥t
om at
Ġ24 5
ty le
ĠCH áº¤T
ĠSo und
ĠDel ta
ĠDy nam
ukov ych
Ġs Äĥm
Ġr Æ°á»Łi
ĠNev ada
m outh
Ġb Æ°á»Ľng
Ġb ox
ĠT áº¯m
apos t
ĠSc ience
Ġlives tream
ĠÃī p
ĠH ae
ĠB O
ĠX ÃŃch
is ton
ov in
ĠKT NN
ĠNe uer
T á»ķ
Ġhá» ¯ng
Ġsá»© a
ĠShoi gu
n or
ĠK ash
ĠCS B
Ġins ulin
I NG
m Ãł
Ġ á»Ŀ
Ġch áºµn
am oto
Ġho e
ĠX uá»ĳng
Ġchá»ĭ t
78 53
Ġc á»įng
Ġv n
Ġnh Ã²m
Ġ19 4
ĠCN BC
ĠSlov enia
I F
b al
Ġnh Ã³t
al ian
ĠX Ãĥ
ĠE CB
ov sky
ĠSp a
ĠVinas un
ĠN ur
ĠCa es
ĠMas on
H áºŃu
ĠK uz
ĠMar ch
ĠSh el
ĠPan asonic
it ies
ĠTy ler
ĠAc er
T Q
ĠSo ph
Æ¯á» ŀ
ĠAt lanta
ĠWolf sburg
ĠKhash oggi
ĠE ug
Ġ19 3
ĠAn at
ro und
á» Ĵ
ĠC ÃģO
Äĳ Ã¡
Ġ23 5
ĠStan ford
ĠExplor er
h er
s or
ĠM Ã©
ed o
ĠPro duc
ĠFire fox
ĠNich olas
ĠV ision
ĠS ett
ĠS ÃŃp
ĠE u
ĠAl li
ri x
ĠPV S
ĠSU NG
Æ¯á»ŀ NG
Ġn á»Ľt
ĠD iÃªm
Nh Æ°ng
ĠCB CNV
ĠVill as
Ġd en
Ġ4 000
Äĳ Ãªm
ĠH áº§m
ĠL áº¯p
ĠElectron ics
Ġg ar
Ġqu áº¡
ĠC ir
ĠP el
ia tion
il m
ald o
ĠYan ukovych
ĠQu ÃŃ
ĠBeau ty
ĠIA EA
ĠÄĲ áºłI
ech n
?! ).
ĠÄĳ Ã©o
Ġng Ã´ng
er ing
ĠF ly
lin ois
ĠUBCK NN
ĠWik ipedia
ĠQC VN
ĠN O
es co
ĠEl l
evel t
S port
ĠPr ay
c p
ĠT Ã¨o
ĠT Ãºy
ĠK itco
ĠR M
ĠMor si
ĠGl ass
ĠCov id
Ġgi Ãªng
ĠS Ãºp
tr á»ĭ
22 7
ĠRes earch
ĠPho en
Ġball ad
Ġm iáº¿t
ĠCh Ã¢m
ĠK ÄĲT
Ġ6 30
ic es
LV N
ĠKy oto
ĠNor man
ĠDen is
Phi lippines
ĠY ell
". /.
ĠTM V
int endo
ĠJ esse
ĠMargar et
ĠCH U
ĠCarib e
ĠL ah
ĠTT ÄĲB
ĠToshi ba
k ai
ĠC ua
ra k
ed er
Ġr ia
ĠLux em
ĠStarbuck s
ĠH idd
ĠM ia
ÄĲ iá»ĩn
Ġ20 3
ĠMat s
Ġch Æ°á»Łng
Ġm ag
ĠH wang
ĠL ip
da q
ĠDar win
ĠQu Ã¡i
it or
ĠBr uy
ĠE p
Ġ18 2
ĠCraw ford
ľ I
ĠP DF
ĠR ab
ĠBarb ara
Ġn Ã¡i
au de
ĠAv engers
ĠDO C
V i
f r
v ai
Ġnh áº©m
Ġr up
Â ¿
ĠL á»±u
Ġ18 8
ĠN intendo
Æ°á»Ľ u
ĠL ak
Ġ21 7
ĠMos es
ĠPho ebe
ĠSeb astian
ĠO z
A d
Ġn Ã¡
ĠT us
ĠPl at
ĠR ak
im et
ĠRib ery
ĠRoos evelt
ĠT á»ĩ
ĠH Ã²e
ĠG R
ĠW ei
d Ã¢n
Ġch Ã¹n
ĠK á»ģn
gan sk
d Ã¹
e ep
K N
o ul
Ġn ong
ĠAl z
V Å©
v á»¥
ĠF ax
y ah
Ġ ag
ĠG em
ĠTP CP
us a
ĠIvan ovic
Ġcl ick
ĠChur ch
ĠVID EO
ĠMub arak
ĠT NT
ĠN ice
ĠA ung
Ġ4 12
ĠE van
Ġ19 38
19 88
ib er
ĠOs ama
Ġng á»Ĺng
ĠT oni
ĠL á»
ĠTrail er
3 30
Ġ å
Ġc al
Ġ18 4
mi one
ĠCh iáº¿m
Ġso c
ĠMal ta
ĠNas daq
Ġh Ã¡m
ĠÃ °
ĠR at
ra g
ed s
ĠIl linois
ĠTh ong
ĠA ki
ĠOre gon
ĠD ÃĤN
ĠW as
un i
ĠNGá» ĮC
ambi que
Ġt Ã¨
ĠS ok
Ġthu i
ĠLu gansk
ĠHer mione
Ġs áº§n
sk a
V M
Ġkh Ã¡u
uy en
ĠP oi
ĠPr ud
ĠDes ign
2 80
G M
ĠR up
ĠDe ad
M á»Ĺi
t áºŃp
t ail
x ra
ĠJ em
Ġng áºŃy
Ġx Ã¨o
au er
al ine
Ġá» ·
ĠAl t
ĠPV I
ect ion
Ġnháº½ o
ĠGaz prom
ĠR id
ĠMai n
ĠSp ears
ĠHun ter
R e
n em
ĠnhÃł u
tr áºŃn
ĠPH áº¨M
AS EP
Ġ? ?
Ġp Ã´
uc ci
ĠFi eld
ĠBruy ne
in da
ĠD ylan
Ġto ang
ĠW ord
H áº¡
ĠCh Ã¨
Ġ4 40
ĠAd ele
ĠHe in
ĠH is
ĠX oan
ĠAs trid
nh áº¥t
ĠG ri
ĠDo ji
n Ã³i
Ġ16 9
IC EF
ĠGI áº¢I
3 21
Ġt áº¯p
Ġc opy
Ġx á»ĳi
ĠB ull
ĠD F
Ġ6 40
ĠJ eb
ĠAm anda
ĠEng lish
t z
ĠT áº£i
ĠN eg
ĠM á»¥
ĠchÃŃ p
ĠPe ug
ant an
Ġtr Æ°á»£ng
ĠN ut
Ġngá»¥ m
ĠT á»ıi
ĠCar ina
ĠHong kong
ĠH M
ĠTho áº¡t
ĠR áº¡p
Ġba ht
Ġtru á»ĵng
ĠKaw asaki
Å «
Ġkh áº£m
ar at
ĠAl m
ach im
ĠTB A
ĠFior entina
Ġm Ãłnh
ĠS áºŃp
ĠP on
ĠÄĲ Iá»ĨN
ĠJ azz
ĠNew ton
ĠSh im
net t
SC E
B l
ĠU d
ĠR á»§i
ĠMiss ouri
H iá»ĩp
l Ãºc
Ġ \
Ġqu á»ĩt
ĠP os
Ġw ill
H Ã´m
Ġqu áº«n
ĠN Y
ĠB áº¢N
ĠCol eo
ĠAc ad
azz i
C ola
ĠTN VN
its u
ĠStan ley
ĠNg o
Ġf ir
ĠAir Asia
ĠMarc os
ĠSime one
E V
p en
u ar
hn er
ĠScar lett
ĠSmall ing
ĠMald ives
Ġf ull
Ġngo áº·c
9 90
ĠKrist en
7 90
ĠCh ol
ĠD á»¥
ĠWil d
ĠBurn ley
Ġl áº·t
ĠIs co
78 89
X uÃ¢n
Ġm el
ĠV nexpress
ĠI TA
ĠTT ÄĲT
ĠK áº¾T
and i
ĠBr others
land s
ĠRom eo
ĠShar on
ĠMoz ambique
ĠZlat an
Ġl iáº¿ng
Ġd áº§y
ĠN Ã©
ĠCh ir
p Ã´
ĠNh iá»ħm
ĠE to
ĠEd u
ĠColeo phora
Ġv Ã³
ĠF ant
Ġ20 9
Ġ* .
he an
f eld
Ġb áºŃp
Ġs in
ĠB orn
ĠW igan
ag as
oo p
iá»ħ ng
ĠVald es
ĠM oody
Ġ0 90
ĠVi ew
ent in
ĠRe view
if one
p ur
} }
ĠR ange
ĠTT GT
ĠT Ãª
Ġx áº¯t
00 1
ĠJ al
ow a
Ġ17 3
ĠEn er
ĠTur bo
ĠLau ren
ĠPatri ot
ĠAlz heimer
L HQ
m Ã´n
t Ã¡c
ĠAss oc
ĠNav as
R onald
S er
Ġl á»ĭnh
Ġquy á»ĩt
ĠSt alin
To quoc
b á»ı
ĠG L
ok i
-------- --------
b om
Ġnh áºµn
Ġph ung
Ġr uá»ĳc
ĠM Æ°u
ĠP iag
Ġ19 36
' ?
Ġch á»ķ
Ġhá» £t
ĠL ien
ĠD iá»ĩc
Ġtá»ĭ t
ĠSqu are
H Æ°Æ¡ng
k áº»
ĠL Æ¯á»¢NG
Ġ27 5
ĠJu lie
ĠSk rip
ily n
lyn n
ĠF on
ĠW id
Ġtá»ĩ p
ĠEur ope
ĠWin ter
ĠBak er
l ah
ĠHo p
Ġc Æ°u
ĠÄĳ Ã¢
ĠJ up
ĠLe ad
kh á»ĳi
eth er
ks and
Ġkh á»ĳ
ĠV SD
on n
Ġho m
tr ang
eth yl
M M
h á»£p
ĠN Ãªu
ĠM ÃŃa
Ġsty list
V FF
78 79
17 0
ĠMon roe
ĠMatt eo
ĠMap s
ĠPeug eot
Ġx Ã©o
ĠphÃ¹ n
ĠBl atter
14 1
ĠNor wich
ĠSil ver
ĠSport ing
f ax
m á»©c
au me
ol la
oster one
ĠTitan ic
e us
Ġth Æ¡i
Ġnh á»įt
Ġn ua
ĠP ence
ĠSt ory
ĠDe ep
ĠMic ro
ĠGre y
B B
ed d
ĠShi ite
ĠPep si
v it
Ġ ì
ol k
ĠÄĲH ÄĲ
ĠCol lins
ĠT á»°
ĠV ardy
Ġ20 4
ĠPrem ium
Ġhu á»ĩ
ĠNik ol
â Ļ
ĠT at
ĠBoy s
k áº¿t
ĠP GÄĲ
ĠG el
Ġcá»© t
ĠW ork
le d
ĠEX O
ĠSkrip al
Ġnh Ã¢m
ĠPH ÃĴNG
ĠiT unes
ĠX P
ed u
ĠC ul
ĠÄĲ iáº¿u
ĠÄĲ Iá»ĤM
ĠD ennis
th iÃªn
Ġgh á»ģnh
BH XH
c áºŃu
m ers
ĠCh iÃªn
ĠK ov
ar n
Ġ5 80
ĠAd rian
ĠSky pe
K ho
ĠY aya
ĠBl ake
ĠM ing
ĠL áº¬P
ĠCh eng
ĠHaw k
Äĥ c
ĠM Å©
Ġ20 6
Ġgh áº¹o
199 2
Ġmar athon
c Ã¡
n on
Ġc ui
ov en
Ġh Ãºng
ah r
ĠOlymp us
ĠShe ikh
ĠPiag gio
h em
ĠH iáº¿p
19 0
ub a
Ġt áº¥y
ĠT áºł
ĠÄĲ á»ĭch
ĠL uyáº¿n
ĠCM C
ĠKer r
ĠMahm oud
ĠTr an
ĠI w
ĠthÃŃ a
ĠDe uts
ht ar
Ġ4 70
ĠE P
Ġtim e
ĠCol in
ĠWat ford
ĠC ob
ĠL ike
Ġ. ......
ĠThu á»·
av in
Ġp H
ĠAm ber
ĠGo al
Ġb áº·t
Ġs á»Ľi
ĠB SC
ĠS á»°
ĠCom mun
ĠCap ello
Q SDÄĲ
Ġkh Æ°á»Ľc
ĠN oi
ĠJ MG
ur al
Ġj ack
ĠHann ah
Camp uchia
T G
ĠL lor
ĠK iá»ĩm
ĠmÃ´ t
f sc
ch at
ĠM om
ĠMeg an
fs cy
Ronald o
B á»ī
ĠGi Ã³ng
ĠMary land
ĠÄĳá»Ŀ m
ĠÄĳ Æ°á»£m
ĠAd el
In donesia
ĠB is
ĠS GD
Ġ20 8
ĠChrist ine
fsc x
tr i
ary an
ĠRay mond
R EA
m us
Ġk á»īnh
ĠT en
ÄĲ á»ĳi
Ġg Ã£i
er ic
th anh
ĠJer emy
' )
Ġd Ã³
ĠB av
ar ag
ĠSen egal
ĠKar im
Ġn á»ĭnh
ĠCh ild
ĠD W
ĠCol a
oc opy
ĠVina phone
1 35
M á»įi
Ġd áº¥m
Ġhá» «ng
ĠM old
ter n
ĠTB N
ĠN ino
ar es
il ic
ĠPr ime
ĠShar p
ph ÃŃa
ĠK Iá»ĨN
Ch uyá»ĩn
Ġu á»ķng
ĠStr at
ĠSund ay
ĠJur gen
9 50
Ġl Ã²i
Ġ21 8
ĠSecur ity
Ġh á»Ļc
ĠD ata
av an
ĠTO ÃĢN
ĠCarib be
Ġv Ã¡i
ĠT est
ĠN Ã´m
ĠN CT
um e
Ġgh im
ĠDá»± ng
eal th
ĠRh od
ĠManag ement
v Ãłng
Ġx Ã¬nh
ĠStr auss
Ġnh áº·n
Ġg áº¡c
ĠC ot
ĠKh Ã¢u
ĠHS SV
r il
Ġ áº¡ch
Ġr á»Łm
ra ham
ĠSi em
ĠLind say
ĠP O
ĠP LVN
ĠD ae
ĠW right
ĠRonald inho
Ġca ffe
ĠMat xcÆ¡va
th áº¿
ĠMy ung
ĠBV MT
end ra
ĠTechn ology
ĠSah ara
H en
24 0
enc y
ĠÄĲ Ã©c
ez il
ĠBrad ley
ĠLec ter
F one
S ham
ĠPh ao
). /.
ot or
ER T
ĠMel ania
Ġest rogen
ĠLuxem bourg
Ġs Ãªn
ĠC áº¡p
ĠV isa
ch amp
ĠM á»ĩnh
ĠS ÃģCH
Ġ19 37
c Æ¡n
at ive
Ġ* **
ĠFab io
ĠLu d
ĠMar ilyn
ĠMor occo
m ont
Ġd Ãł
ht t
ĠSchol es
ĠJup iter
C Ã¡i
ĠV ogue
Ġ4 10
ĠchÃ³ p
ĠLib eria
H Æ°ng
l ao
ĠF ocus
ĠComp osite
n áº±m
t iáº¿p
ch em
ĠX uyáº¿n
78 41
ĠVal ley
Ġl áº¯t
ĠX ay
Ġmo Ã³c
B CT
á» ²
19 90
Ġnu á»Ļt
ĠV ert
ĠE k
ĠQU áº¢
ens tein
ĠHá»Ĺ n
ĠAth let
ĠBeyon ce
Ġkh anh
ĠP sy
Ch am
ĠÄĲá» Ģ
Ġsil icon
j ah
v Æ°á»£t
ĠKh Äĥm
ĠF lynn
ed it
ed ad
Ġnháº¹ t
S L
Ġg ot
ĠXK LÄĲ
ĠL ima
ĠJ P
ĠMu Ã´n
ĠXS KT
c áº¥p
Ġqu á»ī
ĠB Ãły
ĠP LA
ĠF rid
ĠO ezil
ĠMob ifone
ĠSyl v
c tic
ĠA vent
ĠD ang
ĠDN TN
ind y
DI Z
Ġcom ment
ĠPhoen ix
Ġl iá»ģm
ĠH ero
Ġ66 9
N ew
Ġth au
ĠC CH
ĠHS X
ĠKenn y
ĠKn ight
Ġenzy me
cover y
Ġc uá»ĵn
Ġth Ãło
Ġh ip
Ġb Æ°Æ¡n
ĠTh at
ĠA ustin
Ġp ound
Ġ22 2
ĠPr ad
ĠPet e
2 10
Ġh uyÃªn
Ġch Ãłm
ĠN umber
Ġx Æ¡i
ĠJo achim
og lu
ĠPal m
á»Ĩ T
ĠKit Ã´
Ġc á»¯
Ġth iáº¿c
ĠÄĲ iá»ģm
ĠY ok
as ar
ĠCon trol
Ġ23 9
ĠBa ch
ĠSp ider
ĠMat ic
Qu áºŃn
199 1
igh ton
ĠDep ort
ĠB X
Äĳ áº¥t
shi p
ĠG ua
ĠVi ent
ĠAr ms
ĠSo ci
ĠB K
ĠCh ad
etro it
ĠR C
ĠKy i
ĠMes ut
R eal
Ġv oan
ĠB á»Ĭ
ĠHÄĲ H
ĠMal aga
ĠVin acomin
Ġxáº» ng
ĠUnivers al
Ġtw eet
ĠBhut an
k u
Ġkh áº¥t
ĠTh á»ı
ĠBC TC
L áº¡ng
ĠH áº¡o
ĠH ello
au n
ĠAl am
ĠTR ÃģCH
ĠEv ra
ĠHind u
m os
t Ãłi
x Ã¢y
ĠM áº¿n
ra vel
ak o
ĠTH Æ¯ÆłNG
Ġgl uc
Ġb á»ĩt
Ġnh áº±ng
ĠM Ã©p
Ġ( ?).
W TO
Ġs áº¯ng
Ġ7 37
ĠKH XH
ĠSalv ador
nem outh
b iáº¿n
ĠÄĳ Ã¹n
Äĳ iá»ĩn
19 72
ĠLA O
Ġt Æ°Æ¡m
ĠH id
ĠB ever
ĠL Æ°á»£t
ĠLat akia
ĠJenn er
S Ã³c
g am
ĠT enn
Ġth Æ°á»Ľt
is k
ost ok
ĠSX KD
ĠEth an
p or
ĠNg á»«ng
Ä© u
ĠMis tral
ĠT ong
ĠH MS
ĠSun ny
ĠRou hani
2 60
Ġr á»±a
ĠD at
ĠPh Ãłm
ĠNN VN
ĠStr ai
Can ada
t á»ĳ
Ġlo áº¡ng
ĠGu iliano
ĠGer ard
ĠRen ault
0 80
m ain
m ino
m Ah
ĠGiá» ĵng
ĠCaes ar
F ed
Ð ½
Ġl áº¿t
Ġg Ãºt
ĠL l
ĠRe cep
ob i
ĠCH á»¦
ĠSl av
ĠLi am
ĠSien na
ĠS z
Ġit em
Ġphot ocopy
B YT
h áº¡
ĠC row
em ber
ĠGi áº¥u
ĠIP U
Ġdiox in
Ġs áº¡
ĠB ian
ĠB eg
Ġw orld
C ar
H R
Ġm Ã³i
FF FF
ĠNat alie
ĠErn est
ĠÄĳá» ī
ĠT od
ĠB ez
W orld
t ai
Ġt uyá»ģn
ĠD etroit
ĠAl leg
áº® C
l ov
ng hi
ĠSav ills
o h
ĠK iss
Ġ3 25
Ġph Å©
Ġngh áº¿ch
ĠTr ib
ĠG ay
ĠR IM
ck tail
ĠBl an
ĠFur ious
F ED
ig a
ok er
Ġnh áº£n
á»ī a
ĠSl im
ĠNV CC
khi t
ĠShang ri
ĠNapol eon
? ?
d ia
ĠK ry
ĠG ear
ĠHo s
Ph an
In ter
ĠElec tric
ĠDid ier
ĠAl ab
col m
+ .
Ġt uá»ĳt
qu Ã¡
ĠE S
ĠPal ermo
ĠLH TN
ĠEnterpr ise
I X
Ġh áº¿n
ĠCh Ã¬a
ĠJan et
ĠG in
et to
kh Ã³
XH CN
ĠKir k
emb ley
ĠKh á»ī
ĠBe e
ĠSouth ern
r el
y u
y ria
Ġc ol
Ġx áº©m
ĠL ÃŃ
ĠF itz
ĠSt yl
Ġmen u
Ñ Ģ
Ġs and
Ġhá» Ľn
ĠK TT
ĠG mail
ĠR in
Ġ5 12
ac era
up er
ĠHar am
ĠDi or
ij der
ĠB á»ıng
ai d
ĠNh ai
Ch Æ°Æ¡ng
ĠFer m
ĠAdam s
ĠAnto ine
P VN
Ġ app
Ġl ip
Ġch á»£p
ĠMal colm
ĠGh ost
m ade
ch in
ĠW embley
z ai
Ġt Ã©t
Ġd Ã£n
ĠC isco
ĠH iáº¿m
Ġ5 30
ĠF un
IS A
ĠBlack burn
7 20
b reak
ĠN ord
Ġr á»©t
il en
Ġ21 4
Ġxu Ã½t
ĠKiatis ak
Ġgi áº»
ĠM D
ĠK le
ĠHu b
g art
ĠH Ãºt
ĠL ook
ĠX box
ĠSo on
ĠMB B
S p
f one
t ing
Ġn ews
am ol
es i
ĠY at
ĠLu ang
Ġ21 6
ÃĶ N
ĠY uk
ĠMcL aren
ĠL á»£n
ĠQu Ã£ng
id s
ĠZ alo
do anh
ĠVP CP
ĠBank ing
ĠNev ille
ĠSne ijder
b Ã¡o
ĠÄĳ áºŃn
ĠC OV
19 89
Ġi i
Iá»Ĥ U
ĠVir us
khit aryan
E uro
Ġs áº¿n
en eg
is se
ap l
ĠSp art
ĠMon tr
ĠSin ai
ĠKit ty
w orld
w atch
Ġph oto
ĠS CMP
or ia
ĠVá» Ĩ
Ġfor m
Ġgi Å©
ĠÄĲ uá»ĳng
ĠR áº¯n
ur ai
Ġthá»ķ n
Ġh and
ĠC ald
á»į p
Ġ20 7
Ġba by
ĠCon t
ĠEng land
ĠBour nemouth
ĠJag uar
r ik
Ġh Ã³ng
Ġtr á»ģ
ĠTr iá»ĩt
ĠNgh á»ĭch
Ġgu á»ĵng
ĠPrud ential
5 10
B ID
Ġv eo
Ġph om
ĠTr á»Ĺi
ĠS BS
ĠA ub
ĠÃģ c
Ġp art
ĠPC A
ĠGuill aume
Ġt Ãło
ĠÄĳ Ã¡c
Ġn Ã©p
ph im
ĠL á»Ĩ
ĠP P
ĠNh áºŃm
ĠHag el
s ide
ĠN im
Ġx iÃªm
ĠCh ry
Ġphá»§ i
li fe
ĠCap tain
Ãļ C
G Ã²
Ġc á»Ļc
Ġl Ãµa
ĠQU ANG
Ġn áº¥ng
ĠV ent
ĠQ N
Ġ24 4
Ãī P
d ate
ĠM khitaryan
ĠS oi
ĠTed dy
ĠC U
ĠCh ao
in er
ĠGiá» Ĺ
ĠBug atti
Ġnh oi
ac a
ĠVI N
ĠKos ovo
B GTVT
t Ã¹y
Ġch á»ĵi
ĠG ust
ĠPh á»Ł
ĠEl le
ĠRod gers
ĠTK CN
ĠJosh ua
ph ong
ĠSu u
ĳ t
ĠM IT
ĠH áºłN
ĠR EE
um er
Ġ27 2
ĠÄĲá»ģ u
ĠPlay boy
ĠRub y
ĠS ey
ĠCh ase
ĠnhÃŃ m
ĠDr ive
ch Ãºng
ĠZ ur
ĠYang on
h á»ĩ
° C
Ġg á»ĵ
ĠL enn
eo p
ĠW oman
ĠMar i
ĠMar ine
Æ¯ U
ĠCl oud
99 9
ĠTs uk
r ell
Ġc c
ĠT ot
ĠS SD
ĠNh am
ĠCom m
ĠSA B
ĠDia z
ĠArn old
ĠVient iane
Ġv áº§ng
Ġtr Ã¡t
ĠH á»ħ
Ġcá»¥ i
ĠGD TX
ff er
ĠSi ro
ĠB es
ri er
ĠCl are
ĠW end
id an
io xin
Qu ang
UA E
Ch iáº¿n
ĠNas ri
ĠDeport ivo
ĠG au
Ġ19 1
if a
p ar
ĠV áº¡c
ĠW aw
ed i
ĠRe id
Th iÃªn
ĠPr im
ĠÄĲá» ¨
ĠVá» °C
ĠÄĳáº½ o
Ġok ay
r ac
nh iá»ģu
ĠK ap
Ġchi u
19 46
iet y
ĠV B
in al
ĠCoun ty
m id
ĠT ia
ĠB Ãºn
ĠTh under
ĠTP Bank
ĠFut ure
chip s
char ito
ĠP and
ĠDep ay
Äĳ en
ĠStur ridge
Ġt Ã²ng
Ġth áº£nh
ĠT iá»ĩn
ĠN ina
ĠH eo
ĠNg áº¡c
Ġtho áº¡t
ĠEl ite
ĠAndre i
b and
Ġt Ãły
Ġch Ã£i
Ġs á»§ng
ĠC indy
ĠK iÃªm
ĠD UNG
ĠR ao
Viet Post
ĠCOV ID
B Ãłi
v ÃŃ
ĠK Ã¬a
en burg
ach er
ĠlÃ² e
Ġte aser
! ?
ĠTr Äĥm
Ġlá» īnh
Ã© s
ĠÄĲo Ã²ng
ĠDem i
ĠLeg end
k or
ĠT UY
ĠTh ink
ĠQu á»Ľi
it hi
ĠLo ew
ĠAb raham
ĠSev en
tour ist
ĠChand ler
s ang
ĠcÃ³ ng
ĠS INH
ĠD Ã¡ng
Ġmá» ģn
ĠTH á»Ĥ
ĠCH XHCN
ĠÄĳá»ī a
ĠL ast
or f
ĠE A
ĠHar ley
ĠBor ussia
C ao
ph is
ĠVi gl
ĠPrin c
Ġh áº¡c
ĠCar n
ĠTrav is
S BD
c ou
á»© u
sh ere
ĠSim pson
ĠHarris on
ĠBry an
ĠAvent ador
ĠVigl acera
ĠT ÃģC
ĠN Ãºt
ĠB áº¿p
ĠCh Ã¨o
in son
Ġ12 00
Ġ26 5
ĠMug abe
Ġch uá»ĳc
ĠÄĲ áº©u
ĠS W
er r
ĠR Ãło
ĠQu i
Ġá» ³
av y
Ġmicro SD
+ ,
ĠT Ãį
ol is
ĠCa hill
ĠShak es
ĠRal ph
ĠOtt oman
ANT ÄĲ
ĠSoci edad
S O
ĠH ak
ĠKh Äĥn
ÄĲ á»«ng
Ġ7 30
Ġá» ļ
ĠCho Ã¡ng
ĠNH K
H Ãłnh
Ġg á»ķ
ĠT Y
Ġph iáº¿m
ĠlÃł o
ÄĲ á»ĳng
Ġw hat
kh am
ĠCar ey
ĠDiv ision
2 70
ng e
ĠA o
Ġthi u
Ġ22 6
ill on
ĠBl ind
ĠCO N
Ãļ c
ĠXo ay
Ġv Ã¹
Ġm Ã©
Ġx Ãºm
ĠÄĲ u
ĠK omp
ex co
ĠFerm ÃŃn
D Ã¹
Ġn anh
ĠT ig
ĠR ivers
ĠTP CN
ĠCl ay
ĠMon te
ĠCT NH
we ather
ĠAC V
ĠAp ache
Ġl á»ķ
Ġs mart
ĠB Ã´i
ĠB oko
ĠW EF
li on
ĠPr ot
H oÃłn
o int
ĠB ou
ĠA ce
ar th
On line
L u
Ġ21 3
CS XH
ci el
ĠÄĲ Ã¢m
ĠK iÃªu
ag er
ĠMiss iss
ĠCC TV
echn ya
ĠAthlet ic
Ġn á»Ļm
ĠC esc
ĠKh á»ĳn
as o
sen al
ĠVI ÃĬN
Ġph Ãłng
Ġnh Ã¨
ĠC Æ°ng
ĠH Iá»ĤM
ĠS eng
ĠK us
ĠA se
ĠPh Ã©p
Ġsu Ãª
ĠCh echnya
ĠTH áº¨M
Ġxo ong
CC S
ĠCom ey
c ard
ĠF und
ĠHu ff
Ġ31 5
Ġ(* )
; ),
Ġbu t
ĠChi ang
ĠCA O
ĠTIáº¾ P
w as
el op
ĠE M
Ġ22 9
ĠTim othy
ĠPet rov
U T
V ID
ĠT iá»ĩm
ĠB ast
ĠK BC
ÄĲ Æ°á»Ŀng
ol ution
ĠHar old
ĠCB RE
ĠGreg ory
Ġtr Ã¡m
ĠG et
ag on
.... ...
ul ia
Ġxo an
ĠthÃ¹ y
ĠMont eneg
m á»Ł
Ġ Ã¹
ph o
Ġ0 43
Ġ21 9
Ġngo ai
az ine
ff ee
ĠÄĲT LA
ĠRo usse
ĠHir oshima
ĠHá»Ĵ I
ĠBKH CN
T uá»ķi
X in
i ya
Ġkh Æ°
ĠTr ue
Ġbá»ĭ u
ip l
ĠTCC N
Ġnat ri
A pp
Ĳ N
Ġd áº¥p
ĠH au
ĠL á»ĵng
ĠR ot
ĠPict ures
ĠB á»ģn
.. ...
11 3
net h
ĠWil shere
ĠRobin son
Ġ{ \
c Ã²
Ġv Æ°á»£n
Ġs Ã©p
ĠF M
ĠGar ros
D ragon
V á»¥
Ġc ort
ĠtrÃ¬ u
ob o
ĠLÃĢ M
t ay
ĠVá» ĲN
pers ky
N ha
b á»ĩnh
b ike
d ale
Ġ inh
Ġkh am
ĠS AM
ac as
km en
CP I
ĠÄĲo Ã¡n
hy un
ĠAnn ie
ĠIo T
B ra
ĠD iá»ĩm
ĠG H
ĠR iv
ĠUn ion
ĠWilli an
ĠStud ios
y on
qu Ã¡i
ĠÄĲ Ãĥ
ĠP ent
ĠO il
ĠZ ero
ĠMe h
ĠV J
ĠV il
ĠRic ardo
ĠT TTT
ĠN ol
an or
ĠB Ãłnh
ĠR á»ĳi
Ġ6 60
ĠE IB
k os
ĠC F
al og
ĠW omen
ĠIS S
pe are
A L
t á»ĳi
Ġth iá»ĥn
ĠB á»ģ
ĠChi charito
ĠEd mond
Ġsoc ola
VietPost Bank
V TV
ĠR oi
ĠAv atar
any ol
ĠTur ner
2 12
s uáº¥t
ĠH L
ĠK I
ĠX EM
il ity
ĠW ho
ĠSu zy
ĠTenn esse
H á»ĵng
Ġm ade
Ġph áº©y
ĠS R
ĠS ton
ĠK ad
Ġho p
th o
áº¨ N
2 30
D r
Ġ Ãº
ĠD Ã¢ng
iz u
ĠNhu áº¿
Ġkh Ãłn
Ġg Ã¡p
ĠT Iá»ĢN
Ġr á»ĩ
ĠM ack
ik istan
ick s
ĠSett ings
ĠPoi rot
M os
c en
Ġch á»Ľm
ĠC ES
ĠL X
ĠL TS
ĠG á»£i
ĠSh o
ud o
ĠSp eed
rin ka
K on
ong hean
ĠM Ã¡ch
ĠM Ã¢m
ĠL ord
el i
ĠO ct
ĠPV X
Ch o
ĠKH AI
ĠAustr alian
ĠNic arag
ĠATVS LÄĲ
K TT
n á»ķi
t v
v Äĥn
Ġc rop
ĠN Ã¹ng
ĠC NG
ĠV áº¬T
el ly
Ġso Ã¡n
ĠMar ina
ĠAd idas
ĠSir ius
98 1
ĠHav ana
ĠCCH C
l Ãª
v ert
ĠÄĲ iá»ĩu
ĠM O
ĠD ara
ĠW ow
ĠSoft ware
Ġcoc aine
m Ã¹a
Ġph áºŃp
ĠM ore
ĠF ront
om es
ĠMur phy
f it
f ul
u o
Ġn Ã¡n
ĠS eth
ĠD R
ĠCon cert
Ġ33 3
enn es
ĠSte fan
St ar
ĠLÃ£ m
S Ã¡ng
W A
Ġg ala
ĠN á»Ł
ĠB á»į
ĠB eth
ĠQu anh
Ch á»ĭ
ĠMed ic
5 60
P H
y uk
Ġ27 9
ĠMad agas
ĠKH U
Ġ æ
Ġnh Ã©p
ĠK ind
ĠAnd er
ĠVI NA
ĠBG TVT
ĠK ub
Nh Æ°
ĠKr as
cher ano
ĠC á»ĳt
ai ly
ĠI DC
Ġtrá»ĭ a
ĠTH á»ĲNG
ich el
Ġtest osterone
ĠHend erson
ĠMonteneg ro
ĠC art
ĠS á»£i
Ġ6 80
ĠSch ne
BID V
Ġh Ã¡ng
ĠM K
ĠR hy
ĠO ECD
ĠM á»¨C
ĠG at
ĠY ear
Ġp er
ĠVan essa
ĠPC TT
lu an
cÃ´ la
Ä¨ NH
ĠPrad esh
Ġl Æ¡i
Ġm Æ°á»Ŀng
Ġvá» ±ng
Ġr inh
ĠE SP
ĠSoph ie
ĠStrai ts
T áºŃp
áº °
ĠM iá»ĩng
ĠOr le
ĠGh Ãª
Ãĵ NG
ĠInvest ment
B u
Ġnh e
ĠB á»±c
ÄĲ V
ĠHugh es
ĠNicarag ua
C TCK
M N
ĠP ia
Ġho en
Ġá»¦ ng
Ġ24 2
ĠPH ÃĬ
ĠS á»ĳc
ha w
ĠMad e
ĠTá» ª
Ã ±
Ġtr ans
ĠL Æ°á»£c
ĠCh ong
ĠA EC
ĠD AP
KH HGÄĲ
ĠWester n
ĠShakes peare
Ġt Æ°á»Łi
Ġb eng
ĠV NG
ĠS Ãło
Ġ19 29
Ch Ã¢u
ĠKr is
ĠBol t
ĠSir i
ĠTr á»©
ĠG MP
ĠKuz net
ĠTennesse e
ĠM n
em o
ĠI NS
ĠHo Ã¡
ĠNi el
ĠLor en
ĠKas persky
ĠOm ega
ĠEu ph
Q C
Ġg Ã¡o
ĠK ansas
ĠA U
ĠF amily
lo e
ĠMc M
ĠBeng al
T KCN
Ġs ÃŃt
ĠBe ast
ĠKe ith
ĠRog ers
ĠOt to
4 40
Ġl á»§i
Ġkh áºŃp
ĠL áº¯ng
Ġgh iáº¿c
ĠEsp anyol
Ñ ģ
Ġ( ?!).
ĠPh Ã¬
Ġ19 33
akh ar
D OC
Y Ãªu
c ed
ph in
ĠN Ã£o
ĠKh iáº¿n
ĠIv anka
ĠTRá» ¢
f ort
Ġv Ã³t
ĠN áº¥u
ĠQ P
ĠMar ty
Ġ28 5
ĠSam an
ĠBV SC
v ax
ch an
ĠX en
ĠHo Ãł
ĠAle ksand
ĠHi ro
ĠFel ix
ĠKend all
ĠOliv ier
Ġg áº¥c
ĠH Ã¹m
ad an
ĠTH á»
Ġ22 7
Ġáº¤ m
Ġth áº±n
Ġqu áº³ng
ĠB XD
ud din
ĠMas cherano
ĠSoo bin
ĠDUY á»ĨT
b ps
l im
t Ãłu
ĠC az
ĠG áº¡ch
Ġo h
ĠTur in
ĠHud son
ĠVinat ex
ĠWaw rinka
Ġh Ã³i
ĠCh at
ĠHe ad
TH A
Ar senal
Ġyá»ĥ u
B GDÄĲT
Æ°á»£ p
ĠV QG
ĠL Iá»ĨU
ĠG A
ĠR ia
Ġ7 47
ĠSa w
14 9
ĠInd iana
ĠDev elop
' '.
ĠC Ãłi
ĠM ina
ĠCh áº·ng
ĠTT LT
kh ai
78 97
ĠVan cou
ĠFlor es
ĠFil m
h Æ°á»Ľng
Ġch á»ĵm
Ġm áº£y
ĠmÃ£ ng
Ng uyÃªn
ĠCr edit
ĠAM D
OL ED
q i
Ġn e
C Æ¡
Ġl Ã³a
Ġr áº¯m
ĠDu ke
ĠDan te
ĠFel ic
ĠWins ton
ĠFrid ay
n Ã©m
Ġv Ã¨o
ĠA er
li x
ĠPir lo
c as
nh iá»ĩm
Ġx Ã³
ĠV AN
ĠS BD
on ic
Ġa f
ĠBl air
ĠRobert s
ĠVancou ver
M y
ĠB ib
ĠD ana
ĠG us
ĠU crai
ĠBr ig
ey ang
ĠAN Z
ĠCHUY á»ĤN
g ht
o it
Ġth Ã³p
Ġm á»ĳng
Ġnh Æ°á»¡ng
ĠT á»±u
ĠD D
Ġ19 32
Ġ8 20
it ic
ĠÄĲá»¨ C
Ġth áº«m
ĠCh ern
ing o
19 68
sk aya
Ba onghean
Ġg áº«m
ĠL á»¥a
Ġam i
em i
it ol
ĠAss ange
ĠGang won
berl ain
3 10
Ġ over
... ",
Ng Ã¢n
ass er
ant ine
" !
ĠR ice
il ey
om er
Ġp ost
ude au
Cl oud
ĠPap ua
ĠÄĲHÄĲ CÄĲ
ĠAlab ama
v Ã²ng
Ġc ode
ch iá»ģu
art s
ĠVin ci
ĠMin nes
ĠOr ig
ĠRam ir
ĠJenn y
ĠIs k
ĠJos Ã©
... ),
ĠUN ICEF
Ġ19 18
SD F
ĠAl ess
ĠSh ad
Ng á»įc
ith u
GÄĲ VN
ĠRad ar
A ustr
D á»±
V L
ĠN L
all a
bo ut
ĠCO C
S á»ĳ
j on
Ġ á»£
ĠT áº¬P
ag ne
raph ic
ĠUN CLOS
ĠToshi ya
ĠHeb do
G I
ĠT áº£n
uá»ĳ m
ra f
ĠRo ar
ĠBer g
ĠSum mer
VP CP
T oÃłn
b ut
y ang
Ġb im
Ġs ur
ĠHo áº£ng
ĠÃĶ tÃ´
ĠVN R
ĠBr os
ens is
Ġj ust
ĠB eta
ĠK Ãªu
ĠD uma
ĠG á»«ng
Äĳ á»Ļ
ĠMar go
ĠÄĲT M
ĠDim it
C áº©m
c op
r ome
Ġth áº«n
Ġng Ã²
Ġngh Ã©
ĠHo áº¯c
Ġco cktail
ĠTom as
ĠRus sia
ĠOrle ans
o ung
Ġm áº¿u
ĠB le
ĠB um
ĠS co
th ia
Äĳ Ã¢y
ĠSo áº¡n
Ġngu á»Ŀi
his it
ĠMadagas car
r ise
Ġ ap
Ġt Ãºp
Ġt Ã¢ng
ĠNg áº§m
ĠO Ã¡nh
ĠLu ka
ĠTH á»¨C
ĠMinnes ota
G o
Ġc áº·m
ĠN ishi
ĠTr udeau
ĠD Ã¢u
ĠF ai
C ty
w ald
ik ov
Ġlá» ³
ĠK TX
ra p
Ġ29 5
su it
ĠDeuts che
B áº£n
ĠC Æ°á»Ľi
ĠPh Ã¬n
Ġ6 20
Ġ24 9
Ġáº¤ p
TS KH
ĠAb hisit
EC O
ĠEx po
Ġlá»į n
ĠSic ily
x uáº¥t
Ġnh áº¡i
ĠS OS
ĠD PM
ĠF actor
Ġ25 5
ell es
ĠOr acle
ks hire
ĠDes champ
!! !
Ġb iáº¿c
Ġn Æ¡m
ÄĲ Ã£
ĠIn t
h el
ĠT á»ģ
Ġd áºŃt
ĠM ake
ĠG Ã¡nh
ĠCo upe
áº¢ M
ĠGonz alo
ĠN eb
ĠG ut
ov an
ĠBeck s
ĠCel tic
ĠCher yl
ĠSchne ider
c áº·p
Ġngh Ãª
ĠI owa
ĠW er
ap est
ĠSystem s
ĠServ ice
ĠMississ ippi
s tyle
ĠM ÃŃ
ĠP ET
ĠF ans
ent a
ĠEl len
TB D
Ġch á»Ńa
Ġg uá»ĳc
ĠP Ã¹
ĠP anda
ĠK ao
Ġho áº£
ĠSpr ing
c á»±u
e aux
ph á»¥
ĠB enny
al and
Ãµ n
as c
Ch elsea
gi Ã¡o
ĠSaigon tourist
St ation
qu er
ĠV ista
ĠM iáº¿n
ĠQ Z
Ġma z
Ġ23 4
ĠOli via
F L
Ġd Ãºi
ĠLe y
ĠKal in
ĠAeg is
ieg el
r áº¯c
Ġc ross
ĠH ector
ĠS ign
Äĳ Ãło
78 75
ĠDz eko
ĠB á»¥i
is o
Ġxu á»ĥ
ĠHal ey
, ..
M E
Ġvi r
ep t
ĠJacqu es
Ġsand wich
4 80
B á»ĳ
ĠÄĲ oÃłi
ĠK eo
ĠNh Æ°á»£ng
ĠHo k
Ġ19 35
ul ar
ill ac
end i
t iáº¿ng
TT TT
ĠCH LB
ĠKh á»ıi
ĠHo m
ĠEng ine
ĠTaj ikistan
Ġ );
Ġh Æ¡
ĠN Ã©m
ĠM áº¡o
is lav
Th á»ĭ
Ġ37 5
ĠBig C
ĠRi edl
ĠJuli Ã¡n
d á»ĭch
ĠRo jo
M L
Ġ22 8
ax i
ĠCor olla
ĠAlv aro
S a
m u
Ġtr á»ĭch
ĠT F
ĠB Ãºp
ĠÄĲ Ãºc
Ġy e
ĠSc ud
Nh Ã¢n
ĠJack ie
ĠTi ff
I CS
al ez
ĠÃĶ m
ul u
Ġ23 1
ĠChampions hip
ĠCaribbe an
i ent
Ġt uáº¥t
Ġs ub
ch et
ĠG ur
Ġchá»Ŀ n
ĠZ TE
ĠPH ÃīP
ĠMol ly
ĠN ang
Ġr Äĥm
ĠTr áºŃt
Ġ3 01
ÄĲ N
ĠRe yn
Ġngo áº£nh
ĠViet ravel
ĠMeg han
ĠSand y
ĠRecord s
Ã ¯
ĠB ish
ĠBa e
h Ã¬nh
ĠT E
ĠH ague
ĠKh ed
ĠI f
Ġ19 19
Th á»ķ
ĠSp ot
ĠChu Ã´ng
ĠDis play
ĠSul li
ÄĲ áº¿n
Ġxu áº©n
ĠBer kshire
ĠHer ald
ĠMag ic
ĠBud apest
f un
ĠC op
ĠH els
ĠG MT
ĠE PS
ĠHai yan
ĠSt ol
Ġ23 8
TH PT
ĠPao lo
ĠMitch ell
htt p
f ile
j ad
s ton
Ñ Ĥ
Ġh Ã¡ch
ĠT iá»ĩc
Ġngh iá»ħm
ĠS Äĥn
Ġ30 5
ĠDis covery
ĠClaud io
l Ã©
Ġr á»¯a
ĠSp ark
78 73
IC E
ĠEver y
Ġá»« m
ĠV on
ĠNg on
ĠD iva
ĠO ri
Ġsho ot
c raft
s tein
Ãª p
Ġ- -
um b
ĠMay weather
ĠSte el
ĠMag n
ĠYat sen
Ġx á»Ļc
ĠH I
ĠG lor
is le
re a
Ġvo á»įc
ĠLit va
S Ãłi
Ġn á»Ľp
ĠNh á»ķn
ĠE ag
ĠHu Ãª
ĠSt orm
ĠInter fax
ĠMo un
Ġor g
ĠQueens land
m ay
r ing
Ġs iÃªng
ĠH oney
ro ad
ĠTo ul
ho ck
ĠJohan nes
ĠUt ah
Ġnh uá»ĳm
am mar
Ġp ap
ĠAlleg ri
k top
Ġg á»£n
ĠN it
ĠVH NT
Ġl á»§ng
ĠG iáº¿ng
ĠU K
ĠGi Äĥng
ĠGeo g
ink i
Ġn ia
Ġr ep
ĠÄĲ Æ¯á»ľNG
ĠA w
og h
utt gart
ĠMontr eal
ĠNiel sen
Ġm obile
Ġg et
ph áº£n
ĠC ow
ĠP yeong
ĠD á»ĳc
10 5
Ġin ox
Ġe Bay
let cher
ĠGh áº¿
Ġch Ã¡c
ĠL NG
ĠBM P
ĠTur kmen
Ġn Æ°á»£p
CS VN
Ġ00 7
ĠAth ena
AF TA
ĠFan page
ĠWan na
ĠShak htar
v á»«a
ĠD Ã£y
il es
ĠW ir
atch back
b ol
ng oáº¡i
iá» ĳt
Ġg áº·ng
ĠN ation
ĠCS KA
ĠSH S
ĠCel ta
ĠJeff rey
M iss
Ġkh iá»ħng
un ce
ov ers
ĠFran Ã§
ĠMag gie
ĠhÃ©c ta
ĠBlock chain
Ġ id
ion a
ĠSp ir
Qu an
s ong
ĠM iáº¿ng
Ġ19 17
ic ial
ĠCol l
y ong
Ġnh á»©t
ĠC GV
ch Æ¡i
ac ca
ĠHu l
ĠMu á»Ļn
ĠPat ric
ĠHist ory
ĠAcad emy
ĠV F
ĠP ick
Ġ3 24
oo gle
TT LT
ĠHu ang
ĠNig er
ĠMold ova
Austr alia
f al
Ġc áº§y
ĠA ge
ĠD ustin
ĠG á»ĳm
ĠVi go
ĠAl d
ĠBra vo
áºª U
Ġáº¨ m
ĠHidd ink
] .
ĠR áº±m
Ġ24 7
19 73
ĠViet Times
ĠAd d
ĠÄĲ un
ĠPH áº¦N
ĠLeo p
ĠAse an
Ã¨ ng
ĠOr ange
ĠWeek ly
ĠPow ell
ĠKhed ira
2 90
Ġth áº¡nh
Ġnh á»Ń
Ġn Æ°á»Ŀm
ch ung
ĠSan na
ĠL ed
Ġf ashion
85 01
Gi Ã¡
Ġdown load
Ġm Ãµm
Ġnh Ã£ng
ĠB Ã³
ĠL Æ°á»¡i
ĠI B
ĠF ig
Ġ19 34
ot ta
ĠCal vin
ĠM ut
Ġ19 31
ĠHe at
ten berg
ĠStu art
ĠArms trong
ĠEuph rates
l ob
r ica
Ġd anc
ĠN ova
ĠTh s
ĠY G
ĠAn im
11 5
Ġa bout
ĠBr emen
ĠSo phia
78 99
ĠBu zz
ĠRap tor
Ġl ia
ĠÄĳá» įa
ai se
ĠNh áº¹
Ġvá»ĭ n
ĠJ Y
os p
ard e
ĠZ akhar
ip an
ĠCo hen
k n
s Ã¡t
ĠÄĳ Ä©
ĠF oster
om et
up ol
ĠIt s
ĠVid ic
ĠInst it
Ġth inh
ĠV iss
ĠHim al
b ak
Ġh Ä©nh
ĠX iÃªm
ĠF ac
ĠPH I
ĠPal mer
V Ãł
Ġ end
Ġb Ãªu
ph et
ĠB io
Æ°á»Ľ m
ĠM áº¡n
Ġkho áº£i
ĠMar in
od ka
ĠClaud ia
9 01
ĠÄĲ á»ĳt
ĠM it
ĠG aul
ĠKh áº¯p
ĠR Ã´ng
ĠE qu
ĠF ay
ĠTo an
Ġcar bo
ĠFal con
ĠWars aw
F BI
g ang
ĠF ol
os ph
ed om
S iÃªu
d ioxin
ĠcÃ³ i
ĠB Ã¡m
ĠK obe
ĠVin son
ĠBen ed
ĠBus qu
ĠPlay Station
ĠAM OLED
b Ã£o
Ġl áº¡p
Ġtr á»©
ĠN ash
ĠC Ãłn
ĠV CS
ĠK il
ĠSt ep
Ġf r
Ġmu á»ĵi
ĠEl on
ĠKy lie
ĠDak ota
Bra zil
ĠN ano
Ġr áº§n
Ġr á»£p
ĠB ert
au gh
ĠF DA
NT M
ĠCom ex
ĠHen ri
br ight
T ech
Ġh áº¹
ĠC Æ°á»¡ng
ĠG and
ĠF letcher
ate ng
ĠXÃª Ãºt
5 80
Ġch Ã¬nh
ĠTr in
ĠCh uyá»ģn
Ġo áº±n
ĠTw o
ĠLien VietPostBank
ĠDeschamp s
b ot
ĠP E
ĠK BS
Ġho Ã³c
ot el
ĠGal at
90 7
Ġhá»¥ c
ĠBos que
ĠPri x
ĠKomp any
h in
ĠN iá»ĩm
ĠO CB
Äĳ iÃªn
ĠZ o
con sin
an ov
ĠB U
or es
id ae
Ġ30 4
Ġ24 1
Ġ26 4
ĠStar s
ĠDef ense
ĠGri ff
l á»Ļt
s Ã¢n
w ater
Ġk W
ĠM ito
ĠI CC
id on
th an
ĠSt uttgart
Ġgi Ã³ng
ĠM k
ĠM eth
os an
Ġ22 1
ip er
Ġxá»ī a
ĠWar ri
ĠSand ra
Ð¾ Ð
C R
h l
ĠM áº¯c
ĠM ei
ÄĲ C
ab in
Ġlá»£ m
ĠShay k
Ġv Ã´ng
Ġtr áº¥u
ĠD Ãª
ĠAn aly
ĠSu Ã½t
ĠKH KT
ĠMem phis
lah oma
ĠZur ich
ĠH abeco
ĠTr oy
á»Ĺ m
ac an
un k
AN A
ĠIr is
Ġ67 2
ĠN ir
ĠHo pe
Ġ33 5
ĠHS MT
eria l
d om
v eland
ĠL áº·c
ĠL ap
er ick
ĠR ost
Ġ6 36
and ra
ĠGang nam
V I
h iá»ĩp
Ġqu á»ĩ
ĠFlor ent
C áº£
N e
ĠC ord
ĠA x
ĠLe one
ĠGiá» įt
Æ°á»£ i
Qu á»³nh
ĠBel le
kin son
ĠTá»Ķ NG
Ġs ap
Ġkh Ã²
Ã¬ u
ĠM áºªU
ĠPh áº©m
Ġto i
ĠNGH á»Ĩ
n Ã´
Ġn Ã´m
Ġx á»©c
ĠAn s
Ġs á»ı
Ġph áº£ng
ĠOk lahoma
ĠOp tim
5 20
ĠM ey
ĠHo SE
ĠHe ine
ĠTob ias
bat ov
ĠCáº¢ NH
4 30
t áº¥t
Ġh er
ĠB Æ¡
er g
á»£ c
ĠR im
ĠFel ipe
ĠReb ecca
5 70
C LB
C IA
Ġs un
Ġthá» ĵ
Ġ3 45
Ġ7 90
ĠCard iff
vax em
4 60
A g
Ġg áº¥m
ĠA ch
es is
áº¤ U
ĠIP v
iff el
ĠAtlant ic
ek e
ĠSher lock
Ġsal on
ithu ania
s ilk
t Æ¡n
Ġr Ã³i
eo l
ĠBy ung
ĠL ist
ĠA AA
Ġ3 12
ĠI ce
ĠNH CSXH
ĠXVII I
ĠDau nt
T R
X Ã£
ĠW oz
ev ich
uz a
ĠBeck er
h art
Ġr Ä©
ĠH áºŃn
ĠL áº¥p
ĠX áº£
Ġ29 9
ons ai
ĠFu ji
á»® NG
nhe im
áº° NG
= "
Ġk ar
Ġ4 90
ĠY ale
op mart
Ġ29 8
ri pt
ĠSp urs
ĠBL TT
asar ay
ĠN iÃªm
Ġ6 10
as i
ed ine
ew ay
ĠNH á»®NG
ĠDe pp
ĠJe ju
ĠLouis iana
ĠLaz ada
Ġ25 2
og ne
ĠOs p
ph en
ĠV CG
ĠD Ã£
ĠO ak
tic us
cho ol
ĠCle veland
ĠTiff any
c at
r un
s á»ĳc
w er
x anh
ĠN ab
01 0
ĠKh uyÃªn
Ġan ime
ĠE iffel
Ġ26 7
ub le
st ad
ĠHe ather
ĠAf rin
r ess
Ġtr uÃ¢n
ĠV FA
am el
as ha
th á»ĥ
ob a
ah l
ĠCes ar
ĠDh abi
e an
Ġh Ã¬
Ġr Æ°á»Ľi
Äĳ á»Ļng
ib r
ĠSH TT
ĠPas cal
Cap ital
ĠBez os
ĠÄĳ Ã¬a
Ġnh oÃłi
ĠT ir
ĠB ald
ĠNg u
ĠP att
ĠI ker
ĠSo fia
ĠBo ateng
con n
ĠSil v
ĠDaunt less
t iÃªu
ĠB á»Ļc
ĠI g
Ph Ã¡t
Ġ78 7
Ġnh Ã³
ĠMar ca
ĠCar acas
ĠHaw king
dr ate
ĠNin ja
ĠBusqu ets
T u
b Ã¬a
Ġr ÃŃch
ĠB ot
ĠA ff
ĠQ PR
ĠD P
ĠUn il
ĠSol omon
Ġet hanol
ĠArm ata
ĠRivers ide
? ,
Ġh igh
ĠH amp
ĠV K
ĠL áº¯m
ĠÃģ m
Ph Æ°Æ¡ng
ĠFin ch
Ġh Ã¢u
Ġn áº¹p
ĠT áº©y
ĠY áº¿t
Ġgh á»ģ
ork s
ĠKH I
ĠRaz ak
ĠT ul
Ġd á»ģn
at ing
Ġ24 8
ĠStev ens
ĠCHU áº¨N
ĠTsuk uru
Ġye ah
ĠMoun tain
g il
ĠL Ã¹ng
im p
ĠComp lex
ĠXX I
l iÃªn
Ġx áºŃp
Ġngh ÃŃa
ĠNg á»įt
ĠR el
ĠRob bie
ĠHe ath
b Ãłi
v ili
ĠM á»
Å¨ NG
ovin am
Ġnh á»Ļng
ĠC CN
Ġdo ll
ĠGi Ã¡n
ĠF ind
ck i
ev i
23 7
ÃĬ M
ĠANT Q
ĠChurch ill
Ġd áºŃm
ĠTr á»ĳn
ĠCh áº©n
Äĳ Ãłn
ĠLe eds
ĠSt a
ĠEl ena
** **
Ġnh Ã£o
ĠL ithuania
ĠP ele
ĠCh Æ°á»Łng
ĠK oi
au r
Ġ30 8
Th á»ĥ
ĠBar ney
ĠCarl isle
ĠSaman tha
Ġt iá»ģu
ĠT art
ĠL ogan
ĠS ÃģT
Ġ20 23
ĠHer mes
ĠWis consin
mid t
ĠB uch
ĠB ÃĮNH
ĠV á»«
ĠP uy
ĠG le
á»ģ m
ag lia
ĠMus ta
ĠChalle nge
C E
ĠF it
ĠO GC
19 86
ĠSaf ari
ĠMov ie
Ġs hi
ch uyá»ĥn
ĠS ew
au g
Ġ25 8
Ġblock chain
p etro
Ġs ter
ĠV or
ĠS ik
ĠD ion
ĠI CA
ĠW AG
ĠLu ck
ĠRom ero
ĠSk ull
ĠCap itol
igh ter
ĠYoshi hi
N O
Ġc áº¡m
ĠJon as
ĠLl oyd
ĠM á»µ
ĠW he
Ġp ast
19 79
ĠVN E
Ġi M
Ph áº£i
ĠBit exco
ĠTh Ãło
19 87
ĠBer batov
ĠGI ÃģO
ĠPart y
ĠQuin vaxem
ĠEner gy
ĠTod d
w ord
Ġch uy
ĠM ust
ĠInter est
ĠBS R
Ġden im
" )
g round
ä ¸
Ġd Ãºm
ĠN KT
ĠB ass
ĠL á»į
ĠCH K
ĠTur nb
ĠXU ÃĤN
ĠC ra
ĠB eo
ĠD est
ĠKan te
ĠHK TT
Ġphot oshop
ous ine
á ¸
Ġr ight
Ġ5 10
Ġ24 6
ĠCad illac
h ua
k ar
m á»Ľi
Ġto áº£
ĠLan c
sk ey
ĠsÃ´ cÃ´la
ĠMend es
ctic ut
Ġgluc ose
Ġ zo
ĠTr o
Ġ25 1
ĠMar awi
ĠHá» ĴNG
Ġ45 8
ĠTR á»Ĭ
ĠPet ra
ĠSte f
ĠTB KTSG
ĠDer ek
ĠFro do
ĠRousse ff
f rey
Ġ19 23
m al
Ġnh Ãºm
ĠNh áº¡n
Ġto anh
ĠPlan et
c tion
nh a
Ġd áº¹t
ĠC VÄĲ
ĠB Ãło
ĠL ol
ĠP ack
ĠX E
Ġ25 4
/ -
g Ãł
Ġ under
ĠÄĲ áº¤T
ĠA pr
ÄĲ CSVN
ĠSh u
Un ited
ĠLenn on
VID EO
Ġkh Ãªu
Ġqu áº·n
ĠTh á»ĳt
Ġ19 25
ib ia
ĠCo ol
apl uat
an ne
ĠP ang
ĠÃ ĵ
Ġ9 60
ob ar
ĠAlber to
ĠUnil ever
P D
ĠK ok
ĠHo áº¡ch
it es
ĠTHU á»ĺC
thi ng
ĠNar endra
n in
Ġm Ã³p
Ġn Ãºc
ĠK K
ĠK any
ĠÄĳÃ³ m
TT C
13 2
ĠGust av
ĠRoar ke
Ġnh Ã¡m
Ġn áº£i
ĠP it
ĠA TTT
ĠD oll
est ay
ĠVic ente
AR C
BÄĲ S
hy de
ĠFort une
k es
m Ã¹ng
ĠS Ã¡n
Ġho st
ĠVinh omes
ĠOs lo
ĠGen oa
AD B
ĠWoz nia
Ġ Ã¡y
ĠM áºŃn
ĠG ao
ĠR iz
es ong
ac on
ĠdÃ² m
ĠBá»ī m
HA GL
ĠLuk as
ĠBord eaux
Ġnh Ã²e
ĠC E
ĠB amb
ĠP SV
tr áº£
Ġp an
ĠAnd res
ĠNao mi
ĠLot us
Ġv in
ĠTh áº¯p
Ġmá»ı m
ics son
ĠWood s
ĠIslam abad
âĻ ª
H H
v ua
ĠP ai
Ġ19 14
ĠTR ÃĬN
ĠChar ter
Ġáº¢ o
ĠClass ic
ahr ir
B N
R R
W D
f at
m ins
Ġ á»Ľn
áº º
ĠC Ãłnh
ĠÄĲ iÃªn
ĠÄĲ ÆłN
th áº¯ng
Th á»©
Ph ong
ĠBr end
ĠNo ah
BV CB
ĠV issan
ĠG á»ĳc
en kov
ĠW it
Ġ27 4
ĠAt ticus
ĠSch war
79 11
ĠRos ario
lian z
ĠZin edine
F or
u oka
Ġtr áº¡ch
Ġg Ã²n
ĠÄĲ Ãłnh
ĠV og
ĠL Ãłi
ĠK ep
ĠU R
ĠVar ane
ĠConne cticut
6 40
h oÃłn
Ġn Ãµn
Ġg á»įng
Ġd an
ĠM ert
or ies
Ġto áº¡c
ĠMo h
ĠAugust us
Æ° m
ĠT áº©n
ĠN áº¡i
ĠH m
ĠBe an
3 01
Ġd iáº¿p
ĠB áºŃc
ĠK es
ĠVi vo
ĠGalat asaray
t Ã¢m
Ġqu áº±n
ĠN TC
ĠÄĲ áº³ng
ĠHad id
ĠGol an
d Ã¹ng
ĠCh Ã¡n
ĠG Ãłnh
ĠG ent
ur g
ĠPhilipp ine
Ãģ o
ĠEl li
ĠAud io
Ã¼ r
s ler
Ä ĩ
Ġ its
ĠN E
Ġx Ã²a
ĠÄĲ áº¡n
ac us
Ġf oot
Ġ23 2
ĠCl ara
AT XH
ĠAng kor
ĠWeb b
ĠLyn n
ĠGonz alez
ĠHels inki
Ġv v
ĠS AT
ĠF le
ĠAl lianz
ĠVu it
ĠHeine ken
s Ãª
x ico
ĠK amp
ĠF ah
Ġ19 22
ĠEd mund
ĠÄĲá» Ĥ
ĠBay er
ĠT Ã¨
ph á»ĳ
Ġvi olin
ĠLe van
15 4
ĠFal ko
r ist
w ig
ĠB ed
os aurus
th ong
Th áº§n
ĠKH ÃģC
ĠCa fe
ĠVol vo
ĠJeff erson
ĠOd essa
conom y
! .
l áº¥y
ĠB uy
ĠV Å¨
Ġlá» «
10 2
ĠMar oc
ald e
ĠTa ekwondo
Ġcaffe ine
ph ire
ĠS oy
ĠCh Ã¡o
ĠK av
ĠKh Ã´n
Ġ25 7
ĠSy n
uc t
ĠMod e
Ġsc an
ĠSul tan
Ġball et
Ġá»ļ t
ĠTurnb ull
m ang
Ġk e
ĠC á»ĵ
ĠB á»ĩ
ĠL á»¡
ĠKh Ã©p
et ic
ĠGr ig
ĠGre gor
ĠAndre as
c Ã¡n
ĠPh un
ĠI BVCB
TS E
ĠTal k
ĠHuff ington
Ġr Æ°á»£i
ĠH UD
ĠÄĲ Na
ĠNh Ã³c
ĠG yeong
ĠGi Ã£
Ġty pe
ĠEm pire
av irus
Ġ22 3
ĠVN EN
Ġ23 3
ah ar
se i
Ãģ Y
Ġ65 6
ĠOr gan
ĠDa ew
ĠKaz an
Ġoff line
ĠFut ures
ĠSpec ial
y t
Ġh Ãªnh
Ġ3 19
ĠR ita
ĠDu á»ĩ
ĠbÃª tÃ´ng
ĠBav aria
ĠGi ll
ĠX Ã³t
Ġngo a
TS C
ĠEr icsson
ĠXinh ua
Ġ á»©a
ch á»ĳng
ĠQ uyá»ĥn
ĠZ ara
Ġu á»ĥ
c are
r ina
Ġn á»ĭch
Ġn Ã¡y
ĠH in
ĠB ÃģN
im an
es o
tr Ã¢y
ĠTN LÄĲ
ĠRoy ce
Ġkil Ã´m
j ar
p ost
Ġt Ã¢u
ĠT Ã¹
ĠT ata
Ġd Æ°á»£t
ĠH R
ĠM N
ĠQ R
ad one
ĠUd inese
N Ã³
d Ãłi
Ġr Ã²i
ĠÄĲ áº¶
ĠK agawa
ÄĲ Ãªm
á»ĥ nh
ĠRe c
ĠZen fone
aze era
f in
Ġth á»ĳ
Ġs ushi
Ġg Ã¹i
ĠB Æ¡i
ĠA sen
ĠI CBM
Ġáº¤ u
Ph áº¡m
TE S
ĠÄĲV TN
ĠLing ard
Ġcross over
l em
ĠR OS
ĠHy o
ĠMaria h
Ã «
ĠTh en
im Äĥng
is es
ĠBa ek
ĠHá» Ĩ
ĠPr om
ĠPH ÃĤN
Ġquá»µ t
ĠKhal id
4 90
h h
ĠK iáº¿p
av es
Y D
z ie
Ġd ata
ĠB áº¯p
ĠCh áº¡m
ĠÃ ¨
Ġmang a
ĠMar ian
ab al
Ġ23 7
ĠIs hi
ĠÄĳáº¿ ch
Dr ive
u es
Ġtr Æ°á»Ŀn
ĠL Æ¯U
áº® T
ĠO a
ĠSc andal
ĠSe arch
ĠUy á»ĥn
ĠMc A
ĠKur t
ĠIP S
ĠCour t
fri ed
M Ã¹a
Ġ art
Ġth Ã²ng
ph on
ĠV SI
ĠD X
el u
Ġ23 6
ĠInfin ity
ĠStol tenberg
C áºŃu
g om
Ã ¸
Ġd iáº¿m
ĠP OS
ĠP earl
Ġ6 70
L and
Ġb Ä©nh
ĠT ahrir
ĠM ÃŃt
ar oo
ĠR iley
ĠJ ill
ĠSal eh
ĠFox conn
Ġmar gin
Ġl Ã¨
Ġs á»ĵi
ĠG eta
Ġ7 80
24 2
ĠFelic ity
6 30
ro y
Th áº¡ch
ĠSEA L
ĠVlad iv
ĠKath y
ĠVuit ton
4 20
M ai
m áº·c
qu Ã¢n
Ġ8 10
id eo
Ġ30 2
11 1
Äĳ Äĥng
ĠGr im
ĠSad dam
Ì ģ
Ġn ow
ĠV pop
ao ke
ĠHap ro
s Ãło
ĠN C
ĠM ate
ĠP ico
ĠD ad
A m
ĠT ake
Ġqu áº¡i
ĠB ÃĢI
Ġho me
Ġtu áº¥n
ĠMod ern
ĠBre ak
ĠÄĲK DT
Ġnu Ã´ng
ĠP is
ĠCh em
ĠGi or
ÄĲ i
ÄĲ áº§u
ĠÄĳo áº£n
ĠCon tinental
Ġf ran
79 13
ĠPhilip s
Ġ Å
ĠÄĲ iÃªu
Ġ19 28
ĠSt ella
Ġf e
AS S
ĠÄĲá»Ĭ A
ĠFish er
K m
b áº£ng
Ġ Ã¢
ĠN BA
ĠM ÃĶI
ĠL AN
ĠX iáº¿c
ĠVN N
if y
ĠNGH Ä¨
ĠSev ast
ĠVill age
ĠHQ C
ĠDomin ic
ĠDaw n
Ġm ore
ĠT ina
ch á»£
ĠI F
ro d
Ġp ass
ĠZ an
ĠSp y
ĠMil ner
ĠFor est
ĠHat ha
ĠBeat les
g iáº¿t
Ġm á»ĳ
ĠC ash
ĠM itt
en ing
ĠF us
ĠCon cept
Ph áº§n
ĠCar rie
Ġcar at
ĠPlay er
ĠTÃį N
b iá»ĩt
Ġch Æ°á»Ŀng
Ġm ac
ĠÄĲ á»Ľi
ĠR OM
ĠPar ad
ĠRos ie
ĠSC TV
b Ã³ng
f lix
Ġgi Å©a
ĠG á»¡
ĠR ui
ĠE L
ĠAS EM
Ġco upe
Ġstr eet
h ara
Ġch Æ°á»Ŀm
Ġd áº±ng
Ġd ec
Ġqu Ã¨
ĠH orm
ĠM Ã¢n
ĠS ou
ĠP om
ĠR Æ¡
ĠMad ison
mp ic
ĠDi esel
kho e
ĠSun rise
ĠSum atra
ĠDer by
K E
Ġg out
ĠMel anie
ĠKn ow
ĠVNA CCS
Ġhá»Ľ p
ĠMick ey
Ġzo om
I R
L inh
Ġb ot
Ġtr áº£m
ĠÄĲ áº§y
ĠTh Ã¹ng
ch ang
ĠU b
ĠGi use
ick er
ĠAt om
ĠCit iz
Ġmaz ut
M obile
ĠL ie
ĠP ix
ra v
ĠDe ath
ĠBR ICS
ĠEdu ardo
T uyÃªn
U R
c á»Ńa
j ong
m ine
Ġng Ã²m
ĠS app
ĠNg Ã¢m
ĠR ong
ĠR oth
Re uters
A b
v ez
Ġl áº¡t
ĠD ag
ĠY es
Ġ26 8
ĠHD MI
ĠMW G
Ġ(! ?).
ĠKind le
O ne
x trÃ¢y
Ġng Ã¡p
ĠÄĲ ÃĮNH
ĠÄĲ TCK
ĠP áº¯k
ĠCar ne
ĠOn ly
ĠXD CB
ĠBlanc os
ĠCec ilia
C a
m ler
Ã´ c
Ġg e
ĠTr Ã¹
Ġbá»ĭ nh
Ġkhu Ã¢n
... /.
ht ml
ĠNor mand
ĠHer cul
ĠBol og
ĠJer ome
ĠHum m
ĠTurkmen istan
ĠLevan te
v iá»ĩc
x u
Ġh em
Ġo Ã¡i
ĠCar e
ĠMÃ© xico
ĠHok kai
N Æ°á»Ľc
m áº·t
ĠR áº¯c
ĠCon nor
ĠZ ag
ĠKa esong
ĠCast le
6 80
H y
T Äĥng
Ã ¥
ĠC VT
ĠV áº¬N
ĠW en
ell ini
ĠHy brid
ĠCl o
ĠKar aoke
Co V
ĠPam ela
A CB
H Ã¬nh
ĠT áº¤N
ast ar
ĠKon stantin
ĠGer ald
ble dore
Į NG
ph oon
Ġ26 2
ĠBr ist
ĠDai sy
ĠAlexand ria
ĠHatha way
N ews
k at
ĠN TBD
ĠH SD
ĠS SC
ĠD B
ĠSe e
ÃĤ U
itz er
Ġb al
Ġm Æ¡n
Ġ3 22
ND P
th áº§y
ow ers
Ġi Cloud
ĠTT KS
ĠCl as
enc er
ĠFr om
ĠESP N
ĠUcrai na
b ÃŃ
v Å©
ĠC á»Ĺ
ĠV á»¯ng
ĠL Ä¨NH
ĠE h
ĠF TSE
Ġ24 3
ine jad
ĠFran z
ĠGIÃģ M
ĠKany e
G N
Ġ Ãºa
an ao
ĠÄĲ Ã²i
ĠV áº¯ng
ĠL iá»ģu
ĠG N
ÄĲ áº¥t
ĠViet sov
ĠLo han
ber ra
Ġ* *
ĠDum bledore
b el
z ig
ĠD á»įn
ĠD ipl
ĠX Æ¡
es k
ĠAl icia
ero x
ÃĤ u
ĠPod ol
Ġs n
Ġd áº£
ph op
ĠL á»Ł
ĠS is
ĠF iona
78 0
ĠAd obe
Ġhu Ã½t
ĠFl am
ĠEle anor
6 10
Ġb á»īnh
Ġr eal
ĠM und
ĠK won
ĠA man
ap t
ĠPr iv
ĠMi x
ĠMat hi
ĠJe on
ĠH Ã¡
Äĳ un
ĠCS ND
po int
ĠNor ah
J o
w right
Ġx á»ĳc
Ġra ting
ĠW TI
Äĳ áº·t
ĠÆ¯ Æ¡ng
ĠTHU á»ĲC
ĠBrend an
Z or
l Ã´ng
ĠT á»ĳn
ĠM á»ĩt
ĠL iá»ģn
ĠS Æł
pp ort
re at
Ġhá»ķ n
ug a
ĠBal tim
ĠHop kins
3 90
r est
ĠT et
ĠL T
ĠA ilen
op s
ian us
rus h
ĠJe ep
ĠTang o
ĠGIá» ļI
Ġng áº¥n
ĠD iá»ģu
id ad
ed e
11 7
ach o
ĠÄĲak rÃ´ng
P al
t if
Ġkh áº¥m
Ġg ÃŃ
ĠB Ã¡u
ĠGi anh
it ary
ol on
od ia
iz ation
ĠJuli et
iag ra
c á»©u
g ue
Ġc ot
Ġng á»ĳ
Ġd á»ĥ
Ġqu áº¡nh
ĠNh á»ĩn
im ov
Ġ6 000
Ġ19 27
Ġp a
ist ar
Ġw h
ĠSh an
ĠMu á»Ļi
Ġmet hanol
ĠDW T
ĠSapp oro
ĠP ose
Ġlá» įng
ĠA DIZ
Ġ- >
ĠSch w
ĠGeor g
ild ing
ĠVladiv ostok
E CB
d ing
Ġ á»Ńng
ĠÄĲ N
ĠO leg
ĠSt at
ĠCan berra
he ad
ĠBever ly
ĠFans ipan
V ua
b ane
Ġs á»§i
ĠC ost
ĠS CB
ĠGi ov
ĠHo ff
ĠW ag
ĠRe us
lo c
ĠClar ke
ĠSylv ie
M ay
Ġ #
Ġt one
Ġh atchback
Ġb áº¹
Ġng áº¥y
Ġph á»Ŀ
ÄĲ á»ģ
ĠRe ed
19 85
og i
ĠMah at
ÃĴ A
ĠFranÃ§ ois
6 60
M en
ng Ã´i
ol s
ĠIn doch
Ng ay
old s
Ġáº¢ ráºŃp
ĠChrist mas
uck y
ĠTus k
ĠLlor is
Ġcarbo hy
ĠkilÃ´m Ã©t
Ġl á»¥ng
Ġs port
ut ra
ĠSp arta
ĠAd van
ĠSe pp
ĠLou ise
ĠKh Ã³c
at y
Ġnghá»ĭ t
ĠAl tis
og n
ĠHy per
ĠNet flix
ĠRak itic
t as
ĠN á»ĵng
ĠR F
ĠR av
th áº£m
Ġp y
19 53
ĠTR Æ¯á»ŀNG
ĠAd en
ĠVina Capital
ĠCy p
ĠHor net
IP O
Bo as
z uk
ĠS Ã´i
ĠCh áº£y
ĠQu en
Ġ19 10
ĠSh ell
atch er
ĠTri um
ĠJam al
ĠSteph anie
ĠMW C
ra z
oi re
Ġgh áº¹
ail and
ĠCo ast
Ġbar ie
ĠNGÃĢ NH
ĠSevast opol
ĠBaltim ore
r al
nh áº¡c
Ġv ac
Ġx Ã©m
ĠTr Ã²n
ĠP AC
ĠD Ã¡m
ĠX ÃģC
ĠO per
ĠDo d
ĠPT I
Ġas en
m ai
t ner
ĠÄĳ Æ¡m
Ãª c
ĠT ad
Ġr á»Ļp
ĠB áº¡t
ĠCh loe
ĠNam ibia
Ġ31 6
ĠCas p
ĠPhillip s
ĠBroad way
ĠGeta fe
Ã¢ p
Ġr á»ģn
ĠH TM
ĠS Ã¬n
Ġlá» ĥ
ĠA hn
el ess
tr eo
tr uyá»ģn
19 67
Tr Ãªn
Ġvu á»Ļt
Ġmod ule
Ġser i
X Ã¢y
c á»ĳ
Ġt iá»ħu
Ġl áºµng
ĠV ASEP
ĠL áºłI
it on
ad ol
ĠRa fa
NE S
ĠRes id
ĠBish op
Ġl uy
Ġl á»¯ng
ĠT oáº¡i
ĠGi gi
Ġ20 35
th iáº¿u
Ġlá»Ł m
ĠGl as
ĠFl appy
ĠUnder wood
ĠDaew oo
L Ã½
c io
z man
Ġb onsai
Ġso p
TC T
ĠMu ammar
aki ra
ĠMik el
ĠJas per
ciel ny
ĠIsk ander
t iá»ĥu
Ġb Ã´n
ĠB ok
ĠTh ier
ĠGi áºŃt
ro ugh
ab let
tor y
ĠAt las
ĠPra ha
ĠGeog raphic
v on
Ġt Ä©u
Ġl ist
Ġm agi
Ġnh em
ĠÄĲ áº£n
ĠSh imb
Ġ80 2
ĠWid odo
ĠPrinc eton
ĠKuznet sov
ĠYatsen yuk
ĠOptim us
7 60
d es
Ġ ez
Ġs áºŃm
Ġx á»¥p
ĠB attle
ĠG w
ĠY ar
CN TT
ĠBl ood
ĠSp iegel
S yria
ĠE ly
ĠW S
ĠMar x
ĠMar tha
CO C
Ġstr eam
ĠHercul es
Ġch iá»ĥu
Ġs ÃŃnh
ĠGi uá»Ļc
Ġf olic
ĠNi u
ĠHab ana
ĠWhat s
L Ãł
v y
x á»Ń
ĠT á»Ļc
ia r
el yn
Ġw ant
ĠDan ang
ĠLux ury
ĠmÄ© m
m Äĥng
ĠC á»¨
Ġthá» įc
ĠO le
B e
t ag
ĠD il
Ġmá» ģ
eb ay
19 65
oy ama
ĠPr ice
ĠHD V
á»Ĩ NH
ĠDes ire
ĠNÄĤ NG
ĠKos cielny
ĠAlexand ra
Ġbox ing
Ġtr Ãª
ĠTr Ãºng
ang a
Ġ5 90
ĠW ook
19 82
ĠSer ver
ĠBal kan
ĠFir mino
b Ãłn
ĠKh áº¿
ĠX áº£y
Ġ9 30
ur ing
ĠDi Cap
ĠTur k
ĠLen in
M áº·c
Ġm uá»ĳt
ĠS ac
ĠS Ã³i
ĠS eg
ĠR ik
Ġw ay
D NN
Ġ ÃŃ
Ġg ly
ĠT Ã¡n
ĠL omb
ĠP eng
Ġ19 26
Ġ8 30
Ng Ã´i
PP P
áº® NG
ĠÄĲHQG HN
) /
Ġt Ã³p
Ġch eo
Ġs á»įt
ĠL ille
Ġ19 24
12 3
ĠCon stantin
ri es
ĠCent ury
Ġth ÃŃt
Ġh is
Ġr on
Ġr áº£o
ĠM áº£ng
ĠBar r
ĠTy son
ĠAct ive
ĠFlorent ino
Ġth Ãªnh
Ġs ec
Ġgi áºŃm
ĠV O
ĠF um
ĠW anda
ĠRun way
ĠHob bit
ĠKash mir
H HT
c ap
s berg
ĠS iáº¿t
ĠP Ã¡c
Ġmá» £
Ġlo áº¹t
art e
ĠSo ul
ĠTR ANG
ĠMon ster
ĠPlat ini
ĠWend y
ĠDiCap rio
Ġr Ãºc
Ġ19 12
ĠBr is
Ãį CH
ĠFin al
ĠFerr er
ĠSub aru
Ġdoll ar
ĠNGHÄ¨ A
ĠL I
ĠK sor
ĠR iá»ģng
ĠTy phoon
ĠMont ana
Ġmagi Ãª
s á»ĳt
ã Ģ
Ġd á»Ńng
ĠG á»ĵm
ĠNam e
ĠGi áº£n
ĠCA SA
78 91
ĠCo ffee
ĠVer izon
ĠRac ing
Lu áºŃt
ĠShimb un
m or
Ġs ee
Ġn áº±ng
ĠC J
ĠV ey
ch ange
ĠA UD
Ġchu m
ĠLu han
19 50
ĠRhod es
> >
Ġtr áº¯m
ĠT CP
19 47
ĠVer ma
ĠSev er
ĠAlexand re
c Æ°á»Ľp
Ġd ont
ĠC Ãły
ch Ã¡u
ĠX an
ĠY el
Ġkáº¿ ch
ĠKH ÄĲT
Ġ55 5
ĠKar zai
6 20
Ġb ook
ĠA IM
ĠPh iÃªu
li k
li o
Ġ25 3
ĠZ oom
ull en
ĠFin ance
ĠNik ki
ĠCI TES
ĠAhmad inejad
ĠBrah Mos
ĠPuy ol
d ao
h ang
r eb
Ġg Ãłu
Ġph uy
ĠB LV
ch Ã¡y
er an
ĠF itch
le ep
19 69
ĠTT ATXH
ĠOn t
ĠKhai silk
ĠTy m
BH YT
Ġh im
ĠK á»ĭp
ĠR w
ĠF eng
os un
Ġngo áº±n
ass o
ĠBu Ã´ng
ĠSch midt
ĠPodol ski
; ...
U krai
d anh
ĠV á»¡
ĠM E
ĠM oney
ĠF ren
ĠW or
ĠDu áºŃt
ern er
ĠZen Fone
ĠNikol ai
t Æ°
Ġc lo
Ġg áº«u
ĠN er
ĠH á»§
ĠL anh
ĠL Æ°á»Ŀng
ĠS TA
ĠD iÃªu
or la
Ġ19 21
LÄĲ O
ĠTR á»°C
ĠEl vis
Ġcent imet
ĠMR CC
ĠRag nar
ĠTáºł O
ĠBolog na
Ġ á»Ľ
ĠT ÃĤM
ĠÄĲ Ãłng
19 80
Ġo unce
ick r
78 69
14 8
mins ter
m ing
ĠT áº»
ĠV á»±c
ĠTh áº³ng
ĠK ot
Ġ4 13
ĠZ ap
ĠHum an
Ġm áº«m
á»ĭ u
ĠM Ã¬
on ica
ar ro
ĠE t
ĠLan ce
ib al
ĠSam ba
Ġ00 1
ĠBil d
Ġhor mon
ĠSton es
h á»Ļi
v ing
nh áºŃn
ĠM G
en i
Ġto Ã¡c
ov ern
ĠBar nes
Ng oÃłi
eth e
c áº§n
p at
Ġch á»Ľi
Ġd Ã´
Ġx á»ĳt
Ġhá» ĥn
ĠB end
ĠPan etta
aux ite
c Ã¢u
j ima
® U
Ġs Ã¡c
Ġs ulf
Ġgi Ã£y
ĠG lad
th ep
ĠHá» ®U
ĠAc cord
ĠNap les
A B
P F
V S
l áº¡
ĠT ank
Ġtá» Ŀi
ĠP ui
00 2
ĠO SCE
19 30
Ġru á»ĵng
VC IS
e nh
ng á»ĵi
Ġt ie
ĠP ants
ĠMar athon
Ġo Äĥm
Ġi f
ĠCa fÃ©
ĠRang ers
Ġor gan
0 20
C am
Ġ Æ°Æ¡i
Ġ aud
Ġb áº«m
ĠÄĲ ÃĤY
ĠK atherine
th iáº¿t
ĠZ one
ĠVá»ĭ t
ĠVal er
C Ã¡ch
T a
c áº¯t
s ai
Ġr á»Ľm
ĠH Ãºc
ĠL Ãĥ
ĠS ix
ĠP Ã´
ĠU H
Ġsho pping
ĠViss ai
N Ã³i
p lus
Ġr Æ°Æ¡ng
ĠL INH
ĠY ulia
ah an
ĠSh akira
ri z
ĠCr Æ°m
ĠEd uc
Ġpast el
ĠPose idon
D i
p sey
qu Ã½
ĠB oo
ĠL L
ĠF ive
Äĳ á»ķ
ĠGr en
ĠOr ion
Ġbe at
ĠCle ar
Ġcot ton
K ahn
Ġr ai
ĠTheo dore
ĠCon st
ĠAS US
ĠPH áº¢N
for man
Giá» Ŀ
ĠIndustr ies
ĠHamp shire
ĠGiuse ppe
S u
Ġv áº¡y
Ġn eu
Ġg ran
ĠN om
Ġr Ãºm
ĠB TNMT
ĠD ÃŃnh
19 76
Ġâ ĸ
ĠBe ngh
ĠMer lo
ĠMel issa
ĠMag azine
chu áº©n
Ġ................. ........
Euro zone
ĠCald eron
ĠTot al
B Ã¡c
B ÃŃ
S á»ĳng
Ġb ass
Ġd eb
ĠH BO
ĠB Ã¹ng
ĠB á»ĨNH
ĠD áº¡ng
ĠF iat
Ġáº ¾
ĠMan n
ĠMU A
NE WS
ĠRost ov
ĠHumm els
Ã Ĳ
Ġt Äĥn
ph Ã¡
ua ge
ard s
ĠÆ¯ U
dor ia
ĠDoc tor
ĠEug ene
ĠEag le
k im
Ġth ink
ĠT au
ĠN Æł
ch áº·t
ĠL á»«
ĠP eg
ĠX iá»ĥn
av id
Ġ................................. ................................
ĠVietsov petro
Ġh ist
Ġr á»į
am eyang
ĠK áº¹o
ĠX Ã¢m
Äĳ áº¹p
ĠRe ese
ĠmÅ© m
ĠCr is
ĠPol it
las ma
9 20
M a
Ġs w
ĠH áºł
Ġ19 11
ot en
ĠLy bia
arao h
Ġcomp osite
ĠCaz orla
ĠHokkai do
ĠCasp ian
m Ãłu
m all
Ġn á»ı
Ġg á»Ł
Ġqu áº¯t
ĠB áº§y
ĠV W
ĠM BS
ĠNh Ã©
ac ter
ut oday
Ġf estival
á»¦ y
ĠND VN
dis play
â Ģ
Ġng á»¥p
ĠT áº¥u
ĠKh ao
ĠW ant
ex im
ĠFernand ez
Ġkh Ãª
ong a
ĠL ONG
ĠA eon
Ġ6 25
ĠHam id
ĠLoren zo
ĠHimal aya
ĠClas ico
F ast
n á»Ļi
t á»Ń
Ġl iá»ĩm
ĠB á»ķng
ĠTh r
ĠA ero
Ġ5 25
ĠTH áº¾
ĠAr ist
land er
ĠMau rice
ign o
ĠBá»ķ n
ĠCong luan
ĠPart ners
B aghd
b il
Ġl Ã¹
Ġd iá»ħm
ang o
ĠP PC
ĠA AG
Ġ30 3
ap o
ash vili
oli u
ĠMetro pol
ĠPHáºł T
g d
p y
Ġqu áº©y
ĠLu zon
ĠDo k
Ġ25 9
ĠEx xon
PC W
ĠGl enn
ĠBuff alo
s Äĥn
ĠC ode
ĠTr ain
ĠD re
ĠKh Æ¡
ĠKh ark
ĠGi s
ĠJ ens
ĠÄĳá»§ i
ĠcÅ© i
ĠBe ir
ĠPark son
EL TS
ĠGran ada
Ġ oliu
Ġkh eo
Ġg ood
ĠM ab
Ġ4 01
hi c
hi to
tr ao
11 2
ĠBer dy
ĠTI áº¾N
ĠNGH á»Ģ
ĠFred erick
ĠCoun try
ĠAub ameyang
eop atra
C á»ĳ
m ec
Ġm asc
Ġs Ã¬nh
Ġs it
ch es
ĠM ame
ĠS Y
ĠNg á»¡
ĠG rai
ĠF is
ol ia
ĠSam ar
Ġ33 1
ĠChrist ie
ĠEdin burgh
v á»ĭ
ĠÄĳ Ã´m
Ġv áº¥y
qu el
Ġr ec
ĠP ast
ind h
88 8
ĠSC R
Ġhá»§ i
Ġnit Æ¡
ÄĲV O
T iáº¿ng
Ġn Æ°á»Ľu
ĠB áº¥m
ĠL aser
ĠK B
Ġ3 99
ĠQu Ã¡t
ian s
kel ey
ĠDem psey
Ġrup ee
ĠBengh azi
c Ã©
s how
Ġs andal
ĠN áº·ng
Ġthá» Ľ
ĠHP V
ĠRu th
G iáº¿t
e em
ĠM AI
ĠK Ã¨
ĠGi Ãłn
ist ic
ĠMal acca
eg en
ĠKH OA
ĠHA I
ĠKent ucky
Ġfir st
ĠChry sler
ĠTHá» ľI
ĠBened ict
ĠGand hi
ĠThier ry
ĠK ung
le ar
ĠÃĲ Ã³
ĠCo co
ĠMay er
ĠGior gio
ĠVey ron
M o
b Ã¡nh
Ġm á»įn
Ġn in
ĠT á»¥c
Ġph á»Ľi
ĠN I
Ġ4 25
Ġlo Ã¡t
Ġin d
ĠPar aly
ĠNat ure
Ġbo ots
ĠSz cz
ĠCharter ed
ĠBrist ol
ĠB áº¿t
36 5
ĠOne Plus
ĠKe ane
ĠGreen land
ĠVik ing
J u
Ġh ere
Ġd on
Ġcho Ã¡n
ĠM SC
ĠR ing
á»Ŀ ng
ĠNgh iá»ĩm
EN CO
Ġ ë
Ġch á»ģ
Ġ4 35
ed ette
10 8
Äĳ á»ĵ
ff rey
ĠChá»£ t
Ġvir ut
display style
H LV
X K
b ow
Ġs ize
ĠY eo
ĠDo yle
Ġgh Ã©m
av al
23 3
ĠCH UNG
ĠÄĳu á»£c
ĠRw anda
L ai
Ġm ad
Ġm Ã³t
ch uyáº¿n
ĠL este
ĠS ut
ĠR Ã¢u
ĠY aris
Tr Ãł
ĠTu c
ĠMat h
ĠHe idi
ĠVic em
Ġ273 226
ĠHous ing
ĠLyn ch
ĠCarr oll
ĠH NG
ĠH VN
ĠL Ã´ng
ĠD iane
ic er
th uá»ĳc
23 5
ĠBr ighton
40 4
ĠFPT S
ĠHolly hock
S inh
y d
ĠN ed
ĠK iá»ĥn
ĠW TA
ĠÃĲ áº£ng
ĠCl aude
78 85
bi ent
ĠCyp rus
P U
k az
Ġs Å©ng
ĠM ist
ĠL á»°C
ĠD áºŃy
ĠG im
en ue
ĠZ oe
Viet in
do ck
ĠNick y
ĠSav age
ĠLight ning
c á»¥
k áº¿
Ġv áº¡i
Ġb áº¥n
ĠM M
ĠS ide
ĠA A
ĠPh Ã¨o
ĠR AT
Ġ28 3
ĠDar ren
ĠVAM A
ĠNag asaki
mand u
ĠSew ol
5 40
Ġl ife
ĠN ott
ĠL Ã¡ch
th áº£
ĠGD ÄĲH
ĠPl ace
NE T
ĠVol t
ĠAmb ros
ĠMira ge
ĠAnat oly
ĠToul ouse
K áº»
Ġch á»Ļt
Ġn Ãºng
Ġng á»ķ
ĠQ i
ĠI E
ĠÃģ P
11 4
ĠlÅ© i
ĠKH HGÄĲ
ĠCarl ton
ĠGIA NG
ithi um
Baghd adi
Ġv áº¡ng
Ġb et
ĠK wang
ÄĲ TTP
ĠF SA
ĠY en
ot ion
ĠSh ort
ĠJe ong
Ġchip set
Ġev ent
Ġge isha
) ".
H Ãłng
L E
d een
ĠG AP
Ġlo ok
ĠCl eopatra
ĠTHI áº¾T
Ġsil ic
nh an
ĠNg Ã³n
ĠQ T
Ġ7 10
ĠO xy
le v
ĠBab ylon
ĠCá»« u
erm ain
6 70
D u
b ala
g Ã¡i
Ġ9 20
ĠSp encer
aw an
ĠGP U
ĠPor ter
ĠRu á»Ļng
ĠAR M
ĠReyn olds
m iá»ģn
Ġd ÃŃu
ĠN ile
ĠH á»ĳi
ĠX Ã¬
Ġ30 6
Ġ30 9
Ġ27 8
BC A
ĠMidd leton
r and
x ia
y ev
Ġth em
ĠP X
ĠP ax
Ġkho m
ĠU áº©n
ĠR X
ur ri
th Ã¡nh
10 9
ĠCon tainer
ĠTT G
Ġ+ /-
ĠCel ine
ĠSoc iety
ĠLag arde
ĠFried rich
G ermain
h or
i eld
Ġk ey
ĠPh Ãł
ĠI ELTS
Ġ6 75
ĠY PG
ail ly
ĠGu ter
ĠBur ke
ĠFA O
ĠLand mark
ĠWol ver
ĠVIE TT
ĠNishi k
0 90
B áº¡c
f ire
j un
Ġt áº¹o
Ġb áº¥u
ĠS ed
ĠP ublic
ic y
Ġtá»Ń u
Ġcá»¡ i
pir in
8 60
I ran
Ġg á»«
Ġg all
ĠB au
ĠY us
Ġca p
th ÃŃch
Ġ35 6
ĠMon de
8 40
C ry
Ġng Äĥm
ĠN au
ĠCh á»Ł
ĠI ly
ĠTá»ķ n
ĠAr row
ĠTHU áº¬T
ĠIv y
ĠDevelop ment
F P
b á»ĳc
t iáº¿n
w o
Ð º
Ġc ur
Ġth áº©n
ĠT ac
Ġ7 60
ĠNor f
ĠFar m
ĠRas mus
Thu áºŃn
Is lam
ĠBris bane
D O
i ens
ĠT ut
ĠP ag
Ġthá»§ a
as ia
ek a
UB TVQH
ĠVn Media
Bao dautu
K áº¿t
n Æ¡
r t
Ġng an
ĠT orn
ĠC e
ĠV D
ch Ãº
ĠM áºłI
ĠK Ã¬nh
ĠW hen
ĠO w
ĠEm il
Äĳ á»ģ
Äĳ á»ĳt
Ġdá»¥ i
eg u
ĠWan bi
fish co
ĠSiem ens
P lay
Q uyáº¿t
Ġc áº¡ch
Ġph ang
ĠN ever
ĠCh eon
is tr
ly wood
ĠMan e
ry n
ĠBerdy ch
d ers
t Ã¡i
Ġh Ãªn
Ġm Ã²i
Ġph Ã²
Ġr Æ°Æ¡i
ĠE ye
ĠF V
ĠDo b
ev e
ĠRos a
c or
m ith
Ġnh Äĥm
ĠV era
ĠCh au
ĠD et
ĠG row
at ic
hi ro
ank e
Ġe ng
ĠPat o
Ġ273 243
ĠKl aus
UN CLOS
ĠWes ley
ĠLah m
Ġt er
ĠH áº¥p
ĠL Ã¹i
ĠK LS
al is
Ġp eso
ĠPV T
ĠCar a
ĠSuper man
ĠDem b
ĠGib son
Ġed ge
ĠVIETT EL
T áº¿t
ĠT Ã¡nh
Ġx áº¹p
ĠH ui
ĠB ody
ĠP ush
ĠPh Ãłn
Ġ- .
al on
ĠI gn
os lav
ĠDu al
ĠBu á»ĵm
ĠSe ABank
29 7
ĠKal ibr
ĠSub eo
ĠDra ke
ated o
ĠPav el
Ġ(! ).
ĠVers ace
ĠZam bia
s á»ķ
ĠHo od
Ġ19 15
ĠO M
ib ar
co ck
ĠAd ebay
ĠBen igno
AP EC
ĠKen neth
A nd
nh anh
Ġr iá»ģng
ĠÄĲ ÃģNH
ĠS ob
ul o
ĠAlex ei
ĠGuter res
8 80
: "
d s
k á»¹
v ers
ĠKh ay
ĠHo g
ĠLu ther
VN PT
ĠAl ain
Ġ28 8
Ġpl ut
ĠServ ices
H oÃłi
g it
h á»Ĺ
Ġv áº¡m
Ġv Ã¨
ĠÄĲ áº¥ng
ĠV ung
ap olis
Ġ28 1
ĠCal eb
ĠChr om
ja j
D G
L K
ĠS TE
ĠS ÆłN
ĠD E
Ġlo i
ĠSh en
k ina
Ġ es
Ġkh áº£i
Ġkh Ã¨
ĠT ass
ĠN FC
am y
ĠK ara
Ġcon s
ic us
li u
Äĳ Ãª
Ġ28 2
ĠSp e
Ġu áº©n
ĠIt ar
ĠMau rit
ĠMob i
ĠCy ber
ĠRub in
ĠSamp doria
U V
Ġv edette
Ġqu áº¹o
em ont
ĠLu á»ĵng
ap er
com e
ĠPort land
ĠBas il
ĠÄĲO áºłN
ĠRhy me
ĠAleksand r
ĠHul k
g ow
Ġth ey
Ġk en
Ġb auxite
Ġn áº¡ng
ĠPh el
Ġ7 70
apos m
ĠRick y
ĠIL O
ĠJ ing
giá» ĳng
Ġser ver
ĠÄĲS VN
ĠIndoch ina
0 70
m Ãª
Ī NH
Ġk iáº¿ng
ĠT Ã¡t
ĠP ath
Ġváº» n
Ġo C
ĠZ a
ĠÃł h
man i
ĠHold ing
ĠSag na
ĠKras n
ĠSau l
Äĳ Ã³
Tr uyá»ģn
ĠHon or
ĠBer keley
ĠWal mart
ĠAR V
ĠNorf olk
G R
p ro
Ġch Æ¡
ĠT iáº¿u
ĠÄĲ uÃ´i
ĠS ue
ĠP ont
ĠCh ul
in ter
in fo
ad ium
Ġo x
ĠSh ark
ĠMil k
ĠBer m
ĠAc cess
ĠDar m
ĠDA TC
ĠJuli o
quy á»ģn
ĠWAG s
K ong
x Ã³m
Ä ģ
qu ir
Ġx Ãµa
ĠCh erry
ĠK M
ĠK od
au st
Ġkhu a
ĠY uki
10 3
TT DL
ĠAl ps
ĠCam b
ĠAndre y
ĠPants ir
7 70
C Æ°á»Ŀi
Ġt áº¡nh
Ġk á»ĭt
Ġr ÃŃu
ĠH us
Ġsá»± c
ĠJ ew
ĠThu á»Ł
ĠCS ÄĲTTP
Ch a
ĠEdward s
ĠVinac a
Ser ies
ĠBeir ut
Ġmasc ara
h áºŃu
Ġth áº£ng
Ġn áº©y
ĠT á»¥
ĠB etty
Ġ3 11
ĠQu ick
ol ini
ĠO TT
ie f
Ġi ii
II B
c Ãº
f ect
l á»Ŀi
y stem
ĠC ly
Ġr iÃªu
ĠH ep
ĠD á»¤C
ĠKh iÃªu
ĠR ush
uk o
ĠSe ong
uz aj
mo us
ĠSol o
ĠHH VN
ĠMoz art
ĠWarri ors
ĠMame ha
ĠAdebay or
K inh
Ġch á»ı
ĠT ik
am er
Ġ19 05
ĠPar ma
CN T
ĠEn t
ĠBern ie
ĠLeon ard
ĠKath mandu
qui ao
4 70
f ur
Ġtr á»įi
Ġr Ã©o
ĠH was
ĠM BC
ĠTr end
ĠA us
Ġ6 90
ĠE ise
ĠF ont
ĠDo uma
ist s
ĠSh am
ĠSh are
ĠBank s
ĠYell en
ĠMust ang
ĠWoznia cki
8 30
M ax
b ah
ĠH iá»ĥm
ch eng
ĠO g
ĠRe ading
ep ard
ĠEx cel
Gi Ã¡o
ngh á»ĩ
ĠÄĲÃĢ O
f acebook
r ong
ĠB áº£
au se
ĠD ew
Ġ8 70
ĠW ifi
th ua
ub er
ĠAs lan
78 55
17 1
ĠRoll ing
ĠMans our
hel m
Ġl ithium
Ġnh á»ĳn
ĠH ash
ĠV ovinam
Ġ3 21
ĠR á»©a
tr á»±c
Ġ40 5
ĠAd olf
ĠHO Ãģ
AF I
ĠDen ver
ĠÃī n
ĠBook s
vid eo
ĠMind anao
e co
w all
Ġd iá»ĩp
ĠC Ãģ
ĠK á»ĩ
ĠQ SDÄĲ
ĠAP I
ĠAf rica
Ġtal uy
ĠHTM L
C Ã¢u
b Äĥng
g Ã³i
s á»©c
Ġqu Ã¡nh
ĠTh ailand
ĠL ite
ĠCh áº·n
Ġcháº¿ ch
Ġdi ez
ĠEm my
te en
Ġfor mat
ĠBM I
enz i
ĠTRá» ĮNG
ĠLog o
ĠNest lÃ©
ĠKalin ingrad
ĠSilv io
ĠOnt ario
ĠC DC
ĠM Ã¹ng
im art
ĠJ F
at ure
ĠMar g
ĠHá» ĸ
ĠSu thep
ĠBai ley
f ast
ĠQ NK
ĠD utch
ĠPh am
it as
ĠBar c
ĠPC TP
gh áº¿
C áº£m
L iv
V EC
X e
Ġs ne
Ġlá» ı
ĠQ Q
ĠLu b
ĠZ ach
ĠPH á»¤
ĠBL ÄĲTBXH
ĠDong A
olog ies
ĠÃ¨ o
' t
O PEC
b áº§u
n u
Ġl Ã©t
ĠN iet
ĠK GB
ĠA ND
Ġtu Ã½t
Ġ5 75
ĠX iÃªng
is ol
ah ara
Ġu á»Ļt
oun t
ĠPac quiao
ĠGor bach
ĠRum ani
ĠAssoc iation
ĠPatric ia
P CCC
Ġ4 75
ad in
un ya
Ġgh Ã¬
ran t
gi Ãª
ĠMerc ury
ĠWall ace
ĠTO P
! ).
V KS
l á»£i
t own
Ġh Ã¹a
ĠF ey
at hi
ĠY az
ĠLe ip
Ġnhi ÃªÃ¹
ĠMor eno
Ġká»ĩ ch
zuk ic
F actor
ĠL ÃĤM
ĠGi d
ut en
19 64
Ġ28 6
ĠHe ung
ĠMont gom
ĠSher man
ĠDeb bie
ĠLuck y
5 30
S e
c ab
Ġv Ã³n
Ġm ao
ĠS áº¡t
Ġ4 15
Ġkhu Ã¢y
Ġ19 08
Ġ30 7
Ġtho Äĥn
Ġo xi
ĠÃĲ áº¿n
ĠHy uk
ĠBet is
Ġgar age
4 10
Q ue
T K
ĠÄĳ áºµng
Ġph Ãºng
ĠC á»Łi
ĠPh á»ıng
es ny
Äĳ á»£t
ou cher
Ġ28 9
ĠBer ry
ĠSal omon
sh ev
ĠUr ban
iF i
ĠFre edom
ĠFuk uoka
ĠTG PL
K hoa
L R
p x
Ġb á»¥
Ġm Ã¹n
ĠT Ã¡ch
Ġthá»§ i
Ġa b
ĠSt ade
ĠBr other
ĠCo x
ĠFranc es
ĠGot ham
ĠSoc ial
ĠTU áº¤N
phet amine
ĠDemb ele
ĠHwas ong
C TC
G H
c ade
Ġc á»Ł
Ġv áº¡c
Ġth ere
Ġh as
ĠÄĲ áº¢M
ĠV Ã¡n
ch ol
ĠCh ester
Ġta ekwondo
Ġ4 11
ĠHo on
19 84
Ġal umin
Iá»Ĩ T
ĠCro uch
ĠJan uzaj
ĠAst ana
ĠWW F
Ukrai ne
T iáº¿p
b Ã³
t am
x ay
ĠT ap
ĠB D
ĠM ou
ĠCh op
ĠQu ad
Ġ35 5
ĠSal ly
ĠGer main
ãĥ ¼
ĠSB J
ĠRup ert
antan amo
ĠMontgom ery
Q ua
j k
Ġ av
Ġl Ãªu
ĠC áº¦U
ĠTh á»Ł
ĠCar bon
ĠDub lin
ĠDay s
ÄĲB QH
Ġur Ãª
ĠMand zukic
ĠHag rid
ĠÄĳÃ¢ Ã¹
V á»£
c n
Ġb á»įng
ĠF SB
ĠMar ri
ĠBen nett
ĠFi ji
ĠChap man
l Ã¡
v ey
ĠG Ãµ
Ã© r
re gor
ain s
han e
ĠDe ng
Ġpoly mer
ĠRamir es
0 40
D avid
c áº§m
ª NG
nh áºŃp
ĠB TM
ch iÃªu
ay ev
ne ft
ĠCho ice
ĠCH Ãį
ĠCol lec
Ġ38 5
ĠMo unt
ĠMB A
ĠFri es
ĠTHá»¦ Y
ĠDipl omat
Ġvac xin
ĠVerma elen
ĠFren ch
ĠEduc ation
ĠN oda
ĠÄĲ eo
ĠV ern
ĠTh ree
ĠL er
ĠL ic
Ġ9 01
10 4
ie ve
Ġ26 3
eg ui
Ġ32 7
ĠMeg astar
ĠSel ec
A TTP
s te
s worth
Ġl á»©t
Ġm usic
Ġx á»ĩch
Ġ4 99
Ġ900 1
ĠFab ian
Ġcr Ã´m
R ob
c li
el ka
tr iá»ĩu
ĠChi ellini
Ġchá»Ł m
ĠIS IS
ĠGIA I
ĠKum ar
m Ã¡t
n á»ķ
Ġt ong
ĠT á»±a
Ġph uá»Ļc
ĠM ecca
ĠthÃŃ m
ĠBa ham
24 9
ĠDav ies
AS T
ust ic
yn os
ĠRand y
ĠMorris on
ĠKus hner
but amol
l it
Ġqu Ã¡ch
ĠTh Ãª
ay e
em ia
al ly
ĠPer cy
PC O
ĠLÃªn in
ĠLil ama
ĠNishik ori
M as
s ar
± t
nh ower
ĠM IN
am ura
ĠP izza
tr áº»
ĠBr enn
all ah
CP MC
ĠVKSND TC
ĠSol ar
ĠMcC art
aren ka
n Ãłng
Ġb Ã¢ng
Ġb est
ac er
Ġ27 6
Ġw ork
ĠAd ler
ĠKon ash
Ġpr ot
ĠBh um
ĠCur tis
ĠPra gue
ĠTá» ĪNH
áº¶ T
Bu Ã´n
Ø §
Ġc os
Ġh iá»ģm
Ġr et
Ġr eg
ĠB Ã¬a
ĠK C
ĠI ber
Ġ29 2
ĠCor aline
ĠWest minster
dy s
ĠFi esta
ĠAdri ano
ĠZakhar ova
P VC
t ions
w oo
Ġl Ã¡y
Ġl ed
Ġr Ã¡m
ĠX s
Ġ31 7
ĠCar men
ĠFacebook er
Ġ33 6
ĠPer eg
ĠMah rez
ĠWood ward
ĠCommun ic
ĠKep ler
v áºŃt
Ġc Ã²m
Ġl Ã¬m
Ġb á»Ľ
ĠT ito
ĠC i
ĠS J
ĠP oster
áºµ m
Ġ50 5
ri y
Ġenzy m
ĠSzcz esny
6 90
m ons
ĠT á»Ĳ
Ġph á»īnh
ĠM áº¥u
ĠTr Äĥn
ĠG ong
ĠX abi
ĠAn astas
Ġw ho
ĠÃĲ Ã¢y
ĠGu antanamo
Ngh Ä©a
ĠLeip zig
W C
Ġn ight
Ġqu Æ¡
ĠM X
ĠNh áº¯m
Ġlu á»¹
ĠJ ov
at su
ĠW hy
tr áº¯ng
Ġ26 6
ĠTT K
Ġ32 8
Nh Ã¬n
ĠHD R
ĠBel bo
we ek
ĠMr s
ĠPort s
8 90
s el
Ī Ĵ
áº ´
Ġch ong
Ġnh Ãłnh
ĠC rown
ĠTr ev
ĠCh á»Ń
ĠCh osun
ĠK ut
ĠA Q
Ġ27 1
ĠAs ahi
ĠSo cc
ĠShi eld
ĠMidd les
ĠGiov anni
c áº¥m
h ong
h áº¿t
á»§ n
ĠN ipp
an th
ĠH ut
ĠD Å¨NG
19 70
ĠAr iana
Ġ26 1
IA EA
ĠJun e
ĠCre ek
b ine
Ġ amp
Ġx iá»ģng
ĠW iFi
Äĳ á»ķi
ĠMar ion
Ġp re
ĠCle ver
ĠKore an
cH FF
Ġcarbohy drate
ĠRasmus sen
r Ãª
v ir
Ġt Ã¡nh
ĠN ong
ĠH ats
Ã© on
ĠU C
han ouk
ĠGen esis
ĠWin ner
ĠJohan sson
ĠDun can
Do anh
ĠJacqu eline
ĠIN F
V Ãło
p es
u h
ĠÄĳ Ã²ng
ĠN áº·m
ĠH ew
ĠEm ery
Äĳ an
ab aby
ĠAr d
Ġ43 2
IS T
Ġhom estay
ĠInstit ute
P N
Ġt el
Ġl eg
Ġl Ã©c
ĠT Ãłn
ĠTh orn
ĠM L
ĠQu eb
ĠX á»©ng
II I
ĠDav os
Ġ^ .
ĠGil bert
b iáº¿t
c á»±c
ĠTr uman
oo c
19 74
19 61
Ġcu á»Ĺm
ĠAf ter
ĠHigh light
ĠTym oshenko
C ard
Ġtr á»ĳi
ĠT ou
ĠT á»ıa
ĠC áº¯n
ĠTh iá»ĥm
ĠP ear
or os
as ta
TT CP
12 6
ul y
Ġngo Ã¡y
ĠPr ed
ĠIr ene
ĠJi ang
ĠAnn an
bl ur
ĠTechn ologies
N ASA
d it
f ess
j al
Ġph Æ¡
ĠM RI
ĠG áº¥m
Ã© ng
ĠI CO
eb u
Th Ã¡ng
ĠAir b
ĠCo in
Ġ58 4
ĠCas ino
ĠBaham as
7 30
b Ãª
ĠH SC
ĠA u
17 5
ĠFl oyd
ĠChinh phu
ĠAz arenka
ĠSM E
ĠFood s
N XB
Ġ Ã©m
ĠN un
ĠM ona
im oto
ĠEx ynos
ĠGl en
ĠGh en
ĠPitt s
forman ce
P B
Ġph one
Ġ3 23
Äĳ áº¥u
Th Æ°á»£ng
Ch iáº¿c
ĠCar la
ĠEl sa
ĠBer tr
ĠAN TV
ĠKhal ifa
4327 901
ĠEise nhower
0 60
S ai
Ġv Ãª
Ġl á»¥p
et ch
Ġto Ã©t
ĠZ ac
Ph un
ĠMal ik
Ġ38 4
ani um
ĠNav y
ĠKir by
ĠBrook s
To Ã¡n
ĠChern ob
ĠVSI P
ĠH ao
ĠTh iÃªu
ch ev
ĠK FC
ĠNh Æ°á»Ŀng
ĠD us
ĠE ther
ĠMon ter
ĠShi b
ĠAnton ov
ĠAI G
ĠPot ro
Ġlip id
ĠGorbach ev
f ore
Ġ ol
ĠÄĳ iáº¿ng
Ġph áº¯t
Ġqu á»Ł
Ġqu áº»
ĠL if
ĠCh Ã©n
on avirus
ĠQ CG
ĠG und
ĠG ate
ĠR ace
Ġ7 000
ĠW att
se e
ĠBr ight
ĠRa ph
Ġ48 8
ĠAngel ababy
ĠBon nie
ĠRM IT
B ike
T axi
b áºŃt
ĠB Ã¢n
ch áº³ng
ĠGi br
ĠE OS
ĠAn iston
Ġbu ff
id ay
ev ic
st en
Ġ+ .
BC ÄĲ
ans a
Ġhu h
andal f
Ġsh ot
ĠRichard son
ĠAnaly t
ĠCá»¨ U
D H
f ell
w yn
Ġ ç
ĠK au
ĠhÃ£ o
rai l
ĠPar a
ĠPer th
ĠOp rah
...... ...
ĠDá»ĭ u
ĠPray uth
ĠGle i
b Ã´ng
y pe
Ġtr á»Ľn
Ġkh á»©a
ĠSecur ities
chet tino
ĠKonash enkov
3 19
D iá»ħn
Ġx imÄĥng
ĠTr is
ĠD U
ĠF ury
ĠW ald
ĠChá»§ ng
Ġ26 9
og as
ĠÄĲT ÄĲ
uk u
ĠGal il
ĠSe as
N m
V A
h Ã²a
ĠB Iá»ĤU
ar azzi
at an
ib ol
ĠZen it
ĠGCN QSDÄĲ
ĠGlor ia
T á»±
ĠTr áº¯c
er ati
Viet combank
ann ing
enc ent
ĠVina chem
Ġcar ton
ĠPo chettino
Ġgiá»¥ a
ult ure
fer ence
ĠDest in
V ideo
g un
s á»Ń
y i
ĠN U
Ġr im
an te
ĠH ÃŃt
ĠV oy
ĠK ant
Ġgiá» ±t
Ġtu abin
ad ar
Ġ37 1
ĠCHUY ÃĬN
Ġc ut
ang el
00 5
ĠG andalf
Ġban bient
ĠMai ne
15 5
ĠPH ONG
ĠDis tr
ĠSpr ings
Ġbanbient ap
ĠT CH
ĠH á»±u
ĠTr Ãłn
ĠD w
us ha
and o
11 6
Th á»§y
ĠCo ul
Viet tel
ĠVnE conomy
alt ar
k on
m Ã³n
s ing
ĠL aptop
al am
it age
est an
Ġ09 149
ĠSi hanouk
ĠSpace X
ĠMcCart ney
D Æ°Æ¡ng
ĠT Æ¯á»ļNG
ĠB áº°NG
ĠS BT
ĠI CD
lad bach
ĠWal k
ĠAndr ews
ĠSAR S
ĠPorts mouth
Ġm atch
20 22
26 900
ĠRom elu
ĠOr c
ĠMiss ion
ĠMur doch
ĠFul bright
ĠCons umer
Ġl b
Ġhá» ·
ĠV iagra
ĠP ub
as co
tr á»įng
lin k
ĠRos en
ari us
ĠBur ton
ĠTab let
ĠBeyon cÃ©
ĠChernob yl
Ġ09149 26900
b Ã¡c
d iá»ĩn
g ing
z Äĥng
Ġn iÃªu
ĠCh Ãºt
ÄĲ an
Ġ6 15
ĠE aster
ot ic
ĠTH E
VN N
19 60
ĠCho e
ĠGu zman
uz u
ĠBT R
ĠAgu il
ĠRet ina
SH B
V ina
b is
l is
ĠH ÃĴA
ĠB old
ĠA IA
ĠO dys
ro bi
est one
iz er
ĠSing le
ĠDon na
ĠTB T
ĠNormand y
c áº£nh
v áº«n
v ar
Ġh Ãºp
ĠL ara
Ġ5 33
ĠGi Æ¡
19 83
ĠPV EP
ĠDy bala
ĠEsc obar
Que en
S K
h áº¡t
s il
t imes
Ġc all
ĠT encent
ĠP t
ĠG O
ĠZ or
Ġ35 4
hn ikov
ĠMe ad
ĠSon ny
ĠZh ou
ĠMach ine
bro ugh
á»Ĵ N
ĠBorn eo
ĠKle in
Ġh el
ĠN akh
ĠS áº£ng
ĠA kh
Ġan ti
ĠO st
ĠMan ny
ĠPhot os
ĠCNH T
ĠMey er
ĠHorm uz
ĠParaly mpic
ĠCheon an
1 45
4 17
b ard
j en
Ġt oáº¡i
ĠN eman
Ġr áº¯p
Ġr á»ıi
ĠM XH
ev es
ĠAv enue
ĠYu an
ĠDomin ica
ĠVL XD
z el
an ova
ĠB row
ĠÄĲ á»±c
ĠÄĲ á»¥ng
ĠL á»ĳc
Ġ18 90
eb o
ĠZ hi
ĠLy dia
PA C
ĠJun cker
ric io
ĠOt ta
ĠJohannes burg
ĠQueb ec
ng Ã¢n
Ġc p
Ġh Ã¹n
Ġk iá»ģng
ĠÄĲ Ä©nh
ĠTh áº¥p
ĠK ill
ĠQ Na
ĠE F
Ġ31 8
ers in
ĠCol ogne
ĠWhats App
? '.
E I
j ay
Ġm al
Ãª á»¥
ĠC un
Ġx Ã©p
ĠB áºłN
ĠR Ã¡ng
Ġ19 13
Ġbu á»Ļt
pp a
ĠLe ng
se v
Ng hi
ĠRob inho
ĠtÃŃ p
xx x
1 78
a q
ĠL ost
ĠR ight
ĠNG U
ĠPrin cess
ĠRah man
ĠTorn ado
j ic
á» İ
Ġkh Ã¨n
Ġd á»ģ
Ġd id
ĠH Iá»ĨU
ĠÄĲ Ã£ng
ĠG ry
ĠR Ã¨n
Ġá» Ľi
Äĳ Ã¡ng
Ġ28 4
ĠAle j
TN AM
ĠRod ong
Ġ273 227
ĠIl bo
ĠWi i
B ang
H V
f ar
Ġb á»ĳng
ĠB á»ĳc
ch uk
ĠS uri
ĠNg Ã²i
ĠCh ua
ĠRo om
ann on
ĠTor ino
ĠSand ro
Ġsp ec
ĠSab ah
ĠArk wright
It alia
Ġfran c
+ +
B R
s om
ph Ã¢n
ĠH ÃĻNG
ĠL ester
ĠP CP
ĠU ran
ĠX áº¡
ha e
AT A
ĠNat alia
ĠShar if
ĠFant asy
ĠSpir it
m Ã´
t á»ĳt
ong da
ĠGi g
ĠTH áº®NG
ĠMartin o
ĠCen tre
ĠAst or
ĠGibr altar
Ġtr áº¡c
ĠV asil
ĠD rop
ĠÃ ĩ
áº¢ NG
ĠPer eira
ĠMax well
ĠJud y
ĠGlas gow
P op
b iá»ĥn
Ð »
Ġ Ã©n
Ġkh áº¡c
ph er
ĠV áº¯c
ĠQ K
Ġvi et
ĠDo g
ap a
ĠWil helm
ĠCas a
ĠPL O
Ġaud io
M i
c áº£m
Ġk y
Ġph ay
ĠB á»¥ng
ĠP Æ¡
ĠP iano
ĠD HA
ĠG Ã¡t
ĠU tt
os i
ĠJuli us
ĠColum bus
Bar celona
ĠMeth adone
. '.
P od
Ġng oi
ĠE pson
ol ph
ĠAr ts
art z
art ment
ĠCA D
ĠMil es
Ġby te
ĠLil ly
an na
ĠCh es
00 3
Ġ5 99
ie ng
ĠMer sey
ĠEx change
ĠVan ce
ĠCom mand
ĠStr eam
ĠDar cy
Ġcl ub
ĠVert u
ĠBhum ibol
ĠV BÄĲ
ĠM á»ĵ
ĠK á»²
ĠD ul
or ov
ĠLu ca
lor ua
yo ung
ĠMu ang
ĠAT R
ĠEV FTA
ĠCin ema
Ġhand made
Ġami Äĥng
ĠSocc er
M e
r ico
Ġp lasma
ĠSam ir
me ier
ĠFin als
ĠEar l
0 30
r em
Ġn á»ĭt
ĠN AFTA
ĠL áº·ng
ĠS Ã¡p
ĠK ei
Ġlo e
ot ene
Ġngo Ã¨o
Ġ35 2
eth oven
ĠGeor ges
ĠMas erati
ĠFernand inho
Ġrá»ĩ p
ĠOtta wa
E l
k al
l ar
r ar
t ÃŃn
Ġm Ã²ng
Ġng Ã¡ng
ĠT á»¬
Ġ19 07
ĠEm dep
ik en
Ġ33 4
ann er
ĠRam adan
ĠRaf ale
ĠZe us
ĠVietJet Air
ĠB Iá»ĤN
ĠK is
ac tic
Ġ16 00
12 1
ĠZ ay
Ġ36 7
77 7
Ġhe ad
KCN A
F M
f re
Ġc ity
ĠCh amb
ĠK and
ĠG ulf
ĠShow biz
ĠKal as
ĠBib ica
C áº£nh
y p
ĠT iá»ħn
ch im
ĠM á»¡
ĠS od
ĠLan n
Ġ29 3
ĠGr oss
ĠCom e
ĠMor i
Ġpr oton
ĠEv o
ĠNar nia
ĠMet al
ĠPA K
ĠAtt ap
ĠNeman ja
h ard
m á»ĳi
t áº§m
ng uy
Ġv áº³ng
ĠC áº¥t
ĠÄĲ uá»ķi
ĠS á»ıi
Ġ19 16
is ic
ian t
co unt
ĠRich ie
ĠErik sson
Ġcor onavirus
ĠPitts burgh
l eo
t á»«ng
t blur
ĠN ÃĶNG
ĠH ack
er man
12 4
Ġ33 8
rab ook
ĠGener ation
ĠAmb ra
B KH
i am
r iÃªng
z ag
Ġl Ã³i
ĠM eng
19 77
ist e
ĠMal lor
ĠCN RP
uck land
ĠSir te
ÄĲH QG
ĠGid eon
S á»©c
w ana
Ġh Ã¡c
Ġch á»¥m
ĠB ik
ĠB ub
ĠchÃº i
ez i
ĠTu á»³
ĠVietnam obile
Ġ= .
ĠCQ CA
ĠGib bs
ĠNipp on
U SA
d ÃŃnh
® A
ĠH á»Ľn
ĠB á»Ĳ
ĠÄĲ iáº¿m
ch un
ĠK ens
ĠW a
19 81
ini que
ĠĠ Ġ
ĠMac book
ĠPro p
áº¬ U
ĠSom ali
Ġsl ogan
ĠKD E
ĠConne ct
ĠCarne gie
f am
Ġm Ãº
ay an
ĠS ep
Ġan alog
ĠHu á»ķi
ĠCon rad
ĠCar ly
ĠPK K
ĠDX G
ĠMahat hir
Liv erpool
ĠPereg rine
B Ã¢y
k ir
ph Ã¹
ĠN ine
ĠM uss
Ġngh Ãłnh
ia d
ĠHo ts
om in
Ġw ushu
ĠCup id
CC o
ĠAbram s
ĠYell ow
ĠDoll ar
n áº¡n
Ġch á»ıng
ĠN áº´
ĠV á»īa
ch á»©ng
ĠK ishi
Ġ7 40
Ġ8 40
Ġ29 7
ĠGu ang
ĠSal e
ĠMoz illa
ĠStyl ist
ĠC Æ°u
Ġr á»īnh
ĠTh áº¥u
ĠM iz
ĠL DP
ĠS áº§u
ĠD ora
ic ot
ĠW ing
ĠO to
ĠLu z
ĠMar qu
ĠAl ph
ĠCo en
ĠAd vent
13 4
ĠComp uter
Ġnhá»ķ m
ĠSnap chat
ÄĲB SCL
Ġmag ie
ĠChild ren
ĠLuhan sk
ĠNáº´ NG
B XD
Ġ á»ĭ
ĠCh on
tr ai
Äĳ au
ou x
ĠRam on
ĠLau rel
ĠRichard s
ĠLuc ia
Ġcomp act
Ġag ain
9 60
p as
w h
ĠÄĳ ung
Ġg ov
ĠL Æ°á»¡ng
ang er
á»į e
ĠA uckland
ĠNat asha
ĠHann ibal
ĠGul en
Ġaf ter
ĠVBÄĲ Q
5 01
j ee
s Æ¡
x áº¿p
Ġs iáº¿c
ĠH á»«
ĠNg Æ°á»¡ng
es port
ĠHo REA
co in
CP C
ĠCol d
ĠOlympic s
ĠGom es
IL O
g ame
r ew
Ġph ablet
ĠB att
ĠM uk
ĠM iá»ħu
ĠG um
ia rd
Ġtáº¿ u
ĠAn ti
Äĳ Ã´i
ĠLe h
ore ign
ha fi
ant ra
burg er
ĠÃª kÃŃp
ĠBor ed
ĠHel ena
ĠAy un
ĠGua dal
ĠWhe el
j ab
Ġd áº·c
ĠC UNG
ĠÄĲ X
ĠTh áº¡o
ĠP oll
ĠCÄĲ VN
78 3
Ngh á»ĭ
ĠArk ansas
5 90
Ġng áº¥u
ĠS TT
Ġá» ¶
ĠThe a
CC N
ĠTu á»ĵng
ya f
po on
nd ai
ĠVá» Ĭ
ĠHO A
Ġsho ck
A ng
H ome
T ek
c ore
x tin
ĠcÃ³ t
ĠL oki
ĠS ens
ĠSau d
ĠAn elka
10 6
11 9
Ġ31 3
25 9
ros t
ĠOs set
Ġcom e
ĠAll ah
ĠAnton y
ĠGM D
ĠStrat eg
t ime
Ġb Æ°Æ¡u
ĠC Æ°á»Ľc
ch áº¿
ĠM ash
ĠTr ee
ĠK ra
áº» n
Ġso me
Ġp i
Ġ31 4
ĠAc tion
ĠTan aka
ĠZh ao
Ġdes ktop
ĠJust ice
ĠSulli van
ĠVCS C
ĠTuc son
8 20
L á»Ŀi
ĠM áº¶T
inh a
ĠS ess
ĠA um
ĠO ur
ad io
Äĳ o
ĠBe ar
Ġhot boy
DL L
CA F
Ġá»Ĳ i
ĠErn st
arth y
G AP
V Æ°Æ¡ng
n en
ĠV AR
ĠL Ã£n
ĠP ung
ĠE DM
ĠSu ga
ĠCol ette
ĠBe ethoven
gi áº¥y
ĠPark inson
PL A
29 5
ĠCatal unya
ĠEll is
ĠGaul le
ĠC á»Ķ
ĠB ri
ĠM ok
ĠL TT
ĠEd gar
ĠMil os
ĠLib i
ĠBos s
ĠBut ler
ĠCitiz ens
Ġbuff et
Ġnh iáº¿c
Ġr á»§ng
ĠB AS
ĠB ailly
ĠL Ã³ng
ĠD PR
TT r
ĠEm m
19 66
ĠAg ain
Ġrub ella
m obile
r Æ¡
w at
qu et
ĠB astian
ĠU sh
Ġmang an
ad os
ac io
ĠAr my
Ġ40 8
ill es
ĠMa e
ĠSe in
oll ow
ĠNov aland
ĠTs ip
PM U
ĠCur ie
val ho
ĠBian fishco
7 10
ĠV ul
ĠV DB
ĠK ag
ĠI k
ĠY os
as u
ĠNgh inh
19 63
Ch Ã¡u
ĠBH D
ek i
ĠSas ha
B Ãªn
I CBM
U I
j ung
z eg
ĠV Ã³c
ĠNg Ã¡t
ĠGi áºŃn
ĠE ff
ĠF ile
Ġ8 80
Ġai r
ĠMau ricio
Le e
IS S
ĠFin n
ĠWood y
ĠBy z
ĠBNN PTNT
Ġth Ã³
Ġb Ãµm
ĠM áºłNH
ĠP ich
ĠCh ilton
on es
ĠSo Ã¡i
ograph y
ĠTrium ph
ĠOsset ia
Ġn eed
ĠS v
ig i
ĠMar quez
ĠThe in
Ph á»¥
Ġweb cam
79 19
ĠSw eet
ES T
Is rael
T Ãªn
b ana
p us
ĠT ÃĮNH
ĠN ole
am ar
19 71
19 62
ĠIS IL
ĠSum mit
ĠKl ose
HÄĲ ND
QP PL
Ġvol ley
ĠKI áº¾N
s elf
u it
Ġl Ã¡u
Ġng á»įng
ĠC ell
ĠKh uya
Ġ6 24
ĠF aso
Ġ9 80
and in
Ġf ly
Ġo ang
Ġw ere
Ġcu á»Ļi
ĠAd mir
ĠLam bert
ĠTw in
4327 907
Phun utoday
B NV
P O
v iÃªn
ĠÄĳ áº«n
Ġd et
ĠV icky
ĠS ANA
ĠX áº¥u
Ġtá»¥ m
ĠE asy
as ley
ran s
ĠHuy ndai
LÄĲ TT
uk et
ĠAb out
ĠCas ey
out ube
ĠSP DR
ĠCru iser
ĠHV G
ĠKHO áº¢N
ĠIsab el
) ?
C Å©ng
H ar
ĠÄĳ Ãªn
Ã¢ Ã½
ĠC á»¬
ĠH wa
ĠV Ã²
ĠD ÄĲ
en ez
Ġ19 04
ĠW ai
ro ck
re ad
ĠCP P
ĠUn i
ngh Ä©a
Ġbá»£ m
ĠVIN AS
9 80
P ay
f ly
y er
Ġtr áº±n
ph Æ°Æ¡ng
ĠN Ã¡
ĠB IC
ĠTr á»¯
ĠS end
es acker
ÄĲ Æ¡n
ÄĲ á»Ŀi
et egui
Ġto Ã¡ng
ac ional
ak es
ov ina
Ġw o
ĠEd ison
ĠCai t
ti es
ĠKr ug
ĠMcC arthy
ĠRaph ael
ĠNGU á»ĴN
h ee
m im
Ġc ell
Ġv iá»ĥn
Ġg á»Ļt
ĠD á»©t
Ġ5 45
TT N
Ġ25 00
Ġp Æ¡
EA D
ĠSa ak
ĠnhÃŃ u
ĠZh u
red o
ĠNou vo
his ha
Ġrem ix
M usic
Ã ľ
Ġ ]
Ġb alo
ĠÄĲ Æ°á»Ľc
ai de
ĠNg áºŃp
ĠD ut
ĠF E
ĠY outh
oi r
Ġnháº¹ m
Ġlá»ģ nh
Ġsh are
ĠPo or
h Ã³a
Ġ os
Ġd á»Ļng
ĠB QT
ĠCha e
27 5
26 5
Ġnhá»Ł n
sh op
ĠEco Sport
ĠTsip ras
G u
R áº¥t
c oli
t ro
Ġch Ã©t
Ġkh áº£n
Ġqu áº¯p
ĠV Æ°á»Ľng
ĠTr á»«ng
Ġ27 7
ĠRob o
ĠBak r
ĠDol ce
ĠTru Ã´ng
ĠIsab ella
ĠEconom ist
ĠEurope an
Ġh áºŃm
Ġg roup
ĠÄĲ á»Ŀn
ĠK IM
ĠD ro
ĠX oa
as oan
Ġw ell
ĠTT F
Ch Æ°a
22 2
78 47
ĠChamp ion
giá» ¯
ĠNGO áºłI
ĠPhel ps
C ERT
n ight
s ha
ĠC ork
Ġr ou
ĠM Ã¼
ĠNg oáº¡n
ĠR ung
ĠR ut
ĠJ VC
Ġba king
20 5
ain es
ĠEl lie
ĠHam mond
ĠHer itage
ĠBur kina
ĠMiddles brough
ĠMersey side
A U
N M
g ard
x uá»ĳng
Ġc Ãłu
ĠL od
on ium
ĠK á»¸
ĠG MS
Ġ4 19
Ġ40 2
Ġbá»Ŀ m
az aki
ick i
uch in
ĠOb i
Ġ33 7
ĠSc ient
ace ae
ĠMH z
ĠMcC l
ĠHit achi
ĠKid man
ĠLop etegui
ĠBertr and
T iá»ĥu
d Ãłnh
Ġs hisha
ĠN B
ĠK ak
ĠK vit
um o
ind ow
ĠVin mec
Ġ34 3
13 1
ĠSai f
ĠBur g
ĠAz z
ĠCham berlain
ĠConf eder
ĠBald win
ĠStef ano
8 70
n el
Ġc y
Ġg Ã´
Ġph osph
ĠC Ãºt
ĠV CPMC
ĠQ BV
as una
th ouse
ag uchi
ĠZ el
ib u
AN K
ĠHa j
ĠGor illa
Ġev ery
7 40
r ill
Ġtr á»Ŀ
Ġm iá»ģu
Ġg onna
Ġd áº«y
ĠC áº¯m
ĠÄĲ ao
ĠV áº¥t
ĠTr á»įn
en ei
ĠR est
Ġban d
th áº¥t
ĠIs mail
ĠDA B
ĠNag oya
ĠPhot oshop
ĠMert esacker
ĠAdvan ced
z u
ĠÄĳ Ã¬u
Ġkh Äĥm
Ġvá» £i
ĠB j
Ġ4 17
ĠI FA
Ġvi rÃºt
ĠLe ah
Ġ29 6
21 7
SC IC
lin t
ĠSk in
ĠAut om
ĠGabri elle
ĠnhÅ© n
LI NES
Ġid ol
G ener
m Ã©t
t uyáº¿n
v ui
Ġt uá»ĳc
Ġc Æ°á»Ŀm
Ġnh á»ĳ
ĠC ÄĲT
ĠK ick
ĠR atch
ĠJ oko
Ġ8 35
om y
Ġw in
ĠÄĲT NÄĲ
Ġsu it
ĠPan ther
CO P
ĠAll ison
ĠNig el
ĠKham enei
á»² NH
ĠUtt ar
m iá»ħn
n est
Ġb een
Ġs áºŃy
ĠA e
ĠD á»±c
Ġ19 09
as ak
Äĳ Ãºng
ĠCar valho
ĠCl ap
Ġ32 6
áºł NG
ĠCB R
ĠSGD CK
ĠMathi eu
Ġt Ã¨o
Ġth Ã£i
ĠTr acy
ĠP IX
ĠPh apluat
ĠKh Æ¡i
ĠR ip
Ġan y
Ġ9 18
19 78
ab et
ĠBar n
ĠMa fia
ĠIntel lig
ĠBoy le
ĠJas mine
ĠLeop ard
evi ew
H e
h Ãºt
t ar
ĠB iá»ģn
ĠÄĲ áº¤U
ĠS ov
ĠS ard
ĠS ven
am ac
01 5
Ġ18 60
Ġco un
ĠMil ano
ĠBen net
GD PL
ĠSel f
Ġbá»ī u
ĠZh eng
4 35
V áºŃy
c ut
nh áº£y
Ġng Ã¡i
ĠC MT
Ġr áº¡o
Ġr ua
ĠTh áº£n
ch ui
Ġ8 60
ĠO F
ot to
VN A
ĠMH B
ĠNik on
ĠTs onga
Cl aude
ĠÄĥ m
form ers
ĠHur acan
Ġdanc esport
Ġsit com
M áº·t
d á»ħ
k ova
Ġm áº§n
Ġm áº¡p
Ġs uper
ĠT ÃĶ
ĠH áº£
ĠL á»ģu
ĠP iz
ĠNh á»¯
ĠPh uket
Ġ8 000
SD L
le igh
PC A
Ãĵ M
ĠVA Y
ĠZar if
ĠJal il
ĠSoy uz
ĠSTE M
g ins
Ġm Ã¡o
ĠT eo
ĠN Ã³c
ĠC G
ĠB am
ĠTh áº¥m
ĠM use
ĠS ent
ĠG ap
Ġto asoan
th eon
Ġkim ono
ĠHy ung
ĠBo om
26 8
ĠIr ma
Ġj ump
ĠKar achi
áº¦ M
ĠNick i
ĠSum it
opol is
ĠPent ax
C EO
k ut
ĠT TT
Ġr ing
ĠL Æ°á»£m
Ġtu áº¿
ĠSc ol
Ġsá»Ŀ n
AF P
ĠLab s
Ġnin ja
2 15
9 30
L Æ°u
ng Ã£
Ġb Ãºng
Ġm áº¥p
Ġs kin
ĠH á»§a
ĠS old
ĠP áº¯c
th Ã¢n
ĠMan u
ax o
ico id
ĠNai robi
ĠMil itary
ĠSU áº¤T
ĠJud o
ĠDin amo
Com ment
ĠKalas hnikov
ĠByz antine
T áº¥m
s op
ä º
Ġc á»Ļp
Ġb ig
an tino
ĠD ale
ĠR aw
ĠNgh Ã¨o
ĠSa ab
ĠOs asuna
L áº§n
P oint
n Ã©t
z ar
ĠB áº¡
ĠÄĲ áºł
ĠM other
Ġcon t
as an
ac et
ah o
ĠSam i
ĠAm elia
ĠCM CN
ĠHoff man
ĠNÆł XH
ĠSaak ashvili
' ',
G etty
c Äĥng
w al
ĠT ien
ĠT ÃįNH
ĠM assage
ĠL Ã¹
ĠL una
ĠCh art
ĠK ali
ĠKh Ã´
ÄĲ Ãºng
or gan
ĠÃĲ iá»ģu
ĠAb id
ĠVietG ap
ĠRet ail
ĠKHO ÃģN
A t
g Ã´
t á»Ļi
Ġv ani
Ġb iá»ģn
ĠC od
Ã½ ch
ĠW ak
á»ħ u
ĠRe ina
Ġo ur
Ġ! !!
ĠÄĲÃ´ la
yan ua
ĠUr al
ĠAz iz
k iá»ĥm
Ġch á»ħ
Ġd emo
ĠK Ä©
ĠA ber
Ġ40 4
Ġ32 9
ĠÄĲo a
TA ND
do or
á»ĺ NG
enz ie
ĠMoham ad
ĠMcG regor
Ġrub le
8 10
A v
K áº¿
Ġb áº±m
ĠNg áº£i
Ġ4 45
or ie
Ġvi Ãªc
ĠÄĲH SP
Ch Ãº
Ġkhá»© u
ĠSal t
ĠPro gram
ĠNor ton
ts ov
ĠHat oyama
aby te
ĠNol an
b orn
k orn
l aw
m ic
p ect
w ide
ĠT otti
ĠC Ã¢m
ĠH adi
ĠM áº§n
Ġ19 06
ĠO TC
pp y
CT N
ile aks
ony mous
ĠGl obe
Ġbl azer
Pet rolimex
ĠDir ect
Bay ern
ĠCau cas
Ġfashion ista
ĠClo oney
C al
Ġv odka
Ġn áº¡m
ĠH BC
ĠV OA
ĠM TX
ĠD Æ¯ÆłNG
ĠR overs
th or
Ġngo áº¡c
eng e
ĠMc Queen
79 01
ks how
ĠKel vin
ĠSul aw
ĠPay et
ĠÄĲO ÃĢN
Ġ ey
ĠPh áºŃn
ĠZ um
ĠCP C
ĠHy ori
EC H
ĠBo ul
ĠAra fat
ĠEngine ering
ĠJY P
kn app
ĠPCP NN
t áº¡o
Ġtr Ã¢m
ĠB ore
ĠS ass
ĠK ais
ĠHo mo
19 5
ĠÃļ y
Ġ34 2
ĠFri ends
Ġtal k
ĠBag gio
ĠStein meier
ĠBuck ingham
ĠHm ey
ĠDarm ian
' ).
E xpress
M ail
Ġc Ã¹m
Ġth á»ĳc
Ġph áº©n
ĠTh á»Ŀ
ĠM ort
ĠTP L
12 8
ut i
Ġbik er
Ġac et
ĠLog istics
ĠCand y
ĠDaw son
Ġnet book
ĠNott ingham
ĠSulaw esi
T iáº¿n
c end
Ġhá» £
ĠB Ã´n
ĠTh atcher
ĠG os
ĠR B
Ġkhu i
Ġthi ng
ĠCS XH
24 5
ĠAm ar
ĠPl atin
ĠYo ona
ĠSk r
ĠPe ace
ĠBon ucci
ĠAki ra
C Ã¹ng
G E
P utin
t ung
ĠH ardy
ĠÄĲ r
ĠÄĲ áº¿m
ĠY ÃĬU
12 9
Th Æ°á»Ŀng
te k
ĠSan aa
ert s
ĠFran ck
ĠCT ÄĲ
zy n
ishi ng
Ġki wi
onn ell
ĠHos ni
ĠUR L
ĠMSC I
V R
f en
h ak
x Æ¡
Ġg á»Ļc
ĠB áº«y
ĠÄĲ I
ĠA Z
ĠA xit
ĠG ogh
ĠLe go
av ier
15 2
ĠQU á»¸
ĠKy lian
ĠDam on
ĠBQL DA
Ġpap arazzi
For ce
DNN N
N SA
f th
ĠC age
ĠB ard
ĠB CA
Ã¨ s
ĠF ARC
Ġ50 4
Ġin to
ĠBr em
Ch ang
ĠOr ch
ĠHer man
ĠNá»ĺ P
f est
j aya
ng Ãłnh
Ġv áº£ng
Ġvá» ĥ
ĠC Ã²i
ĠS ell
ĠP D
ĠP ure
áº½ m
om bie
us o
ff ield
Ġ35 7
Ġ36 4
ĠWil ly
ant ara
ĠÄĲK KD
ĠPau la
ĠKey s
ĠVINA LINES
C á»Ļng
T Ã¢m
h iá»ĩu
uy nh
ĠH orn
ĠNg ao
in us
ĠR ama
Ġ4 16
th Æ°á»£ng
TC N
te ga
Ġ37 2
13 9
Ġhi phop
ĠPro ust
ĠMark le
Ġvá»© c
ĠUp date
ĠSay yaf
ĠOlympia kos
ĠKw ak
ĠDara a
ĠHats um
ĠGalil eo
h á»ĵ
l ook
n Ãªn
r au
nh o
ĠB enn
ic tion
11 8
art ner
ĠTa w
ier e
ĠGu ide
ĠSm ile
ĠRed knapp
ĠJan ice
ĠBrit ain
ĠValent ino
It aly
ĠBX L
ĠFries land
b Ã©
g ary
n m
s áº¡ch
Ġ er
Į N
ĠC áº£n
Ġx áº¹t
ch on
os o
Äĳ á»ı
st a
lip op
13 7
uc tion
ĠSar aw
ĠVit aly
ĠOff icial
ĠOl imp
ĠLO áºłI
ĠHog w
ĠT ip
ĠV E
ĠM ÃģY
ĠS ave
ĠS uez
ĠQu inn
or ph
ĠHo Ã£n
Ġ19 01
om oto
Ġ18 70
tr um
ĠRe ich
ĠBa za
ĠSh ane
ĠCar th
ĠCar les
ĠHar m
ĠRam adi
ĠSouth gate
ĠPol ly
ĠTer esa
ĠBoy d
ĠRem y
vietnam net
Ġsmart watch
J ICA
m ax
Ġ Ã£
Ġb as
ĠT á»ı
eo r
ĠD DR
Ġ5 35
Ġp age
25 6
KS S
ĠJohn s
Ġon ly
ĠFl ickr
Ġblue chip
ĠKishi da
M á»¥c
b uk
Ġl ight
Ġb áº¹n
Ġm otor
Ġd Ãµng
Ġr Ã¡y
ĠM SI
ĠS Ã£o
ack s
our ce
CP OA
Ġ33 2
Ġco uld
ĠCO P
Ġvá»Ŀ n
onia c
ĠArt eta
ĠCiv il
ĠLuk ash
ĠHil ux
ĠAdel aide
m ob
t Ãª
Ġtr end
Ġng áº¡n
Ġph á»«ng
ĠS CO
on ie
in ia
ĠG Ã´
Ġká» ģm
ĠNgh Ãª
ĠÃģ t
ud h
ĠKH ÃģNH
16 5
27 9
ant es
ĠVal ery
Ġ58 5
ĠPort man
ĠCrist ina
Ar g
ĠTas man
ĠAur ora
ĠTag s
ĠHatsum ono
l ui
Ġb ur
Ġtr áº©y
ĠT á»§a
Ġy ear
ĠGi Æ°á»Ŀng
Ġ19 02
ĠJ Ãºt
... ?
le ck
ou ane
Ch iá»ģu
ĠSc orp
36 1
uss a
ĠNob u
ĠOl ga
ĠPic asso
ĠDynam o
A s
e ong
v at
Ä ±
Ġn Å©ng
Ġr áº±n
ĠB Ãº
ĠTh ings
ĠP Ã¡o
Ġ5 01
ĠI HS
Ġngo áº¯t
Ġbi Ãªt
ĠInf orm
ĠDom inique
BV H
ĠSat an
ĠRah eem
Ġ................................. ................
ĠFon se
ĠMTX T
I E
c ing
Ġ é
Ġch lor
Ġs arin
ĠC ream
Ġcho ai
ĠS AP
ĠK ass
ĠG áº¡t
ĠTH áº¢O
Ch at
ĠIs s
Qu áº£
3 25
ĠN á»ĵi
ĠÄĲ Ã²n
ĠP ew
ĠJ azeera
ald i
ĠHer bert
ĠPier o
U K
y eon
Â ¡
ĠT ivi
Ġgi áº§u
en ter
Ġ4 18
ĠAn andi
Ġ14 00
eb r
ĠAr c
Ġw hen
Iá» ĦN
iss ion
ĠEx tr
ox in
ĠÄĲo áº¡t
ĠEn s
iev o
ĠRock y
ĠStart up
ders field
ĠBerm uda
ĠAstor re
s io
Ġb Ãµ
Ġb á»ĩn
Ã¢ Ã¹
ĠP ong
ĠCh al
Ġ3 78
ĠY ersin
ff in
Ġtá»§ a
á»Ĩ N
ĠKang aroo
V Ãµ
l á»Ļ
Å ¡
ĠT áº¡ch
ĠT ÃĶI
ĠC FS
ĠTh ib
ch io
ĠM iá»ĩn
ĠK O
ĠK ien
ĠX DLL
ĠE f
ĠF light
ĠW ah
Ch áº¯c
ĠGr ad
ĠEl antra
gy pt
mon ella
ĠCL IP
CTC P
B ongda
S JC
x o
Ġch iá»ģn
Ġs Ãºy
Ġg oogle
ĠA E
ĠI OC
ĠJ ump
ĠJ ian
re k
24 7
13 6
ĠMer lin
ĠFrank ie
ĠSil k
ĠAv iation
ĠPa j
ĠTÆ¯ LÄĲTT
ĠOli ve
ĠCin c
ĠKov ac
I O
c uá»ĳi
z hi
ĠT Ã²
ĠC ran
ĠM ign
ĠR Ã¹ng
eg ger
ĠJacob s
ĠWik ileaks
ĠVIE TNAM
T Ã¬m
U BC
ì Ŀ
ĠM LS
ĠL C
ĠU RC
Ġ50 2
19 8
ĠBr en
ĠMos ca
ĠSai d
gr ade
ĠAndr Ã©
ĠJab hat
ĠCath y
ĠVe j
ĠResid ence
ĠAlej andro
ĠPlatin um
v áºŃn
Ġv oucher
Ġn á»ĳc
ĠV et
ĠU TC
ĠU ly
ĠI mm
ĠHo Ã¡n
et y
10 7
ord er
Ġ38 8
ĠFranc esco
PP O
Ġmod em
ĠGun ners
Ġnit rat
ĠGray son
amac are
9 10
f oy
g Ã£
Ġt áº±n
Ġth Äĥn
Ġk ung
ĠT eg
ĠM Ãº
ĠG áº¥p
ĠG epard
it ect
ĠDo osan
and e
Ġ18 80
oo ter
20 2
ĠJo a
Ġ34 9
ĠTe a
ĠCD U
esc u
ĠSpr int
ĠErnest o
ĠMari upol
ĠHogw arts
H TX
s ters
w est
ĠÄĳ Æ°á»Ľc
ĠCh á»©a
en co
Ġcao su
Ġ5 15
ÄĲ iá»ĥm
ac ey
ĠIn te
ĠSu gar
ĠPH AN
Ġ64 2
Ġpr ess
enc es
ĠRun ning
alde hyde
W est
Ġch au
ĠTh áº¯t
ĠM ell
ĠNg áº§n
ĠQ S
Ġphá»¥ t
ĠMal ay
Ġ35 1
ĠVTV cab
ĠLes lie
oton in
ĠHud dersfield
3 75
I U
h á»į
l Ãłng
Ġm eo
Ġkh á»±ng
ĠM áº¡
ĠP us
ĠG ael
Ġto m
ĠMar ta
ĠSt op
19 59
ĠSh ia
ĠViet Nam
ev o
ook ie
ĠCar ney
16 8
ĠSc andin
ĠLy nh
Ġ55 9
ĠRock er
ĠGot ze
Ġfl av
ĠWanna Cry
S áº½
g áº·p
h ung
s is
ĠB Æ¡m
ĠM á»ĳc
ĠNg Æ°ng
ĠP s
ĠA TN
ĠD ab
ĠsÆ¡ mi
Ġcá»¥ p
Ġ50 8
Ġf ilm
ĠPar am
Tr Ã¡i
gi Ã¡m
ĠMor ales
ĠTour ist
ĠKor in
Ġb ua
ĠM á»ķ
ĠL ada
ĠR is
ĠQu Ã½t
Ġto áº¡
ui re
ĠZ ub
Ph Ã¡o
rai ne
ian i
com Bank
ÃĢ U
25 5
ĠBe h
ĠOs ius
ĠSal is
IM E
xx xx
Ġcac ao
ĠIC E
Ġ999 9
ĠDH G
tif ul
UBC K
B á»ĵ
b as
Ġl áº¹t
ĠN aw
Ġx á»ĭ
ĠH enn
ĠH wan
ĠB Äĥn
ĠM Q
ĠS uáº¥t
Ġthá»ĭ ch
ĠLu la
th en
ĠPr otein
ĠCl ick
ĠEl ton
ĠDj ib
Ġgi áºŃp
ĠV JC
in em
ĠD áº¿
ĠI con
ĠE RP
ot le
19 41
Ġw id
ĠTT YT
Ġ29 4
ĠBar k
ey eon
ĠLo áº¡n
Ġ68 9
inn ati
m áº¯t
r im
w eb
Ġph Ã¨o
ĠA IIB
al ong
ĠW A
ĠAn onymous
ĠLu fth
Ġbi ogas
ĠEr in
ĠSen se
ĠAN ND
ĠGo ethe
ĠKer ch
ĠManag er
jaj iva
ĠBaza ar
O r
n á»ĳi
Ġc Ã¹a
Ġn áº¹t
Ġx áº¯c
ĠÄĲ áº¯p
ĠP TSC
ĠCh um
ĠR Ã©
Ġtu m
Ġ7 25
il er
ne g
ĠTa x
ud dy
iz en
ĠTim berl
14 3
ĠAd ren
ĠSch um
ĠBos ch
ĠFol ey
aglia ri
L á»ħ
r Ã´n
Ġh Ã²i
Ġch amp
ĠH á»įng
ĠH ed
ĠP iet
ÄĲ áº£ng
Ġp o
ĠBar bie
ĠMac ao
ĠNick name
Ġphot on
ĠBeau tiful
ĠXy ri
Ġsl ide
alan ta
ĠÄĲÃĥ I
ĠNir ad
ĠScol ari
ĠTimberl ake
C á»©
Ġr á»ĳc
ĠM áº£i
Ġ6 35
ĠW C
ĠDo uble
ĠDN CX
Ġ28 7
ĠThe y
ec a
ĠUn ic
ĠEl ias
ĠNic ol
QL TT
ĠMart ÃŃn
ĠPok emon
ĠShib uya
B TNMT
O SCE
b iá»ĥu
l Ã¢m
Ġn á»¥c
Ġr á»Ŀ
ÄĲ Ãło
li ch
Äĳ á»ĭnh
if orm
ipp o
Ġ34 1
ron es
ĠKo ch
Ġas pirin
ĠKn ox
ĠÂ ¶
ĠTrin idad
ĠBarc lay
ĠLufth ansa
N SNN
ĠT amp
Ġr á»įc
ĠB áºŃn
ĠD EA
Ġ20 24
12 7
az za
ĠBr ug
ĠPr int
CS GT
ĠVictor y
ĠGh Ã©
ĠSC G
ĠArt em
Ġur ic
ĠPM U
ĠEaster n
! '.
Ġ acc
Ġb el
ĠV biz
ch Æ°Æ¡ng
ĠCh ievo
ĠÃ Ļ
ĠR ashi
ĠSp ice
orn o
ĠFor lan
ĠHor izon
ĠShe ffield
bl r
SL NA
ML M
ĠLol lipop
ĠHmey mim
H M
b et
g ent
o ai
r le
Ã Ī
ĠÄĳ áºŃt
ĠN ah
ĠL ok
Ġ4 14
or ter
te p
ĠJo ur
az ar
ĠSp ar
ĠGS M
ĠEv elyn
ĠLiz zie
ĠCaucas us
ĠSalis bury
! ...
3 35
c Ã¡t
Ġs Ã¡m
ĠC ilic
an u
ĠH ale
ĠP ope
ĠG ord
Ġtra ck
Ġ19 03
ĠtÃŃ u
sh ine
ts in
ĠSin mun
ĠRog oz
Ġhe art
Ġkil Ã´
c ung
c tor
Ġnh Ãº
ĠÄĳá» įt
ĠV M
ĠG Äĥng
ĠPh Ã´
ĠX ÃŃn
ĠSt egen
ill in
Ġ38 6
ĠAud rey
ĠTer min
ĠJul es
ĠDef oe
CI EM
Arg entina
ĠFonse ca
P ower
T NGT
W orks
v re
Ġ áº¹p
Ġv al
ĠN Æ°a
ĠB Ã³c
ĠV X
ĠS Æ°á»Ľng
ĠQu entin
om s
ĠO ber
ter dam
ĠKim ber
Ġp ol
15 9
ham phetamine
ĠRa ff
ĠBo un
ens ion
ĠGrab Bike
ĠOd d
ĠRid ge
ĠPand ora
g ne
h á»ĵi
p ole
Ġt it
ĠÄĳá» Ľ
ĠT ara
ĠG LC
Ġy outube
Ġta g
ĠE g
ĠJ S
is try
ĠO PPO
ĠAr iel
ĠCH áº¤
ud an
21 3
tin son
ĠRob son
ĠPer formance
CK H
kho a
ĠShi p
ĠDan ilo
ĠCath ay
ĠJoy ce
ĠOdys sey
ĠChamb ers
B Æ°á»Ľc
H uy
k Ã½
r uz
t oÃłn
ng ay
Ġh Ã¡p
qu áº£n
ĠPh Äĥn
Ġta ke
or us
ĠJ od
ĠÄĳo m
ĠCS TT
ĠSam urai
18 9
14 4
Ġ46 5
ĠHer e
tu al
ĠKing dom
ĠDor ian
ĠTob y
ĠNim itz
ĠKav kaz
Jo hn
ĠCinc innati
n al
Ġ ass
Ġnh ao
00 7
ĠPh Ã¡c
01 8
ĠF S
hi d
ap s
ĠCon cord
ĠHy dro
18 2
GP MB
ĠKur il
Kho áº£ng
T ottenham
V V
b ong
i ers
n Ã¢ng
nh Ã¬n
ĠT atar
ĠV ong
ĠTh á»ģ
ĠL E
ĠGi r
ĠX Ã´n
ĠW ake
ur ance
ĠCH á»ĲNG
Ġ39 5
ĠHer bal
ĠAc cent
Ġbo a
Ġpro duc
ĠBour ne
ĠAttap eu
H á»ĵi
T Æ°
V AM
á» ¶
Ġph áº§m
ĠB ess
ĠM F
ĠCh Ã¬m
ĠI NT
ĠE gypt
ĠJ ank
ad d
ĠÄĲÃ³ i
ĠCN CH
gi Ãºp
ĠHay es
ĠPat tinson
ĠAmaz ing
ĠArt uro
ĠYas uk
ĠFat ah
ĠAssoc iat
V Ã¢n
d ung
f on
h on
Ġl aze
ĠV Ã¢y
ĠTh iáº¿p
ĠS oÃłi
00 4
ĠD ome
ĠY O
un ion
tr Ã¬nh
ou ght
ĠTT GD
Ġ29 1
eg er
21 4
Ġu Ã½
ĠPH á»¤C
Ġ34 8
va jal
79 15
ĠShi r
ĠDr ew
ĠSA A
ĠDom en
ĠCoo p
ĠDal ey
ĠEss ex
ĠArist otle
r s
Ġ á»įp
ĠC us
Ġx Æ°á»£c
ĠG Ã¶
er gen
ĠX Ã´i
et i
Ġ9 90
th áº¥p
ĠTH ÃģC
ĠMal foy
ĠCA C
ĠAng ie
ĠKy aw
ĠAz ov
á»Ķ I
Ġri u
EP R
Ġfl ag
ĠWy att
ĠZag reb
ĠSelec ao
9 70
c ell
s á»Ł
Ġl iá»ĩng
Ġb Ã²n
Ġm á»ĭch
Ġg áº±m
ĠlÃł u
Ġr uy
er ta
al li
ĠE z
ĠTH AM
ĠTH Æ¯á»ľNG
ĠBu á»ĵng
79 21
ren e
ĠWe asley
yan sk
Ġtá»ħ nh
ĠCout ure
ĠKhark ov
ĠVej jajiva
B Ã³ng
V AMA
Ġx áº¡o
ĠChi bi
Ġw ar
gi áº£
ling ton
ere um
Ġmá»Ľ m
ĠAk bar
Ar ena
ĠCHI áº¾N
ĠCand ice
ĠOsp rey
C ol
V ASEP
b ok
m ph
Ġh al
ĠC ou
eo k
et ho
ĠF if
ĠW ade
Ġ9 40
Ġp ower
Ġf ree
ran o
enc ak
ĠArt ist
ĠWell ington
ĠAbb ey
ĠRap per
ĠAG M
ĠIber ia
T KV
c anh
p ut
Ã Ł
ĠN ess
ĠC il
ĠB TO
ĠX T
ĠE MA
ĠJ ia
Ġ? .
od on
ĠCar vajal
Ġ36 3
ĠTR UY
ĠGr u
ĠCap t
ĠBul lock
ific ation
ĠÄĲS Q
ĠChir on
ĠMign olet
B iá»ĥn
M in
N o
U E
m ag
n áº·ng
u eta
Ġnh Ãłi
ĠT ell
Äĥ t
ĠÄĲ Ã¹a
ĠTh Ã¹
ĠM oo
ĠS F
ĠK et
ĠG TC
ar ev
ĠR I
ab aya
ou f
ĠCH Ãļ
ĠAs pire
ĠMil ito
ĠMich eal
ĠMay bach
ĠNS X
fi q
ĠTD DC
ĠMis ter
for mer
ĠPenn y
ĠErik sen
ĠRep ublic
ĠATN ÄĲ
b ird
f ir
x áº¥u
Ġl áº£o
Ġb Ã¡p
Ġn icot
ĠV ega
ĠCh il
ĠKh uyáº¿t
ĠR á»Ļ
Ġ4 47
ĠI ch
ĠI FC
th áº»
12 2
19 44
ĠNH áº¤T
ĠAm ir
ĠPer isic
ĠAg ency
ĠVal lec
ĠSher aton
ĠField s
ĠCul li
ĠSaraw ak
P le
W e
m áº¡nh
z awa
Ġt H
nh áº±m
Ġb áº¥c
ĠN ate
Ġx á»ķi
ĠTr um
ĠL ena
ĠS ek
ĠCh Ã³ng
ĠÄĳá»ĵ m
ĠW ine
ing en
ĠSt or
ĠSt ation
TC TD
kh a
ĠHy d
ĠMel inda
ĠRol ex
ĠâĢ ĵ
Ġsam urai
ĠBoris ov
ener bah
C Ã¡
V áº¥n
g áº¥p
o cha
t uá»ķi
v ette
z za
ĠL un
ĠS áº¡ch
ĠP Ãł
ĠCh ow
ĠGi ven
ĠX Z
hi ko
ĠAn bar
Ġ36 8
ĠIS I
ĠJord i
vis or
ĠBai du
g at
g ye
t es
Ġch áº¹t
ĠÄĳá» ħ
ĠB Iá»ĨN
ĠM ama
ĠK IA
ĠE cho
ĠTH Ãļ
Ġf air
od om
ĠBr itt
ĠGu us
ĠOr tega
Ġgam ma
ĠFar s
ĠHir oshi
ĠBow l
ĠQUáº¢ NG
ĠJP Y
Ag ribank
ĠRogoz in
3 45
T ass
s ur
t Ã¬m
Ã ķ
ĠT all
Ġph Ã¹ng
ĠL V
ĠS ank
Ġ4 21
ĠF oreign
ĠSh yn
ĠNH áº¬T
sen d
Tr ang
ĠCl os
Ġ37 7
ĠMa as
Ġ48 5
28 5
ĠBro dy
ET RO
Ġcoc ain
ĠKiss inger
s han
u tr
x en
ĠM TP
ĠM Æ°á»£n
on in
Ġho áº¯c
Ġlu m
kh az
Ġ36 6
ĠSp iel
ĠCan yon
ĠLi ang
Ġá»¨ NG
Ġ... ...
ĠHots pur
B áº¥t
ĳ c
Ġh ash
Ġb asa
ĠC agliari
ĠB E
ĠB eller
ĠP Ã³
ĠP ing
ĠG ui
or ial
Ġto uch
ĠMar iano
ĠCS KV
ĠCl ement
ĠCol eman
ĠHam m
car bon
ĠTum blr
chá»ĭ u
ĠPres ident
vid ia
ĠMaj or
ĠRao nic
Ġwo uld
F e
Ġn il
ĠL á»ĳp
ĠD áº¹p
Ġ7 68
ĠCon n
ĠCA X
ĠCan n
Ġst ar
AP I
ĠVina food
ĠLau n
ĠCáº¤ U
Ġlim ousine
BL ÄĲTBXH
ĠAnastas ia
Ġrou ter
G l
Ġx ia
ĠK ud
ĠG wang
ĠHo o
ĠF lex
il ight
tr ess
iF ood
Ġz ero
ĠChang i
Ġhat trick
ĠAtlant is
cheng ladbach
Ġsne aker
P E
Ġb Ã²ng
Ġd á»Ľp
ĠH ib
ĠB á»ĳng
ĠP Y
Ġcáº£ o
er jee
Ã¨ re
ic z
Ġmá»Ł n
Äĳ Æ°a
Ġláº½ n
ĠMar l
19 55
ĠNH Æ¯
ĠPr Ã´ng
aw ay
ĠOb amacare
SC T
13 8
ant as
ĠAt alanta
ĠWal id
ĠGen e
ĠVP B
app a
ĠKat s
ĠBL DS
ĠRy u
L ink
f all
l áº¡i
Ġl á»ķng
Ġn uc
Ġr á»©a
ĠÄĲ ai
Ġngh Ã©t
ĠK IS
Ġto e
ut ions
ĠPer son
ĠÄĤ ng
ĠPri us
ĠVall s
Ġpart y
ĠRot terdam
ĠMund o
ĠYasuk uni
B á»ĭ
S o
s ak
Ġl ine
ĠP Ã¡
ĠNh á»¡
ĠD ah
ĠPh á»ķi
ĠR enzi
ĠX avier
is son
li ke
ig e
ab an
ess en
99 5
ĠBo ut
ĠKar n
ĠShe eran
Ġcort isol
ĠFig aro
ĠGustav o
David son
F ran
M ua
T iÃªn
U AV
ĠÄĳ áº£nh
Ġl es
Ġb enz
Ġg Ãłn
Ġng á»Ļp
ĠL áº¡n
ĠS leep
ÄĲ Æ°á»£c
ĠÃģ ch
ub an
CN C
ĠPr ada
ĠCN XH
ĠMad d
Ġ273 4327907
ĠRuss el
zh ou
ĠJen kins
ĠPB GDPL
ĠAnders en
T L
Ġch rome
ĠT ogo
ĠN CS
ĠHo st
il ian
le cht
tr anh
20 3
Äĳ áº£o
ob acter
ĠSc reen
mo Ã³c
ĠSec ond
ĠBrid get
ĠNut iFood
ĠStyl us
ĠTart us
Ġáº¾ ch
ĠCoul son
j om
Å Ĥ
Ġv log
Ġk it
Ġg áº¡n
ĠT EU
ĠN ara
Ġhá» Ń
ĠNh áº·t
Ġ5 22
ĠW erner
Ġ40 6
Th Ã¡nh
und i
ĠPH á»Ĳ
ĠCal i
ĠSnap e
Ġb ow
Ġng á»Ĺ
ĠT NG
ĠT Æ¯á»¢NG
ĠS EC
01 1
Ġcon d
ĠX N
ĠUB S
th on
ĠZ abal
Ġ40 3
ach es
ĠGh Ã©p
ĠNe ander
ĠAlber ta
ĠJai me
ĠCra zy
ĠTrev or
ĠPt ol
Ã¡ s
Ġh Ãºi
Ġm eth
Ġnh uá»ĳc
ĠT áº¢I
Ġr Ã©n
ĠM ord
or ra
Ġvi olon
Æ¯ A
ĠCA N
14 2
ĠHA NO
ĠNat al
ĠRock ef
EF L
ĠSur abaya
ĠUp ton
ĠKor an
ĠWol ves
ĠSic ilia
Ġdr one
Ġ....... ...
quir er
ĠHANO I
M ark
V it
b Ã¡t
c á»§
p ilic
Ġl áº£m
Ġl Ã´m
Ġs ir
Ġn ever
Ġph Ãªn
ĠH ip
ĠS it
ĠA DS
ĠD ial
ĠD BS
Ġ5 11
ĠY ah
ÄĲT V
ĠZ y
Ġi F
35 5
ĠPH ÃļC
ĠSim mons
ĠBro ck
ĠLuc rez
ĠWin frey
ais al
ĠHann over
ĠDir ection
ĠUs ain
ĠYel tsin
ĠLann ister
U P
c Ã¡nh
Ã ±a
ĠT iber
ĠN áº¿p
ĠC TM
ĠH áº¡ch
ĠTh uy
ĠM ine
ĠS Ã¬nh
ĠD iá»ĩt
01 2
em iro
ĠE ra
Ġ7 18
at ore
ĠO y
th á»§y
ĠMar iana
ĠSan e
ĠDisney land
Ġtal kshow
ĠPix ar
ĠWS J
ĠMIN I
ĠLucrez ia
M uá»ĳn
b ler
ĸ I
Ġl Æ°á»Ŀn
Ã´ l
Ġs qu
Ġng áº¯c
ĠL all
Ã© rie
at ron
az ette
ĠBr at
áºł CH
Ġngu á»ĩch
ĠHel m
ĠChe ck
ĠWh ere
ĠMusta fa
pilic ueta
F SA
H Æ°á»Ľng
c s
Ġh ey
ĠS acom
ur d
ac es
ĠDN BH
19 48
ĠCA R
24 6
15 8
ĠQuan t
lin er
ish u
ĠKu o
Ġxá»ķ m
ĠÄĲK XT
ĠMedia Tek
ĠRobo con
lui gi
' ;
L ife
c il
Ñ ĥ
Ġb ina
ĠH Æ°u
ĠK iá»ĩu
ĠU k
es hi
ĠAl lan
78 83
ĠTam il
ĠPeter son
ĠMont p
Ġhá»£ m
ĠVallec ano
M exico
l á»±c
Ġc ad
Ġtr Ã¡c
Ġph á»Ľ
Ġqu eo
ĠN vidia
on oid
ĠY osh
20 8
ĠTH VN
ĠthÆ¡ Ã¬
Ġ60 4
ĠMal awi
35 6
Ġ34 7
ho áº¡t
ĠSe ason
ĠFr aser
cha ft
Ġá»ī m
Ãī T
ĠKTT V
ĠParad ise
Ġdeb ut
S tr
Ġm Ã£o
Ġs Ã´n
áº¿ nh
ĠN es
ĠÄĲ á»¡
ĠP TC
ĠCh Ã©m
ĠA po
ĠG X
ĠE B
ot r
ĠVi ber
ĠAb khaz
eet a
ĠSw e
ĠMed ical
Ġser otonin
ĠNob le
ĠSA U
HÄĲ QT
ĠCommun ity
ĠMn uchin
stad t
ĠMá» ļI
ĠWag ner
enerbah ce
ĠRockef eller
S ec
s ik
ĠN NT
ĠN ations
Ġr ef
ĠH ana
ĠA CM
ĠF am
Ġchu n
ĠW ink
Ġtho ang
Ġ18 99
Ġp lus
co c
ĠNH ÃĵM
ĠAnd es
ĠYork shire
Ġ57 7
ĠOx lade
ĠDol by
FI FA
lao dong
ĠVB QPPL
bol t
ĠEmm ett
ĠÄĳá»Ľ p
W F
ĠN áº¡p
ĠC á»¤
ĠC Æ¯á»ľNG
ĠV iá»ģng
ĠS Ã©t
ĠK ahn
ar an
ĠQu áº§y
ĠI ve
Ġ6 45
hi t
ess y
ĠBar ak
ĠIs uzu
ĠQU A
Ġhu á»ģ
ĠPol o
ĠZh ong
ĠPen ang
ĠCav us
ĠVa art
Ġkil omet
Vi ew
M Ã£
Ġv Ã¹n
Ġh ad
Ġb áº½n
Ġd á»Ľi
ĠC ed
an ey
ĠH acker
ĠM á»³
ĠL ori
Ġ5 95
Ġso áº¡ng
ir ect
20 9
ĠLe i
Ng Ã´
ĠAm in
18 3
ĠCr uy
48 5
Ġno Ã£n
ĠTur an
ĠHa f
ĠDam ien
Ġrock er
ĠVCB S
ĠPhillip ines
ĠSpart acus
ĠCarn aval
ĠAsen sio
zeg ovina
N Ã¢ng
Ġph áº¥p
ĠC á»¡
ĠL ich
ĠCh áº·t
ĠK iá»ĥng
ĠKH L
ĠMon d
ĠPro fess
ĠRy ab
ĠPhilip ines
ĠFri end
ĠHil ary
fal se
Ġfe el
B ig
B QL
Ġ ob
Ġnh Ã´ng
ĠN os
ĠN ub
ĠH eng
ĠM MA
ĠS aga
ĠK á»ī
Ġho oc
im mer
ĠF X
ic in
Ġ18 98
Ġkáº» ng
ĠAr i
ib a
22 8
Ġ35 9
40 5
ĠBo ard
ĠHe avy
KT NN
ĠTM Z
ĠAz pilicueta
ĠSP D
ĠFall u
Ġdiox ide
ĠBLTT DS
zyn ski
H I
m inh
s at
20 4
ĠSt al
Ġin f
23 2
ĠRo hing
ĠDung a
ĠBu ilding
ĠDavid son
ĠRos neft
ĠVer onica
ĠDh aka
ĠNem tsov
ĠFis cher
ĠOto fun
H ot
b ra
Ġm om
ph e
Ġgi Ã²i
ch áº¥m
Ã´i n
ai a
ĠCh inese
ĠQ B
ĠR NA
ĠF og
ut oglu
Ġf re
ez zi
Ġ35 3
Ġ45 5
ĠCr ash
ĠWind sor
ĠPan am
BÄĲ BP
oss ible
ĠCI EM
ĠBuk it
ĠOper ation
Ġneu tron
ĠHerbal ife
ĠLall ana
d own
j n
m Ã¢y
w een
Ġl ab
Ġh uyá»ħn
Ġk iáº¿t
ĠV ÃĻNG
ĠM á»ĳt
ĠP ie
ĠPh Ã´ng
ĠPh araoh
ĠO R
Ġ18 50
ĠTH Æ¯
ÄĲT G
Ġp ano
Ġo xit
ff ic
man tec
ĠSao star
ĠSing er
ass ic
ĠUn it
18 5
ho ut
ĠEr ud
ĠRos alie
ĠÆ¯ á»Ľp
ĠWolf gang
ĠPVF CCo
Ġster oid
ĠCavus oglu
T Ãłu
g ian
Ġ iv
Ġb á»¥t
Ġm áº©y
Ġnh áº·ng
ĠH es
ĠM ech
ĠS Ãł
ĠK iá»ģn
ĠR FI
Ġma xi
22 1
ĠCan xi
ĠAm way
ĠSan to
ĠDav utoglu
Ġ46 2
ĠCHá» ĮN
ĠRoad ster
ĠNu tr
ĠCort ana
ĠMina j
ĠMarri ott
ĠCoen trao
ĠZabal eta
M U
o za
Ġkh á»ĭt
ĠN iz
ĠS áº»
ĠP ena
ĠKho e
ĠTa eyeon
ĠQuy nh
ĠDu d
if ood
16 2
ĠSch me
38 6
ĠAlv arez
ĠMcK in
ĠAdri ana
ĠShad ow
ĠHSD T
ĠCarth age
' ...
h op
w ing
Ġl Ãºm
Ġm Ãµ
ĠT av
ĠA ver
00 6
Ġ4 23
ĠF ang
ĠF illon
ĠO PCW
ac ia
Äĳ á»¥ng
VN ÄĲ
21 6
gi Ã¡p
ĠMTTQ VN
ĠAC E
ĠHot girl
ĠAnn ab
can al
ffe nheim
ĠAlf onso
ĠMain z
ĠICA O
ĠBrenn an
ĠRohing ya
M Hz
O b
n Ã³
ng he
Ġv anh
Ġm at
Ġg ra
ĠT Ãłm
Ġkhu Ã¢ng
ab uri
ĠAr sh
ik tas
Tr ump
con s
out i
ĠRub io
ĠAnt ig
ĠPM I
ĠCruz e
ĠCruy ff
S isi
k ÃŃch
l ak
u li
Ġkh áº£nh
ĠC yn
Ġx uyáº¿t
ĠM s
ĠG TS
Ġdo p
ĠKh un
ia c
is c
ac i
op er
Ġal pha
Ġ37 6
ĠMo ussa
ĠMil o
ĠPan mun
ĠThom son
ĠRon nie
ĠDev on
XP O
ĠChap lin
Ġjack et
ĠErud ite
l s
Ġl áº±ng
ĠT ÃĬN
ĠC ebu
ĠTh Ãªu
ĠP ig
ĠD Iá»ĨN
er re
al ter
ĠR ig
um ent
ĠCon str
ĠRob b
13 3
td own
bi j
Ġbo ot
Gi ao
ĠMill s
ĠUh m
ĠSchneider lin
ĠCait lin
L N
O cean
r um
r Ã´in
v ice
Ġch á»įt
Ġm iss
Ġs Æ°á»£t
ĠCh ange
ĠR ug
ĠQu áº¡t
Ġan ten
ĠI pad
ĠMar ouane
ĠSy mb
ĠSy mantec
Ġf in
ĠAr mani
30 2
ĠPr att
giá» Ľi
Ġ47 7
ĠPro v
ĠTV QH
port s
ĠCas emiro
ĠNic ola
ĠAtt ila
ĠGuadal canal
A EC
M ob
S acombank
m á»¥c
p g
r ite
Ġng á»į
ĠÄĲ áº¡p
ĠS Ãłng
ĠS á»«ng
in as
ĠA CC
ĠF iv
ur st
ak ed
Äĳ á»īnh
ĠSt ates
Ġ56 5
Ġham burger
ĠWill is
ĠOx fam
ĠClever ley
D e
Ġc ty
Ġh áº¯ng
Ġr áºŃn
ĠP AN
ĠJ oker
Ġnghá»ī m
ĠSt y
TS A
ĠAb el
ĠEd win
Ġ34 6
ĠCom mer
ĠStr eep
kho áº£n
ĠColom bo
ĠPe pper
ĠPol icy
ĠTem p
ĠAj in
ĠDef ence
ĠBud dy
ĠSpy der
ĠDÄĲ ÄĲT
M ess
P HC
d áºŃy
Ã ¦
Ġc Ã¹n
Ġl Ã©m
Ġqu Ä©
ĠH B
ĠL áº·p
ĠL ian
ĠNh áº¯n
im im
ĠX erox
Ġváº» o
Ġ40 7
ff iti
Ġ36 1
ĠSong s
ĠBra xin
ĠAt kinson
ĠFor ever
ĠMark ets
ĠJon ny
ĠTHA CO
ĠGrab Taxi
ĠLeon id
ĠBut ter
ĠKL GD
ĠBran son
ĠKes ley
Sai gon
A X
S ong
s ie
w ear
Ġn ext
Ġkh áº¥p
Ġr Ã³n
ĠA uth
Ġtu lip
Ġ5 28
and elli
ton a
to cin
ĠRad amel
ĠSum ire
Ġnháº£ u
ĠHub ble
ĠPatt aya
B NEWS
I raq
T ime
v Æ¡
à ¹
Ġnh Ã¨m
ĠT ian
ĠN SD
ĠB IÃĬN
ĠB ots
ĠV old
ch á»©
ĠP ah
ĠK TM
Ġthu á»Ļm
en sen
ĠR ene
ĠGi jon
ĠF ern
il son
ag os
kh ov
Ch ung
ĠSal butamol
ĠMu ay
ĠSA O
esc ent
ĠTÃŃ m
ĠNest le
ĠSchwar zen
T ÄĲ
b áº¯n
w ha
Ġl áº¥t
ĠN Æ¡
ĠS vet
ĠP CB
ĠA in
ĠD ex
ĠG ond
Ġto Ãłng
ĠSh annon
Ġtang o
ĠVin astas
ĠGr um
Ġj udo
ĠSim one
ĠFl em
CA ND
ĠEv il
ĠNav ig
ĠGall ery
ĠSak ura
ĠMog her
ĠInform ation
Ple iku
S en
T NT
l Ã£nh
n Ã´ng
Ġ ang
Ġ ________________
ĠN ass
Ġr Ã©
ĠTr Ã´m
ĠS ÃŃnh
ĠK itch
ĠK Ã¶
ĠA ro
ĠQu Ãłng
th Ã¬
ĠÃ´ liu
ob or
se ng
ĠSh ev
ĠÃĲ á»ĥ
our ces
ĠPr andelli
istan t
Ġ45 7
ĠRo x
ĠTN S
ĠSch ul
bor ne
ĠBul ava
gor od
ĠRh ine
ĠLab or
ĠCort ex
ĠAki hito
Cham berlain
ĠKvit ova
O z
z in
Ġt Ãºt
Ġl act
Ġs á»ģn
Ġs ale
Ġn ÃŃch
ph aco
ch el
ĠM AS
ĠS áº¥m
Ġthu á»ĵng
ĠQ LÄĲ
ĠLo ch
ĠCH ÃĤU
Ġ33 9
Ġ37 3
ĠNews week
ver de
bur i
Ġ47 6
ĠStr ange
ĠKe ep
ĠDV B
US B
ĠHU T
My anmar
ĠDil ma
ĠHighlight s
ĠPIX MA
ĠSchme ichel
ĠT ieu
ph á»¥c
Ġgi áº¯c
Ġho w
Ġ5 38
ĠJ elly
ĠO N
ad am
th áº¯t
ig roup
ĠMos t
me e
á»µ t
ee ch
ĠTer ra
ĠGas ton
ĠOut look
ĠRey es
ĠAnder lecht
ĠAff leck
ĠMallor ca
ĠMogher ini
H ong
V Ã²ng
W atch
Ġd ream
ĠC á»ĺNG
Äĥ h
ĠH TS
ĠNh Ã¡nh
Ġ4 29
th áºŃm
eb y
ĠKim m
Ġ45 6
iet nam
ĠLav ezzi
ĠSav ann
Vin am
ĠRet urn
ĠLey te
ĠElli ot
ĠChrom ebook
L ao
l á»«a
Ġg al
ĠT Ã©
ĠT os
ĠN CKH
ĠC ip
ĠB VN
ĠV Ãª
on os
ĠK ier
ĠD ÃŃ
ĠG ag
ĠW ings
li ver
ĠAr s
ĠSam oa
ĠRo h
ĠBent eke
ĠRyab kov
A Q
Ġ iá»ĳt
á» ¢
on da
Ġban king
ter ia
Ġ40 9
ĠCan a
ĠVin Fast
Qu á»¹
ĠNS W
ĠMc N
ĠNor odom
ade j
ĠPat rice
ĠIm age
ĠTrans formers
ĠYan bi
ĠXM XT
ĠMoss ad
Tu áº§n
ĠPui gd
ĠAjin omoto
6 75
9 40
J P
w ings
Ġk iá»ĳt
Ġd iÃªn
Ġr el
Ġr ob
ch áº¥n
ĠTr iton
ĠP Ãªnh
ĠG lee
Ġ4 22
ĠF enerbahce
Ġ9 10
19 2
ank s
ĠDA X
ĠLar s
ĠPL X
ãģ ®
ĠLac azette
ĠCrow ley
ĠPyeong Chang
ĠBLTT HS
ĠCollec tion
ĠDjib outi
ĠSpiel berg
H á»ĩ
R a
T uáº¥n
c umin
l Ã²
l ana
m áº«u
r ett
Ä į
Ġc it
Ġl Ãº
ĠG ott
ĠR ÃŃ
ĠR Ã²
ĠR ail
ĠR PG
20 23
apos A
ĠBel grade
Ġvacc in
ĠAless andra
ĠPred ator
ĠPuigd emont
L o
s un
v as
ng uyen
Ġm ethyl
ĠT á»Ļ
ĠB Æ°á»Ľu
ĠV ia
ĠV az
ĠM IL
ĠCh ak
ĠK p
ĠK ÃŃp
ĠG ue
Ġ4 24
ĠX h
Ġ8 45
th ÃŃ
ist or
ĠJo ao
kh ut
ĠBro oke
ĠFly ing
entin el
" ).
k á»ĭch
Ġm Ã¨m
ĠT aro
ĠTh rones
ĠJ ude
tr Ãºc
ĠAr jen
ĠSh ear
ff ff
ĠCho colate
17 6
ĠÄĲB VN
ĠCom mon
AR A
ĠTC VM
ĠJav ad
ĠTrans l
ĠGR DP
ĠDP J
ĠNiet o
ĠLer oy
ĠThib aut
ĠAbkhaz ia
2 11
f ran
qu ay
ĠH OT
ĠNg á»±c
ĠD ing
ĠG wen
ĠPh anh
ĠPh ys
Ġlu á»Ļm
ĠU NDP
ĠO la
ac tion
Ġ18 95
Ġ18 96
ak is
20 25
ri ft
ĠSp l
28 8
ras ka
ĠTas co
ĠCHá»Ī NH
ĠValer ie
ĠBeller in
4 99
ĠÄĳ áº©u
Ġn á»±ng
Ġng Æ°u
Ġr Ã¢y
ĠÄĲ ÃĶNG
ĠS áº£nh
ĠD up
Ġ8 88
ĠChi ba
ill ing
Ch u
Ġ36 2
25 3
78 9
FA O
TA R
ĠHey n
ĠRud d
Ġrá»ĩ u
KTT V
ĠApr il
ĠÄĲáº¶ C
S am
T rail
a ar
l ang
m od
ĠT ÃĢU
ĠN CL
Ġgi áº·m
ĠP ippi
ĠNh Ã´m
em in
em berg
ĠF T
ro ft
ĠIn ca
tr Æ°á»Łng
ĠCon d
re ira
ĠAl der
Æ¯á» ł
ĠEn zo
33 3
ĠBlack berry
ĠSon ic
ski y
ĠRed mi
ĠTO EFL
ĠPN VN
ĠCir cle
}} }
Ġbal Ã´
H CT
S X
l oo
n ien
Ġt v
Ġqu áº·t
ĠC ullen
Ġx ÃŃnh
ĠL Ã¹n
ĠG avin
Ġ6 22
ĠF av
ĠW ushu
19 57
te e
18 6
ĠGiÃª su
ĠOp t
TH K
ĠDow ning
ĠKir sch
dr ado
ĠGall ardo
ĠPre ah
ĠCass ius
ĠNao to
ĠIll ustr
ĠPung gye
ĠFiv imart
0 36
Ġg Ã¡
Ġng áº¡nh
Ġr um
ĠH ers
ĠB apt
ĠV MS
ĠTr Æ°á»£t
ĠL áº©u
am endi
ĠCh ay
ĠK áº¹t
ĠG ina
ĠKh au
Ġy oung
ĠU PI
ĠY ev
Ġ9 25
ĠNgh Ã¬n
Ġgh iá»ģn
Äĳ áºŃp
ĠMar ÃŃa
ĠMan bij
ĠBÄĲ VN
to ck
Ġ56 7
ĠDel e
ĠHan sen
ĠBeck y
ĠRed dit
ĠNav al
ĠTs ar
red it
ĠIvan ov
ĠScud etto
Ġskin ny
h ab
am ba
ĠA LC
ĠD ory
ĠG ud
es on
Ġso Ã³c
ĠY on
ĠTH IÃĬN
ĠLe ar
Th Æ°
Th am
ĠvÃ© o
net te
Ph Ã¹
ĠBar ton
Ġxu á»ģ
ipp er
apos B
ĠBV S
ĠPer fect
Ġ46 8
ĠTho áº£
Ġbl ack
66 6
ĠRay theon
ĠBB Q
ĠCay enne
Bl ack
ĠDod ge
ĠNakh on
Ġth iáº¿n
Ġch á»ķng
Ġr Æ°á»Ŀng
ĠTr ek
ĠTr oll
ĠP ant
in sky
ĠJ ade
ĠW ander
Ġ9 000
ot us
tr á»Ł
if lu
ber to
ĠSp icer
uk ovich
Ġhu Ãª
ĠNic ot
ĠGian luigi
ĠMaster Card
ĠRud y
ĠHas an
ĠPun jab
ĠAlli ance
ĠFus ion
0 75
h ood
v á»¡
Ġc lin
Ġs ign
ĠH Ã£i
ĠTr Ã´i
ĠD á»©a
Ġ" ...
ĠF rost
ĠJ W
ĠBH TG
AT E
Ġ38 7
ĠSe ed
Ġ39 1
Ġ49 5
39 4
ĠVer d
PM organ
ĠCit igroup
ĠCli chy
ĠCorn ell
ograph ic
ĠChalle nger
ĠRiv era
ĠSpot ify
ĠKHL CNT
Q N
f us
y ar
z ing
Ġl áº©y
Ġh ong
ĠT ua
ĠT ÄĤNG
ĠPh arm
en b
Ġ5 23
ĠE ld
id is
ĠThu á»µ
ĠZ uma
og lob
ez a
und s
ĠAb by
18 4
ĠPH áº¢I
ans ai
ĠSe ag
Ġ66 6
ĠHen rique
ĠMe izu
nik ov
ĠNorth rop
ĠAB Bank
ĠRuss ian
ĠBrand on
Ġtw o
ĠLLVT ND
Ne il
á¸ ħ
ĠSumit omo
0 25
4 75
K Q
T op
n uá»ĳt
Ġd z
an in
ĠB á»¥t
ĠTh au
ĠM AC
ĠP f
ĠR E
ĠHo ffenheim
Ġ7 27
ĠW orth
ĠNgh iá»ĩn
ĠMan or
ĠBra ga
ĠGu err
ĠFor eman
een ey
its ch
ger ald
ĠLov ato
ĠLen ingrad
tha ek
ĠPap er
ĠNapol Ã©on
ĠBes iktas
ĠThink Pad
ĠGH PG
ĠDrop box
2 99
R M
f ee
áº ¸
Ġch Ã²ng
Ġm á»ĵn
ĠN X
ĠM AMA
ĠL MLM
ĠP J
ĠK uch
ĠX Ã¡m
ÄĲ Ã´i
Ġ6 01
Ġ7 67
ac in
ĠTH ÃģI
ĠPr aty
36 6
ĠFed Ex
ĠDan ube
ĠÃª kip
ĠKu in
gr ess
ĠAI PA
ĠEc op
ĠSus hi
ĠRain sy
ĠDragon s
ĠHav ard
ĠEth ereum
ĠTol land
ĠFO B
ĠSco ut
ĠMaurit ius
ĠPaj ero
ĠBots wana
b á»ķ
l á»Ľn
p et
p ine
Ġs á»Ľ
ĠT ing
Ġr Ã³c
ĠH uá»ĳng
ĠH ern
ĠL á»©a
ĠNg áº«m
au ty
ĠKh iá»ĥn
Ġ6 12
at ta
ol ulu
ĠO c
ur in
ĠEm inem
Ġnghi Ãªp
Ġf ol
ĠvÃ© c
ĠThay er
ĠJohan n
san ne
ĠSap phire
ĠPres ton
ĠBron x
ĠBend tner
exim co
ĠGis ele
ĠBarclay s
R o
c ur
Ġkh Ã¡o
ĠÄĲ Ã²
ĠM AN
ĠCh áº£o
ĠK eng
ĠPh á»Ľc
Ġ8 01
ag ar
ĠMan ning
ĠÃĲ á»«ng
ĠCN Y
16 3
EO N
elli er
ĠTak ah
ĠIns ide
ĠDmit ri
ĠVar gas
ĠTrib une
THA AD
ĠWir eless
Ġeng ine
B G
H á»£p
S il
b Æ°á»Ľc
g roup
h us
m ie
Î ±
qu es
ĠD os
ĠD ier
ĠG artner
01 01
el ius
Ġ8 90
tr an
ob er
TC HQ
Ġf ace
Ġngo e
ĠDu ff
ĠGu o
ĠVal verde
ĠmÃŃ m
ĠGard ner
ĠSqu ad
ĠTit us
ĠConfeder ations
ĠPanam era
B en
D á»ĭch
U p
i h
j as
w ij
Ġ icon
Ġn ail
ĠT og
Ġx á»ĭch
Ġr á»ĳng
ĠB rain
ĠV im
ĠV ary
ĠTh áº§u
ĠM ush
ĠM Ãĥ
Ġdo es
ĠÄĳi ÃªÃ¹
ĠX Ã´ng
ĠF R
ĠJ PMorgan
ad get
ad ezi
ck ey
ĠHy att
15 6
ĠAb neg
ĠCam ille
ĠHon olulu
ĠDai mler
ĠAra g
ĠTrans former
ĠKol arov
ĠhÃª rÃ´in
ĠHM D
ĠNeb raska
ĠTasman ia
ĠNeander thal
" >
K P
M on
N Æ¡i
S uper
V B
m edia
t uy
Ġv á»ĳi
ĠT ib
ĠC á»Ľ
Ġx Ãºng
ĠTr áº¡c
ĠTr ading
ĠS AS
ĠK G
ĠD áº¦U
ĠG overn
al us
ĠI p
li er
ĠSam my
14 7
ĠCat ania
ĠHaz el
ĠGard ens
ĠCook ie
Ġpl ug
ĠKings ton
ĠFitz gerald
ĠMarg ot
D on
b á»©c
o ji
Ð ²
Ġn eon
ĠTr op
áº½ o
ĠA TC
ow itz
Th iáº¿u
hn a
ĠCan al
ĠKH Ãį
ĠPl ato
ĠVer mont
ĠChe ong
ĠPier ce
ult z
ĠRah ul
ĠCons ult
ĠShanghai ist
ĠBron wyn
ĠSco field
ĠMuss olini
ĠAbneg ation
O lymp
S Ã´ng
g al
k Ã©o
l ot
w itz
Ġl et
Ġch em
ĠC ÃģCH
ĠC uddy
ĠS entinel
Ġ( "
ĠQu int
ĠJ edi
ob ic
ĠhÃ´ á»ĭ
ĠSp ock
15 3
ĠVan ua
ĠCu á»Ļi
ĠFab ius
ĠAqu a
ĠAst ra
omi uri
phen ol
ĠGN U
ĠkilÃ´ gam
O ECD
d ez
t ed
Ġv Äĥc
Ġqu áº¯c
ĠTr á»Ľ
ĠCh Ã¡
Ġho c
ĠQ antas
un tu
ĠMar ino
ĠÄĳá»ı ng
ĠZ ah
ĠÃĲ á»ĵng
ĠMich al
ĠSal on
ĠFl ower
ĠHal le
quy áº¿t
str eam
ĠKwak wa
ĠArsh avin
ĠGrum man
ĠPraty usha
G ame
c ong
m aster
u ve
Ġgi Ã¨m
ĠH F
ĠB ek
ch Ã¢u
ĠP az
Ġ( %)
ĠD ash
ĠU FC
iv an
ab it
ck es
Ġmu Ã´ng
ĠVÃµ ng
Ġthe ir
17 3
Ġ37 9
ĠRos icky
55 5
ĠHal ep
ĠYan ukovich
á»Ĵ I
ĠCua drado
ĠSchwarzen egger
4 25
C Æ°á»Ľp
D Ã²ng
m Ã¡u
æ ľ
ng á»§
an an
ĠB ua
ĠTh al
ĠNg á»įa
ĠP uma
ĠK ÃŃ
ĠQ E
Ġ4 28
ĠGi eo
Ġf ri
ĠSu le
18 8
ĠCr ete
Ġam idan
ĠSon ata
ĠFried man
ĠKiatis uk
ĠWer der
VAM C
Æ¯á»ł NG
d f
k it
u ong
x b
Ġb á»§n
Ġm ash
Ġd ep
qu áº§n
ĠH á»ĳt
ĠM á»¥n
em ort
ĠKh Ã©o
Ġ4 43
ĠE is
os is
Ġ18 85
tr Ã²
Ġnhá»Ľ p
Ġ21 00
ĠSh ap
Ph im
ĠNH A
17 7
ĠMat ch
26 4
gh er
ĠLor raine
ĠPul itzer
ĠPos co
ĠCamb odia
L á»«a
u ff
ĠT CÄĲ
ĠH Æ¯ÆłNG
ĠH TD
ĠD roid
ĠE indh
Ġtrá»ĭ nh
ĠY ao
th áºŃt
ĠTH VL
Ġin st
ĠDu o
ver ter
ĠEl is
ĠSc an
ary l
me imim
ĠBur berry
ĠCas e
ĠCÃº m
act ive
vel t
ĠMist ura
: -
C p
D Ä©
O ff
P aris
V á»«a
Ġ è
Ġb áºµm
Ġs he
Ġs hip
ĠC SDL
ĠL Ã¨o
ĠPh en
il an
oo h
45 6
Ġ39 6
ĠHer mann
ĠBM C
ĠTai wan
ĠVol ga
ĠRu á»ĵi
ĠÂ »
ĠOt amendi
cl air
ĠDS LR
Ġex t
Man chester
ĠKath ryn
ĠGund ogan
ĠSess ions
ĠIntellig ence
Ġflag ship
. /
G O
L áº¡c
S EA
d á»ĭ
u j
Ġtr ue
Ġnh Ã£i
ĠÄĲ e
ĠL M
au m
ĠF lo
id ge
ĠGiá» ĳc
ab ase
Th ay
ĠmÆ¡ ÃŃ
ĠSo fit
oc ar
Ġ44 8
ĠDel oit
ĠAss et
ĠPol yn
ĠUl tim
ĠEar nest
ĠPap a
ĠTown send
ĠKN TC
ĠArch itect
ĠAx el
ĠRashi d
Mess i
ĠEindh oven
0 24
G roup
W EF
Ġx á»ĳng
ĠL Æ°á»Ľt
ĠD ot
ĠE ibar
ol ov
th á»©c
th á»ĭt
TT HC
Ġ45 4
Ġ46 1
ĠDani elle
ele ase
ĠSalv atore
MK I
ĠDw ight
along korn
; )-
B TTTT
Ġv ers
Ġth Ã³a
Ġtr Æ°
ĠN CB
ĠM ex
Ġxá»Ń a
Ġ20 40
li ani
lo h
ver se
Æł I
oll um
row s
ĠWe instein
AR S
ĠVer ona
ĠTrans it
ĠRen ato
ĠPay ne
ĠBI áº¾N
ĠLud wig
ĠBlan ch
ĠPanmun jom
4 95
L i
d d
n n
Ã Ĩ
Ġnh á»¥y
Ġkh ong
ĠN Z
ĠH Æ°
ĠM im
ĠL N
ĠS Ã²ng
Ġtá»Ń ng
ad en
ĠVi p
Ġro ad
ĠWorld wide
ĠTu áº¿
ham m
16 7
ĠBer ez
ĠTop ol
ĠHan el
ĠCarl sberg
ĠHung er
lu áºŃt
ãĥ ³
ĠHem sworth
ĠGriff ith
c orp
ĠT ash
ĠP IN
em ann
ĠW ick
Ġo zone
ĠÃĲ i
ĠInter Con
apos H
TN TT
Ġpr es
ĠSand s
ĠLink ed
ĠBK AV
ĠDimit rov
Ġhash tag
ĠVold emort
ĠDeloit te
= .
H K
T p
ĠV áº§ng
ĠV FC
ĠP TT
ĠCh á»Ľp
ĠX áº¿
Ġ13 00
ul us
ĠAl ison
50 5
ĠTS KH
aw are
Ġ38 2
les ton
ett ing
ĠTD H
ĠRad wan
IN ee
ĠÄĲá»Ĳ C
san to
ĠMog ad
ĠThunder bolt
ĠVog t
c áº£i
t it
Ġ Ã¬nh
Ġt Æ°á»£c
Ġt ip
Ġt Ã©c
ĠÄĳ Æ°á»Ŀi
Ġg d
ĠN TT
ÃŃ c
ĠB ÃĢN
ĠD ass
ĠG enn
Ġ4 27
Ġ5 43
ad ou
ĠDN S
ĠSt adium
Ġxo e
ĠCar son
Ġ34 4
int hi
ĠFeder ico
ĠHor ace
ĠKer ber
ĠRh ode
ĠSat urn
ĠLag er
ĠDad dy
Mas dar
Ġjump suit
8 46
n á»Ńa
t uyá»ĩt
ĠÄĳ Æ°
Ġs Ã¬
Ġnh Ã¹ng
Ġkh em
ĠB GDÄĲT
ĠD á»ĵn
ĠF en
ĠF eed
Ġ8 99
Ġ20 26
os uka
ran i
%. /.
CC P
16 6
Ġ47 1
ĠCu á»Ļn
ĠVNA H
ĠDra x
ĠSex ton
ĠDimit ri
ĠPis ci
G h
h ui
h ampton
n it
z burg
Ġc re
an z
ĠB ath
ĠV GA
ĠM á»¸
ĠCh iv
ĠD MC
ĠG b
ĠR D
Ġ4 26
Ġ11 00
20 6
ri b
ess age
ach ev
ĠCr ew
vent ion
ĠPat sy
ĠSon adezi
ĠMang khut
ĠCel t
Ġsp in
bl og
ĠCass ano
ĠLev y
ĠSien a
ĠhÆ¡ p
Ju ventus
2 19
5 45
C Ã¢y
F E
nh Ã´m
Ġk áº¹
ĠN AV
ĠH áº¿n
ĠL á»¤C
ĠL á»ĬCH
ĠK ul
ĠG ino
ĠU SN
ĠR Q
ĠI c
... @
ĠTH áº¦U
ut es
op oul
Ġcan t
ĠHÄĲ BT
Ġ38 1
Ġ05 2
Ġ44 1
ĠJose f
ock et
way ne
akh et
ĠDr es
ĠShow room
ĠHey wood
Ġdr ama
ĠNaz ar
ĠSTA RT
ĠFallu jah
ĠSofit el
" ),
0 65
0 85
F DA
b un
l Æ¡
Ġ }
Ġl áº¡n
Ġnh á»¥t
Ġr Æ°á»Ľn
ĠTh ere
01 3
01 6
el of
Ġso l
Äĳ Æ¡
ĠCon way
Ġp e
ĠSh rek
21 8
Ġ48 6
ien ces
ond e
ĠStr as
ĠDaily Mail
ĠMob il
ĠWe iss
ĠTra phaco
ĠInf o
ĠYam amoto
str eet
ĠKhal ed
ĠNO XH
ĠMoh d
ĠVul can
ĠVanua tu
N B
V FA
q q
Ù Ħ
Ġ ãĥ
Ġd ua
Ġd Ã²i
Ġx áº¡c
ĠV ad
ÄĲ Ã¡nh
ĠY udh
Ġnghá»ĩ ch
ĠÃ´ sin
ĠZ ak
od era
st ra
ÃĢ O
ud in
ĠAle k
nd ers
Ġ43 7
ĠSw itch
ĠRich mond
ĠBre e
ĠLov ren
ĠPhn Ã´m
ĠRev olution
Sp ace
H ung
M D
d ad
s Ã³ng
x Ã¡c
Ġn á»ĭu
ĠN P
ĠN acho
an ti
ĠH utch
Ġ. ...
00 8
Ġ18 89
19 58
ri en
Ġ60 5
ĠDav ao
28 6
Ġ44 2
39 12
ĠSon ia
ĠSom ers
ĠRon an
oph y
ĠAct iv
ĠRow ling
ĠEconom ic
ĠHein rich
2 23
I m
j c
y ing
Ġl Ã¨n
Ġs áº©m
ĠC ac
ĠB TTTT
ĠU PU
ĠR ott
ĠHo sp
os it
tr om
ab lan
ĠJo hor
ĠEd o
Ġtá»§ m
ĠMon santo
ĠSe ine
Ġeuro zone
ĠTho Ã¡i
ĠFI T
ĠWe Chat
ĠBol lywood
ĠPin to
ĠRaj oy
ĠOut lander
ĠÄĲV HD
ĠVel vet
ĠGerman wings
ĠAlc antara
ĠMcM aster
Ab adi
ĠMontp ellier
ĠPisci otta
7 25
N Y
n ick
o el
Ġm art
Ġs Ã©m
ĠC ut
ĠTh ÃŃnh
ĠA Ã¯
Ġchu Ã´i
Ġ9 55
Ġ17 00
ĠRe f
30 5
Ġ39 2
ĠEx per
ĠGeo ffrey
enc ils
Ġcar oten
TE X
ĠGab on
ĠTem ple
Ġmet al
ĠInfin iti
ĠEy es
ĠSha q
Ġcort icoid
ĠOsp ina
ĠMetropol itan
E n
r n
Ġ other
Ġkh á»©ng
ĠH HS
ĠM p
ĠTr ade
ĠL LC
ĠF F
ĠF ighter
ĠJ aw
ĠY omiuri
kh Ã¡c
ĠSer gi
ĠSun shine
ĠId aho
Ġmod e
ĠBá»Ŀ m
ĠGab bana
ĠGot hic
OO OO
ĠVR G
ĠTáºł M
Inter net
SO HR
card i
Ġplut onium
ĠTCH Q
ĠAguil era
L á»Ļc
Ġtr Ã©o
Ġn Æ°
Ġr á»Ŀn
ĠH Iá»ĨP
ĠTh ani
ĠL ass
ĠS Ã²
ĠP ran
ĠD RC
ĠX ing
ĠJ el
ĠEm an
Ġ50 3
ĠLe vi
ent ine
ĠAr bel
Ph oto
Ng he
ĠBe ij
ĠPH Ãļ
26 2
Ġ55 2
ĠVÃĢ NG
ĠTho an
ĠSar ri
ĠNGH Iá»ĨM
ĠIsland s
ĠPy ong
ĠSter n
ĠCre ative
ĠYok osuka
ĠHeath row
ĠBamb ang
ĠMogad ishu
C Ã¡nh
M Ã¡y
c one
d áº¡y
l Æ°u
l ler
p m
r ate
Ġth Ãºy
ĠB CN
Ġmá» Ľn
or ah
Ġ6 27
ĠHo ly
ĠW I
Ġ9 70
Ġtho ai
ou da
og rad
kh áº©u
oy ono
15 7
ans om
ĠMer yl
Ġ43 4
ĠHol iday
att ah
ĠSw ee
ĠMerc y
ux e
lob an
Ġlá»ı m
ĠXh aka
l á»Ĺ
å ¤
Ġ áºŃm
Ġc ase
ĠC over
ĠV ÄĲTG
ĠP rab
ĠU D
ÄĲ P
ov al
ĠMar vin
ul es
19 3
Ġf ac
Ch á»£
ud i
24 8
Ġ47 4
ĠSeo k
pe ed
Ġhu Ã½ch
ĠShi v
ĠNat ural
ĠNe ed
ĠEv ening
ĠBuff et
ĠKas im
BL HS
ĠCay man
ĠLac ey
Camp ina
ĠVD SC
sop cast
Ġbow ling
Vinam ilk
B ab
R F
d áº¡ng
Ġl Ãºi
Ġs áº¿u
Ġg áº±n
ĠC oke
uy t
ĠB áº£nh
ĠV BA
ĠM PC
ao li
ĠL áº§m
ĠS ot
at el
ĠY ves
il ion
ĠMar a
Ġi b
ell an
ĠBe eline
ĠPet rol
ĠLiv ing
ĠHam let
ĠSi am
ĠShi ft
ĠKat rina
ĠRen es
ĠRai sa
ĠAnt io
Ġwhi skey
cop ene
ĠSSC ÄĲ
ĠHá»« m
ĠPentax im
ĠHeyn ckes
' m
l ut
v áº¥n
y ama
Ġph á»ĭch
ĠR AF
ĠF ow
ĠF ight
Ġ8 21
ol t
ĠAn ime
os sa
eb ack
ĠHu bert
ĠVi olet
com b
Ġ35 8
Ġ45 2
ĠBe er
ĠLi eber
ĠEur ow
HC V
ĠSP F
onex port
ĠTem er
ĠAB B
ifi ed
ĠKai ty
ĠKend rick
ĠLlor ente
ĠTac loban
ĠCommunic ations
; ).
N I
N Ã´ng
Y ou
Z A
r ang
á» ªNG
Ġh áºŃp
Ġs ystem
ĠC ust
ĠP ou
ĠK ÃĬ
og y
son eri
ĠInter view
man e
ĠCl an
Ġlá»Ł n
ĠPal u
ĠMor g
Ġst op
ĠMe ir
str om
bro ker
ĠHunt ington
ĠDown load
Ġcos play
ĠMadd ox
obor onexport
ĠEcop ark
l la
Ã Ĺ
Ġs ite
ĠT ate
ĠTh ames
ĠTr ident
ĠL Æ°ng
ĠPh á»©c
im ura
ing a
and y
av ong
Ġxo Ãłng
iz ed
ĠAP A
ĠEn och
ĠHam ad
he in
Ġser ie
ĠNik ita
esc ott
ĠJay sh
ĠElectron ic
ĠSpec tre
ĠĠĠĠĠĠĠĠĠĠĠĠĠĠĠĠ ĠĠĠĠĠĠĠĠĠĠĠĠĠĠĠĠ
ĠPyeong chang
ĠInterCon tinental
ĠT eng
ĠS OM
Ġtá»ī m
Ġ9 46
ĠVi e
amp lus
Tr á»Ŀi
eg i
ĠTR AN
Ġ43 1
ĠMin er
ĠLang uage
ago za
ĠSteph an
Ġyour e
ĠDI G
ĠEdin son
B us
K CX
b á»ĳt
d oc
i Äĩ
Ġk aki
ĠN CC
ĠC áº¦N
ĠM ev
ĠP ull
ĠG ore
ĠPh Æ¡i
Ġ- ----------------
ÄĲ L
ÄĲ áº·c
ÄĲ Ãłm
at hip
ĠcÅ© n
ĠTT XD
LÄĲ LÄĲ
ĠMal ibu
Ġ36 9
ĠKH TN
Ġ38 3
Ġvá»Ł n
ĠChar li
ĠRobert son
ĠDel aware
Ġam oniac
ĠKe ita
ĠTak ashi
ĠMA X
ĠPass port
ĠPray ut
ĠYuk io
ĠSta ff
ĠÃĵ c
ĠSchum acher
C uba
g ol
l inh
y ou
ĠB CC
ĠB ouch
ĠB áº¢NG
ĠM av
ĠM aha
ĠP ut
au sen
ĠD ill
01 9
Ġ7 11
is io
os port
Äĳ á»©a
ĠZ ack
15 1
ĠSu isse
ail les
26 3
Ġ65 7
ĠDon ovan
ĠHum ph
ĠKey lor
Ġpoly p
ĠKL F
Ġmil ig
fri end
7 68
n Äĥng
Ġn umber
qu Ãªn
ĠH áº»m
ĠV WS
ĠM ino
Ġho Ã¡c
Ġra Äĳa
ĠW ear
ui r
Ġ18 88
Ġw ord
ĠbÃŃ m
ĠNG A
ĠAlex a
ĠWal ton
ĠbÃ¬ u
38 5
ĠFrank enstein
ĠBur j
ĠRuss o
ĠMend oza
ĠCot ec
upol ev
ĠAlph abet
Ġring git
Ġdop amine
ĠRadwan ska
ablan ca
E NT
V EF
b ian
ĠÄĳ áº«y
Ġv am
Ġch á»ım
Ġs elen
ĠT CB
ĠC ER
ĠH áº¬U
ĠV Ã²m
ĠG CC
os ology
Äĳ á»ĳn
og ram
Ġ45 3
ĠOb ser
ĠDe al
ĠPC X
ĠIm ag
ĠMag uire
ĠFre eman
ngh iá»ĩn
ĠPetro Times
ĠLind sey
ĠPag ani
ĠManu life
6 25
N Ãłng
p yeong
Â £
Ġt au
Ġth rough
Ġnh áº¡nh
Ġd ev
ĠTh inh
ĠL al
ĠL ens
ĠPh r
ĠPh áº«n
ĠR á»§
or row
el et
Ġ18 86
23 8
ĠVin ce
ĠGr one
ĠOn odera
ĠCT XH
ĠGe Force
Ġup date
ĠBall ack
ĠYoo chun
ĠGrig or
jic ic
ĠBÃº k
b áº©n
Ġg uá»Ļc
ĠC CC
ĠM Æ°Æ¡ng
ĠS lo
ĠD wayne
ĠPh om
im ar
ĠI EC
ÄĲ Ã´
ĠY ears
ĠAn y
ĠAd uly
ĠTw ilight
sh in
ÄĤ CN
ĠTHU ÃĬ
ĠHot ch
ĠMah al
ĠAD MM
ĠCong ly
ĠCour se
ĠChur kin
ĠSlav yansk
ĠKais er
ĠFriesland Campina
Ġtom boy
ĠYudh oyono
0 95
3 15
5 95
B el
N PT
R V
r ÃŃ
y un
Ġtr á»ĳ
Ġg Ãły
ĠT upolev
á»ĳ k
ĠN ero
ĠL ik
ĠS Æ°á»Ŀn
ĠK A
ĠK ik
ĠD ent
ĠG est
ar est
ĠI st
at ur
ad ia
Ġp eople
ĠKH ÃģCH
ĠTR Ãį
ĠKT XH
ye h
Ġbá»ĩ ch
ĠRock et
ĠVu jicic
ĠFal k
ple x
ĠMand y
ĠTrip le
fo ot
ĠCarn ival
ĠHau te
ĠTE PCO
Ġgall on
ĠLub itz
ĠGuerr ero
L Æ°Æ¡ng
M áº¥y
V VN
W hi
h al
y r
Ġn aked
Ġg uy
Ġd áº¡c
ĠN asser
ĠH KD
ĠB áº©y
am u
01 7
or ity
ĠW ed
ĠTH á»¨
ĠLe andro
iv ik
ĠAl vin
op ter
ĠAS C
Ch Ãºc
ĠSong k
ĠGu itar
ĠSch ultz
ĠFor um
eth ao
ĠBur ns
ĠKo fi
ĠDow ney
ĠLind elof
ĠFuj itsu
mers ant
ĠBlan co
ĠAzz urri
ĠBark ley
ĠAduly adej
0 28
0 48
A FC
D Å©ng
Ġm ov
ĠB auer
ĠK W
Äĳ Ã´n
Ġ50 6
Ġ50 7
ĠHai der
Ġa way
ĠMy an
ind o
ĠRo und
18 7
ĠMau te
bor g
Em dep
ĠPri ze
ĠSor os
ĠVoy ager
ĠGrone velt
\ \
k á»·
n Ã©
n ell
Ġkh uyá»ĥn
ĠB Ã³n
ĠB áº®T
ĠÄĲ á»ĳp
ĠK wan
ĠD IC
ĠG ob
Ġ4 78
Ġ5 13
ĠX A
ĠW iz
om ing
ĠAm os
tor m
ho Ãłng
ĠJu ergen
eng en
Ġ39 7
ÃĤ m
Kh Ã¡m
int age
ĠVer ge
ĠDen ise
ĠPetro Vietnam
ĠFall s
ĠUSA ID
ĠBox ing
ĠZar agoza
ĠOct avia
ĠAmbros io
ĠKod ak
ĠArbel oa
H iá»ĩu
Ġ il
nh áº¡y
ĠV od
ĠS Æ°u
ĠP Ãª
er c
ag n
Ġp anh
SN A
23 9
ĠCá»¥ t
NT D
Ġâ ĪĴ
ĠMon itor
Ġ43 6
ĠJack man
he im
ĠThan os
ĠJun su
ĠGod in
ĠIndustr ial
ĠDora emon
Ġos in
ĠNSD LÄĲ
S he
h ou
k as
Ġv Ã³i
Ġk a
ĠÄĲ á»ĳ
ĠL Ã³t
ĠL Ã¨ng
ĠÃ Ħ
Ġ5 32
Ġ6 21
ĠF ine
ĠF AT
ac ci
Äĳ Ã²i
ĠSt age
ess es
18 1
ĠAd nan
ĠCor vette
ÄĤ n
ĠIV S
ĠComp act
ĠGra z
ĠLim ousine
ĠMetro pole
Ġdis play
Vietin Bank
acet amol
3 95
P ort
m á»¹
t us
¢ I
Ġt ell
ĠC tr
Ġx Ãºp
ĠB áºµng
ĠÄĲ ÃĶ
ch áº¯c
ay ak
ĠS Ãłnh
Ġlá» Ľi
ĠR á»Ļng
ĠQu Ã©t
ÄĲ á»ĭa
ĠW hoa
ĠLan a
Ġ60 9
az ir
XH TT
ĠMo ong
ĠKur z
Ġson ar
ĠCos m
ĠÂ £
ega ard
ĠOl sen
ĠGil les
ĠMem orial
ĠKob ani
ĠEss ien
ĠLeop old
ĠGriff in
Ġol ive
ĠCá»¬ A
oglob in
opoul os
K at
N á»Ļi
Ġk H
ĠN il
ĠC á»į
ĠTh Ãłng
eo m
ĠD as
ĠG n
Ġ5 21
ÄĲ á»ĭnh
ĠF aisal
ĠHu oai
Ġp at
Ġf un
Ġf ollow
ĠDi jk
Ġ43 3
ĠRos soneri
ĠLou vre
áº® N
ĠGood ison
ĠDynam ics
Ġmel amine
ĠFum io
ĠPhapluat plus
ĠParam ount
ĠÃĻ n
' +
m our
Ġc á»¥ng
Ġb lo
Ġm eet
ch Ãłng
ĠL R
ĠL iÃªng
ĠCh uá»ĵn
Ġsá»Ł n
it te
Äĳ á»§
se in
ĠLo ay
hn y
ĠAg n
ĠHam mer
ĠDr ac
ĠBre ivik
Ġlog istic
ĠSamp aoli
inthi ans
M Ãły
c lip
n á»£
Ġl ittle
Ġs axo
Ġx Ãº
ĠV DC
ch á»įn
ĠS Ã¡i
ĠA TA
ĠD á»ģn
ÄĲ á»Ĺ
et ri
Ġ7 65
ly cer
Ġngo áº¡m
sk oy
apos d
ĠTam iflu
ĠTC TC
ĠDong ABank
ĠHor se
ĠVas ily
ĠJoa quin
E ver
I l
g ari
n is
Ġch á»ĩ
Ġnh áº»m
ĠN YT
ĠV AFI
ch inh
Ġngh en
Ġho use
ĠA W
ĠD uÃ¢n
ĠI G
ĠHo ur
le h
19 1
est ra
17 9
29 8
Ġde ad
ien ne
ĠVang a
ĠFred die
Ġor ig
ĠUBTÆ¯ MTTQ
ĠEconom ics
ĠMedic ine
ĠAdd ison
ĠHep burn
Ġdet ox
ĠSkr tel
K TN
b ull
Ġch erry
ĠV ick
ĠM ie
ĠS ÃģNG
ĠQ W
ĠG TX
Ġcáº£ u
er co
Ġ6 13
Ġf ont
kh á»Łi
ĠAm ur
38 8
ĠShin ji
br as
ĠAlb u
ĠPhone Arena
ĠRain bow
ĠPepsi Co
ĠGat eway
ĠAless andro
ĠYoshihi de
I ON
S áº¯c
k et
s chool
ng u
Ġch ar
01 4
ĠKh áº¥u
Ġ6 18
ĠE R
op Mart
ĠbÃŃ p
Ch ia
ĠTo a
áºł C
ĠStr ong
ĠCor rea
ĠBern ardo
ĠBor gia
ÃĻ Y
ĠInn ov
ĠDI FF
Ġláº¹ m
ĠiM ac
ĠScandin avia
ĠCHáº¤ P
ĠBeij ing
D uy
l iá»ģu
l ÃŃp
o en
t ur
ĠK eller
ĠD zh
ĠÄĳi a
Ġ4 46
ĠX R
ĠI cardi
ĠHo over
Ġ7 99
it ung
NH CR
ul ation
ran a
ĠAr un
ĠPV comBank
our t
Ġsá»ķ ng
ĠPr ide
ĠSp in
ĠSu ite
ĠCr escent
ĠPl as
16 4
ĠÄĲá» ĮC
ĠnhÃŃ p
ĠMu kh
Ġá»¨ c
ĠFl ag
ĠBern anke
ĠSoc rates
C áº·p
E Y
P ak
c á»ĳc
g re
v iv
w ara
Ġqu áº«y
ĠN um
ĠN acional
ĠH uss
ĠB Ã¬
Ġngh á»ħ
ĠL Æ¡
ĠL áº·n
ĠK iÃªng
ĠA EON
ar el
ĠU PS
ic le
is mo
Ġgh Ã¬m
od ar
kh an
az iz
Ġ80 8
ĠSam d
ĠAm p
ĠPal mas
ĠBo oth
Ġ39 4
Kh Ã³a
Nam ara
Ġoxy tocin
ĠKS V
ĠShar ma
ngh á»ī
ĠGro ve
ĠSyl via
Ġpp i
ĠGel eximco
ĠLanc aster
ĠAdren o
G CN
W eb
X L
h ear
ng on
Ġtr Ã¡p
Ġn iken
Ġd im
Ġr Ã¡i
ĠV est
ĠI TC
ĠE ul
le one
Ġca po
Ġin fo
30 3
Ph Ãºc
CS ÄĲT
Ġ37 4
ĠMiss osology
ĠTHA Y
ĠSand wich
ĠBrit ann
ĠIsab elle
ĠEthan ol
ĠSpar row
: ...
D E
O B
c Æ¡m
j er
k Ãªu
m á»įi
n á»ģn
w alt
Ġc lorua
nh á»ı
Ġv intage
Ġn Ä©a
Ġd Ã¡i
ĠC um
ĠV á»Ļi
ĠV ac
ĠTr Æ°
ĠTr istan
ĠNg áºŃm
ĠCh Ãłi
ĠD Ã¡n
Ã© l
Ġy ears
Ġtu á»ģnh
ĠGi z
ĠF aw
id ong
ĠVi chai
Ph ÃŃa
23 1
29 2
ĠNa uy
ĠSal es
Ġ64 1
ĠKy ushu
ush in
eld orf
Ġ= >
ĠGe um
ĠMichel in
ĠUm t
cul us
ĠWas p
Ġcons ole
Ġhel p
BVH TTDL
L H
c id
f red
n ip
Ġ Ø
Ġc ass
Ġl Ãºp
ĠT Ãļ
ĠS edan
ĠG F
ĠY von
TT Y
eb es
ut ure
ĠMai dan
Ġxu Ãª
Ãģ M
ĠDi et
ĠCol een
ela ar
ett ie
ĠNV H
ĠNav ara
ĠDor othy
ĠCorn wall
ĠElli ott
ĠHarm ony
ĠEurow indow
4 45
n uÃ´i
Ñ ı
Ġg á»ıng
ph ar
ĠN Ã¢u
ĠTh ir
ĠD OS
ĠD AR
em s
ĠX ÃīT
ÄĲ D
at ov
it ra
ĠSt ill
st and
ĠHCM C
22 9
CS T
14 6
OS AI
ĠMich ele
yl en
ĠTel ev
arao n
ĠSin clair
ĠJav i
Ġmá»§ i
ĠID ICO
Ġpro g
ĠImp erial
ĠProduc tion
ĠEk ater
ĠPHI áº¾U
M ac
m Ã¬nh
Ġ und
Ġs á»¥
ĠTh ur
ĠM Ã£nh
ĠNg áº«u
ĠK re
ĠD Ã¬n
Ã© e
ĠR ED
ĠPhilipp in
AM G
ĠMer lyn
ĠNS UT
ĠAg ni
EU R
ĠBad en
ĠLag os
ĠVil anova
ĠCourt ney
ĠPom ina
ĠWolver hampton
Ġchamp agne
ĠDrax ler
O OC
d áº¥u
k awa
o Ã³c
p art
Ġ aco
Ġ ult
Ġc áº¯c
ĠÄĳ on
Ġr Ã¹m
ĠB aba
ĠTh á»ķi
ĠM IC
ĠP iper
ĠNh á»©c
ĠE id
ĠJ D
il and
Ġp oker
Ġcan Ã´
Ġ60 3
ĠBr aun
Ġxo áº¡c
ĠLam b
ĠHe f
Ġ46 7
ĠVan ity
ĠCor leone
Ġ78 45
ĠSL S
ĠVer de
fo und
ĠGIá» ľ
ĠVers ailles
ĠDynam ic
ĠClay ton
tho Ã¡t
ĠEvery thing
S mart
S outh
d n
p ÃŃch
x á»ĭn
Ġ áº»o
Ġk ip
ĠB á»Ľt
ĠV au
ĠL Ã¨n
ĠL ola
ĠA is
ĠGi anni
or te
ĠF ico
ĠbÃł u
os ta
ra j
Æ°á»¡ n
tr ue
Äĳ áº¯t
Ġi phone
son s
ĠUn ai
80 4
ĠRos oboronexport
ĠBel ize
ĠKam al
ĠTrust Bank
ĠVis ual
ĠCáº¢ NG
xra en
ĠvÄĥc xin
5 75
J ack
L á»±c
b ee
n ier
ĠT MT
ĠT ÄĤCN
ĠR aven
el ope
Äĳ d
pp s
apos S
ĠMay bank
ote ch
KH Q
LC L
ĠMus a
ĠMel o
ĠMot ion
ĠAh met
ĠYam aguchi
br ella
ĠAug us
HÄĲ BA
ĠBarb ados
ĠNut ifood
led ge
ĠBle us
cli ffe
ĠCyn thia
j ir
m eg
Ġ ir
ng o
Ġn á»ĵm
Ġph á»ħu
Ġr eb
ĠM áº¯m
ĠTr ot
ĠL ob
ĠL oth
ĠS atra
am en
ĠÄĳá»ĭ u
im edia
th á»ķi
Äĳ Ã´ng
ig ne
op al
Th áº§y
ĠBar th
ĠMc Namara
Ġ49 3
ĠGre ene
ĠCap ita
we ir
aba ab
ĠAug sburg
ĠRand all
ĠBA Y
Sc ript
ĠUb untu
ĠSY M
ĠMonter ey
ĠLinked In
ĠUmt iti
T áº¡m
f ighter
h wa
Ã ®
Ġt ar
Ġh ard
ph Ã³
ĠC uri
ĠB ebe
ĠÄĲ NA
ĠG Ã¡c
Ġy o
ĠQu est
Ġ18 40
one er
eb a
ĠSt ro
Th iáº¿t
ind ex
ĠVietnam Plus
ĠBen tham
ĠLam ar
ĠPer se
yl l
Ġ64 9
Ġbl u
ĠBol shev
ĠDani els
ĠVir gil
ĠRub en
ĠDig i
ĠGuill ermo
ERT Y
ĠVent ures
ĠSign al
ĠVINAS AT
3 22
7 35
A TVS
A DIZ
P ark
S Æ°
c co
n ow
w ai
x ter
ĠÄĳ Ä©nh
Ġnh á»ħ
ch Ã©m
ĠS Ã³t
ĠS oth
ĠK Ã´n
ar ab
ĠY HCT
le en
Ġ18 97
Ġ100 00
ĠVN S
ĠVN CERT
ĠMat u
38 3
Ġinch es
Ġcar o
ĠMot ta
yn c
ĠWat an
ĠMill ard
ĠBP CK
Ġngá»« i
Ar thur
Ġad d
ĠFe el
áº¶ C
Bar ca
ĠDH L
ĠAlm az
ĠMcA fee
ĠCTM T
0 43
H uyá»ģn
Î ¿
Ġr áº¯t
ĠV áº¤N
00 9
Ġkhu á»µ
Ch áº³ng
Tr Æ°Æ¡ng
Ġ45 1
ĠMon real
27 7
Ġ46 6
ĠAngel o
ĠSw iss
ĠAss istant
ĠNav i
ĠGun n
Ġad ren
ĠRui z
Ġgd td
0 35
B ush
H Ã³c
N L
T hi
Ġ Ã¢y
Ġth Ãºt
ĠC Ãºng
ĠTh eron
ĠTr áº§u
el es
ĠF os
Ġ18 68
tr Ã¹m
ĠHu da
ĠVi Ãªt
Ch Ã¢n
ĠAP C
ĠChr onic
ĠSch engen
ĠGo h
ĠBrid g
ĠCle an
ĠBird s
Ġcor ona
ĠJew el
Ġchá»ħ m
n amplus
s pot
Ġb eo
Ġtr áºŃp
Ġng áº¥p
ĠT ennis
ĠH á»Ŀ
ĠNg uyá»ģn
ĠA IS
ĠR Ãºp
es p
ĠW ool
ad es
ro yo
ist el
ĠNew port
ck e
ID A
Ġ46 4
37 7
ĠUl tron
Ġmake up
ĠCBCC VC
ĠSpart ak
ĠWheel er
ĠQLÄĲ B
ĠBolshev ik
F in
G áº§n
Y C
j our
n ah
Ġl at
ĠT il
ĠC Æ¯
Ġgi áº¯t
ĠL D
ung e
ĠK bang
ĠG á»¥
ĠR Ã¬
ĠI EA
ĠJ J
... );
ot ov
Ġp rop
ĠPr as
ashi r
45 8
ĠEl la
ĠMon key
26 9
ĠMer ry
ĠEx t
ĠCor ona
ĠAN CT
ĠBur ger
agh er
ĠLar son
ĠNep t
ĠFul ler
Ġ{ {
ĠKom mersant
ĠJoan na
ĠMiy agi
ĠCly de
ĠAdvent ure
ĠSymb ian
3 18
H er
P er
V SA
Ç µ
Ġb á»¥a
Ġm Ã¨n
ĠT owers
Ġd ate
ĠN PT
ĠN TP
ĠH ipp
ĠNg oc
ĠP ine
ĠG W
ĠR á»¥c
Ġ5 16
ĠI xraen
ĠF OR
ĠJ SC
Ġ8 44
Ġ9 17
Ġ12 80
th Æ¡
Tr áºŃn
25 1
25 2
25 7
ĠCam aro
ĠTR ANH
ĠPal au
ĠSH N
ĠPaul inho
ĠBur undi
ĠGad hafi
ĠCab all
ĠPow ers
ĠIz vest
Ġsap phire
ĠKrug er
0 45
T ÃŃnh
f ps
Ġt ext
Ġch iá»ĩn
Ġm Æ°ng
ĠN usra
ĠC Ã´i
ĠC ic
ĠL á»³
ĠS PC
ĠP Äĥh
ĠK ansai
ĠG Q
ĠR á»ħ
ĠHo ok
Ġ7 43
ĠJ PA
th ai
ĠTH ÃĬM
ĠVi va
Ph Æ°á»Ľc
35 7
ID O
46 9
ĠEuro Cham
ĠTy r
ĠWat ers
aint ing
ĠJess ie
Ġwe ek
Ġtur bo
Ġmal ware
Ġflav onoid
Ġaco ustic
H Æ¡n
l áºŃp
m uá»ĳn
t á»±a
v ila
Å Ł
Ġtr áº½n
ĠN ung
ĠN Æ°á»Ľng
ĠM áº©y
ĠTr ack
ĠS uss
on don
ĠR Æ°á»Ľc
ĠF ate
Ġ9 21
ĠKho Ã¡t
ak ami
ĠCon an
ĠÃĲ áº¡i
ĠPV FC
Nh Ã³m
ĠGl azer
ĠCor inthians
ĠDel aney
Ġsi ro
ĠPen elope
edd ing
ĠKien long
ĠShaq iri
ĠMatu idi
L Ãłng
V á»ĭ
s Ã´ng
Ġc rom
Ġm á»į
ĠG raph
ĠR oo
ic illin
ĠW ig
om ics
ĠO sen
19 7
Ġro ot
ĠHar lem
ĠÄĲá» ĸ
36 8
ann is
ene uve
chi ro
ĠChan athip
ĠFre ud
ĠAlm eria
Ġdiez el
ĠKand ahar
5 000
C TT
M ong
j ack
p ton
Ġv er
Ġk et
Ġx áº¥c
ĠV áº¡ch
ĠP azzi
Ġkho áº¯ng
os ity
ir am
ĠRe ap
Ch áº¡y
ĠAs o
25 4
40 6
78 5
ĠÄĳá»¥ n
ke e
ĠTop care
ĠAN ÄĲT
ĠLang ley
fe ed
ĠPen ins
ĠCoun cil
ĠHim mler
ĠBeat rice
ĠPav ilion
ĠDang da
ĠLL TP
3 99
T Æ°Æ¡ng
T á»ĳi
c ook
x áº£
ĠT ÃģI
ĠN ul
ĠN EC
Ġr á»ĭn
ĠV á»©t
anh a
ĠL áº£i
ĠCh Ã´n
ĠI zz
as is
it our
ne ct
Ġf ind
ĠAr am
Ġw ater
ĠBar i
ĠHar a
ail break
27 4
Ġ39 3
Ġ46 3
uz z
ĠCT R
ĠSol utions
Ġup load
Ġgo ing
ĠRai der
ĠNem o
ĠEp ic
Bl ue
Olymp ic
F PT
Q U
e uro
h all
m ash
m Æ°á»£n
Ġl eng
Ġs á»§
Ġr etro
ĠB Iá»ĨT
ĠK een
ĠA id
Ġtu k
os ur
20 7
19 6
ĠCan t
aw y
17 2
16 1
ĠMau ro
ile e
ĠPat ty
kov sky
St encils
Ġsp am
ĠDeb orah
ĠPre c
Ġblue chips
ĠHidd leston
ĠDead pool
ĠBren da
ĠLieber man
c Ãłnh
t á»Ŀ
Ġv áº±ng
ĠC TS
Ġr á»įt
Ġr over
an es
ĠB Ã¹n
ĠM áº§u
ĠM á»Ŀ
ĠNg an
ĠP aw
Ġ6 28
ĠY ank
ro oy
Ġ18 65
Ġp lat
Ġp oint
ard i
ĠBar ron
ĠBr ett
Ch ina
sen ko
ĠAm al
ID IA
Ġco ca
ĠBo on
Ġ48 3
ĠHol t
ĠMu á»Ĺi
ngh á»ģ
ĠClar ence
ĠReport s
ĠFai th
ĠMagn us
osp ace
ĠBuch arest
ĠPolit ico
Vit info
Ġsaxo phone
ĠQW ERTY
( ?).
3 12
L á»ĭch
M Ã´i
T ype
b Ã¡
d at
m ware
Ġ ~
Ġ ent
ĠN istel
ĠH ER
ch elles
ĠS áº¯n
ĠG ym
ĠG ollum
ĠJ CPOA
ĠO us
ĠIn quirer
re cht
ĠÃĲ Ã¡ng
ĠTin na
27 3
Ġ43 8
Ġde f
Ġhot line
ĠEs ther
LA C
ĠWin chester
ĠHK VN
ĠMatth ews
ĠShaw n
ĠWy oming
ĠEther net
ĠLeh man
8 28
C Æ¡n
H an
L an
u u
v ay
y to
ĠS Ã¡c
ĠP ry
ĠNh áº¥p
ĠG TB
er ve
ĠF y
ĠY Ãªm
Ġghi ta
Ġa er
19 56
ĠBar on
45 5
ĠMad ame
ĠBe ats
ĠTR Æ¯á»ļC
Ġ48 9
ĠHD D
ĠHer tha
ĠRam i
ci us
ĠNat una
ĠInf antino
ĠTO E
ĠHig gs
Ġop en
ĠMb ps
ĠBey ond
ĠAlfred o
Ġkar ate
ĠDistr ict
ĠKens ington
ĠHyd ra
C oM
V al
c r
x Ã´
Ġv Æ°
ĠN ish
ĠC áº©u
ĠV ille
ĠL uá»Ļc
ĠS ia
ĠG oto
ĠY arm
Ġ? ,
ig en
ard t
ĠAm a
ĠAm en
ĠAb ig
27 6
ĠBo hem
ĠLib ert
ĠSH I
ĠOr der
ĠKy u
ĠGer v
CA O
ĠNV IDIA
ĠBor a
ĠNik ola
Ġphen ol
ĠMidd le
Ġâĸ ł
ĠOlimp ico
m Ãłn
Ġt Ãªnh
ĠT att
Ġd Ã¬a
ĠN INH
ĠN LD
ang elo
ĠA ust
ÄĲ X
ĠJ A
ĠLan cer
Ġ100 1
ĠCon ference
Ġi Hay
ĠBar ros
16 9
ram bler
Ġ47 3
Ġ49 2
ĠTTC N
ĠMP V
Ġkhuá»µ u
) ",
4 15
G Æ°Æ¡ng
t iáº¿t
Ġc ello
ĠT Iá»ĨN
ĠT á»ĲI
ĠC ert
ĠK rai
ĠD Ã¢m
Ġ5 26
Ã¨ ne
ĠF L
ter son
Ġp al
ĠSa ad
ĠAir line
ĠBe a
Qu Ã¡
Ġ55 8
IS E
Viet lott
Ġ54 9
ĠBlack pool
ĠIb ar
ĠDem ba
Ġje ep
ĠBat ista
ĠPower Point
ĠNash ville
Ġ790 3
PN J
. -
n Ãºi
o um
v ara
y neth
Ġg lu
ĠN ico
ĠS akh
ĠP RO
ĠPh iÃªng
ĠKh ab
Ġ5 18
ĠE PL
ur ch
Ġ' .
ĠHai r
ĠGD KHQ
17 4
ĠSer i
28 7
29 6
ĠMc F
ĠMed ina
ĠDO HC
ĠSub ic
ĠSor ento
ĠNM ÄĲ
ĠIz umo
Ġrup iah
ĠLá» ¢I
ĠArag orn
ĠHosp ital
ĠEman uel
ĠNistel rooy
C ienco
H g
K K
U NESCO
c á»©ng
Ã »
Ġ á
Ġc Ã¡y
ĠCh app
ĠÄĳÃ³ t
ĠQ ing
Ġdo mino
ter y
ĠDo o
ria h
ĠSh een
ĠTa hi
gh en
Ġ66 1
ĠFernand es
ĠSD ÄĲ
Ġcl ass
ĠDream liner
ĠJohan na
ĠDra g
fl ot
Ex imbank
ĠRamir ez
ĠStep an
ĠDok do
ĠBik ini
ĠStrateg y
ĠIllustr ated
ĠDres den
7 65
P SG
l Ã½
w C
Ġtr Ä©nh
ĠT ec
Ġx áº§m
ay o
ĠP all
ĠA im
Ġan n
ĠX áº©m
ĠF lip
Ġ7 15
ĠJ T
ĠJ AS
is ch
th á»Ń
ap at
ĠEm erson
ĠAl aba
Ph Æ°á»Ŀng
ĠCS M
Tr iá»ĩu
ick et
ĠRo ja
ĠPal t
Ġ49 7
ĠStr ike
ĠJon ah
ĠSin skey
Ġvo ice
ĠPy i
ĠNak amura
ĠBA E
ĠBamb oo
ĠWatt s
ĠSamd ech
Ġult rabook
8 35
@ ...
S ung
d os
s am
s ol
t áº¯t
x Ã³a
Ġh Ã¡u
Ġch Ãłnh
Ġm id
Ġnh Æ°á»Ľng
Ġd ello
ĠC Ã³c
ĠB im
ĠS iv
ĠP GD
Ġchá»ī a
Ġ6 11
Ġnghá»ĭ u
Ġ18 93
12 00
NH TM
Ġp iston
ab o
Ġf ood
ĠCl ose
ass i
ĠAle c
27 2
ĠHe ard
ĠGlobal GAP
ĠMarc ia
Ġpl astic
ardy ce
ĠLev ine
ĠSey chelles
ĠPriv ate
ĠMobi istar
Ġqu Ã¬
ĠV TB
ĠM eet
ĠL iá»ħn
ĠL ines
ĠK ac
ĠF ad
ne v
ĠSh r
ank o
gi áºŃt
ĠAP G
ĠSch ur
ĠCor in
Ġse quin
ĠBrad y
ĠKa f
aro und
ĠSur in
ĠIns pir
cc ess
ĠMen u
VP F
ĠNathan iel
ĠDL G
Ġshort s
ĠKov al
ĠGeorg ina
ĠSJ S
3 38
5 65
; :
H ÄĲH
T an
h Ã´
p al
s n
Ġch áº¡ch
Ġnh Ã³n
ĠT á»ĬCH
Ġr Ã¡
ĠS NG
ĠR itz
ĠE AS
ĠE gg
iv ing
30 8
ĠPar thia
Ãģ P
60 5
78 7
ĠCam el
ĠEl ise
ĠQU Ãģ
ĠQU ÃĤN
ĠJu pp
ĠSch ae
ĠSal em
sh ot
ĠNov gorod
ĠRes ources
ĠKir ch
ĠAT K
ĠLÄĲBÄĲ VN
ĠRai ola
ats by
ser ies
ĠCer ato
Ġpic nic
ĠEug en
ĠNeg redo
adol id
Ġâĸ ¡
ĠVern on
8 75
S an
ĠT áº±ng
ĠNg á»¥c
ĠCh lor
in ic
em dep
áº¹ c
es lam
or sky
ĠF ry
Ġ8 25
Ġto o
ĠAn ita
ĠCon nie
ĠAl me
ĠCar ra
ĠBl as
han a
end ing
ĠMo ut
ĠMil lion
ĠPal awan
ĠBo ca
28 3
ĠHe aven
Ġ75 5
di um
Ġ56 2
ÃĮ N
ĠXi ang
ĠDol ores
Ġmet an
ĠRep orter
ĠIndustr y
ĠBO G
aug hn
M bps
O DA
U EFA
h un
Ġ ê
ng á»±a
ĠTh ÃŃt
ĠP LC
ĠK ona
ĠA kin
ĠJ O
ak ers
Ġf ake
ĠInter con
ĠJohn ston
ĠMo an
Ġ39 8
ĠStr ath
37 2
ĠGo uld
ors et
ĠCas ablanca
ĠGÄĲ ÄĲH
ĠRay o
ĠAR A
ĠFred dy
ĠUm brella
Giá» įng
ĠFant astic
ĠOak land
ĠLukash enko
Ġfol ate
ĠRenes mee
7 43
C á»§
E ur
S abeco
b Ã´
g ed
t á»ī
t aka
Ġ Ì
ch Ãło
ĠD ate
Ġ6 85
Äĳ Ã¡p
av aro
ĠRe ader
ĠMy c
ĠCar rera
ach a
ĠLib er
Ġ49 8
ĠKar atedo
ĠCB NV
ĠTho ong
ĠAll ardyce
ĠGÄĲ KT
ĠPle i
ĠTrans erco
ĠVall adolid
Ne ill
5 12
; =
E W
b lo
ng Ã¡o
Ġv aly
Ġh ar
Ġb ob
Ġm un
Ãª á»§
ĠT á»ĳp
ĠT DC
Ġd á»ģnh
ĠC ate
ĠH ampton
ĠV ine
ĠV á»Ľt
ĠL K
ĠL Ã¡o
ĠK DL
ia z
áº¹ m
or ama
ĠO H
ĠBan non
Ġ18 16
up ta
19 4
Ġngo áº±ng
ĠTT r
GT GT
ib urg
36 9
ĠNhu á»Ļm
by on
ĠSk yl
ĠTI ÃĬN
ĠFr itz
ĠWeb er
ĠRog ue
ĠMand arin
Ġpro file
ĠJen sen
ĠPres ley
ĠKoh l
ĠTsar na
ĠAbig ail
U L
b uá»ķi
c ova
m áº¡ng
m á»Ľ
m ah
t al
x t
Ġs earch
ĠN ue
an za
ĠTh em
ĠS ele
am on
ĠNg áº¡i
ĠP ino
on ment
ĠPh iá»ģn
ĠI nh
Ġ6 16
th uyá»ģn
Äĳ á»Ļt
ig ale
ab les
ĠSh ab
Ġphá»ķ ng
Ġhy d
ĠDe h
ĠCo c
26 6
ĠMer rill
ĠSal a
Ġ47 9
ĠWind ow
ĠGar ner
ĠMus udan
ĠFeder ica
so Ã¡i
ĠLex ington
ĠPra v
ĠBall mer
ĠGhan i
ĠBoliv ar
ĠNetwork s
ĠVL N
ĠSig urd
ĠWork s
ichel is
riz io
ĠFrances ca
ĠTRUY á»ĢN
ĠSvet lana
ĠCtr l
ĠYvon ne
Ġ{{ {
3 46
5 25
7 47
M DB
l Ã´m
p to
ĠC LC
ĠC EP
ĠÄĲ áº¯t
ĠM Iá»ĦN
ĠS áº¿n
ĠS MC
ĠD art
ĠG azz
ĠU i
ĠX C
or in
Ġso met
Ġ7 01
Ġ18 48
li v
ĠAr royo
Th áº¥y
ass in
lor i
Ġ48 7
Ġ47 2
79 59
ĠDel ph
ĠCharles ton
ĠID F
rad or
Ġsam ba
ĠEll ison
ĠQN CN
ĠPai ge
ĠGw yneth
ĠElis ab
O W
l ass
n Ãºt
t c
Ġc ookie
ĠT ÃĻNG
Ġx um
ĠV AC
ch am
Ġho áº¯t
ĠR ise
ĠX NC
ĠE D
ĠE ps
ĠF lint
ĠJ C
Ġ18 63
Ġá»¦ Y
ĠRe za
Ġa x
ĠMai con
ĠZ ig
Ġi S
ĠSh inh
EA M
ĠIS P
ĠAs iana
78 8
ĠlÃŃ p
ĠCom ic
PC I
ĠAc id
ĠSil ent
ĠFlor a
ĠNav arro
ĠBT L
Ġbus iness
Ġsp ot
ĠHH HV
ĠLor enz
ĠGood man
Ġpen thouse
thu áº¿
ĠDir k
ĠKTS TQ
ĠBeg ovic
ĠBast ion
ĠPolyn esia
G reen
M ade
U M
U NDP
b áº«y
Ġv ector
Ġl Ã¬n
Ġtr Ã©t
Ã´ á»ī
ĠT á»¥ng
Ġhá» ı
ĠÄĲ Ã¡i
ĠM andal
ĠP CM
ĠP ug
ĠPh ra
Ġ6 99
Ġca ve
Ġ18 61
eb s
ĠVi g
Ġly copene
ec tin
Tr iá»ĥn
Ġráº» o
ĠPl ate
Ġco up
ĠWal sh
ĠVal entina
OT O
ĠMark s
ĠTho Ã¡ng
ĠPan igale
ĠKo en
ĠSel ina
ĠDem ichelis
ĠPetro bras
ement s
ĠSul u
ĠCharl ton
gs uban
ĠEsc ape
ĠMev lut
Ġmilig am
6 68
B áº±ng
b Ã³c
g ill
m oi
v iz
Ġc ry
Ġm Ã³m
ĠC IC
ĠÄĲ TV
ĠV ander
ĠS ÄĲT
ĠS MA
ĠP I
ĠD v
ĠG erry
al ore
ĠR á»±c
ĠQu ao
ĠF ib
at imes
hi ri
ic ol
Ġ9 15
it el
ĠSau nders
ad u
ĠVi hear
ck ing
ĠGD VN
Ġsu pport
ĠApp s
Ġngá»¥ a
ĠAf ric
38 2
gen y
ĠMid night
ĠSanch es
rat ti
Vin ashin
ĠReb el
ĠAer ospace
ĠColl agen
ĠJov etic
Ġclin ker
H am
V F
c ino
d ick
g uez
m Å©i
z illa
nh u
Ġv ote
Ġm ol
Ġs or
ĠN ath
ĠC Å©
Ġx ang
ĠB ui
ĠB QP
ĠG MC
ĠÃ ĸ
ĠR akh
il ov
ND T
ĠRe gg
ĠNew found
ub ank
EA S
ĠLo c
ĠPl Ã´ng
ĠTim o
ĠKr am
ĠCT D
ĠWe ather
ĠTan ya
br and
ĠNorth ern
ĠBut ton
bu ild
nhe imer
ĠHank s
ĠMarch isio
KN CM
Ġcaffe in
Ġ043 7959
Ġorgan ic
ĠLÃĥ NH
ĠOw ens
ĠNU ÃĶI
ĠJour ney
ĠStras bourg
Ġ0437959 783
A f
R Ãµ
b á»ĳn
h Ãª
k ata
t ÃŃch
à ¤
Ġ att
Ġl ear
Ġh áºµng
Ġb ra
Ġnh ÃŃt
ĠT áº£ng
ĠH ave
ĠB aku
ĠM ÃŃch
ĠL á»ĺC
ĠS ÃŃn
ĠS ome
ĠK Q
ĠA va
ĠG yl
ĠKh rush
ia k
Ġtháº¿ p
ÄĲ ÄĲK
ĠÃģ vila
Ġ18 30
19 25
ĠAr cher
ĠAr mand
30 4
ez h
ĠCl or
ĠCo up
ĠSH INee
38 9
Ġnho áº»n
34 4
ĠDel uxe
ĠGT ÄĲB
ĠNHTM CP
NS T
ĠDeng ue
ĠBritt any
B K
B i
C Äĥn
D a
P CTN
b inh
d áº«n
s oi
Ġs oÃłi
ĠC Ã£i
Ġx yl
Ġr oll
ĠV G
ĠV odka
ĠV THK
ch á»ĳt
in ski
ĠHÃł u
ĠF N
Ġban ner
ĠY or
ĠAn war
ig ma
ĠMal aya
ĠAir Pod
ĠRo che
ĠAP S
Ġ44 9
ĠKi wi
ĠCO M
ĠDes c
ĠDes p
ĠHel p
ĠMak er
ĠGCN KNCM
onn aise
ĠThorn ton
ĠPenins ula
M á»Ľi
S áº£n
b ody
r á»ĳc
Ġd Ã¡y
ĠV os
ĠM ent
ĠS ino
ĠCh áº¯p
au a
ĠG oth
ĠG atsby
ĠU X
im Ã©t
ÄĲ Äĥk
Ġso und
ĠJ enna
ĠVN I
ĠBa xter
ĠNew man
az u
ind or
ĠSal monella
ĠClin t
ons an
ĠSteph ens
ĠSub oi
ĠTar get
ĠImp ossible
Ġwhi sky
ahi d
ĠOct av
ĠNewfound land
4 01
A mer
T or
b iÃªn
c á»Ļng
s es
Ð ´
nh Ã¡i
Ġm ot
Ġm edia
Ġkh áº¡o
ĠT á»³
ang or
ĠP ipp
ĠA PT
ĠR Ã´m
Ġ6 29
ĠBan i
Ġdi g
tr ep
Äĳ u
ĠSh asta
25 8
ug u
ĠAP O
Ġ65 2
ĠId ea
05 4
CA CAF
ĠMed ell
ĠAbd eslam
ĠÄĲá»ĩ m
ĠGra v
ĠPhÃŃ m
ĠFil ip
ĠDag estan
ĠSchur rle
ĠTsarna ev
0 37
A z
E ng
c ode
f man
k iá»ĥu
Ġb Æ°Æ¡m
ĠT SN
Ġr ed
ĠV Ã¡c
ĠM oi
ĠKh inh
Ġ5 37
ĠI JC
Ġ6 88
Ġ18 92
eb an
ĠRe aper
ĠSt ra
30 6
ĠSu g
ĠGr ind
ho c
ĠMat eo
ĠBo z
28 2
ĠHe ights
ĠMas ha
ĠNV L
ĠHaw kins
ĠHyun A
ĠVik ram
ĠTU á»ĶI
ĠWins let
ĠMn ang
ĠADS L
ĠShev chenko
Ġvers ion
3 24
7 45
K O
Ġv Ã£nh
Ġl Æ¡n
Ġk eng
Ġkh Æ°á»Ľt
Ãª Ãº
qu ila
ĠN al
ĠC á»Ĳ
ĠB aines
ĠV á»«ng
ch á»¯a
ĠM á»©t
ay ashi
ĠD yn
ĠÄĳá»§ ng
un o
Ġ17 89
ĠEm ilia
ut th
te y
ĠInter n
ĠbÃ¹ m
ĠAnd riy
ĠAm i
60 8
ĠTu lip
ĠBÄĲ N
ĠStr ait
Ġ63 2
ĠTor o
ĠVer ratti
bor o
ĠFar go
idd le
ĠDir ector
ĠÎ ¼
ĠBing ley
ĠJY J
ĠYaz idi
ĠPalt row
E d
L Ãªn
M ad
T ur
X N
c Ã¢n
f ram
Ġd ella
ĠC á»įp
ĠV ostok
ĠL Ã©
ĠPh in
al ta
ĠR ennes
ĠI ND
ĠHo loc
ĠJ ie
um oto
ĠGD PT
ank ham
ĠPr at
46 5
Ġ63 9
ĠHD B
ĠTO W
ĠDen ilson
Ġel o
ĠZum walt
ĠDud ley
ĠAlme ida
6 65
7 99
B iáº¿t
b ing
l Ã¡i
m á»ģm
r ena
Ġ ak
Ġl evel
Ġb rom
Ġtr Ã¹n
ĠT á»¥y
ĠC BCÄĲ
ĠB ose
ĠÄĲ ANG
ĠV and
ĠV ass
ĠM Æ°á»Ľp
Ã¡n dez
ĠNh áºŃu
ĠD aryl
ĠW ere
ĠO ppe
ĠO oh
th Æ°
Ġ50 9
re f
ĠZ ob
ĠSh ine
ĠSh eng
ev ille
Ch Ãło
24 1
ate ch
ĠCo ch
Ġ44 4
Ġj o
Ġ58 8
ĠMe azza
ĠHO ÃĢN
ĠNad ine
ĠCHá» ®A
ĠYeon pyeong
ĠViv ian
ĠHos sein
Ġsec ond
ĠChop in
ĠTCTC VM
ĠIzvest ia
ĠOus mane
W alter
m ac
Ġkh á»ĥnh
ĠV ito
ĠTh Æ°á»£c
ĠL á»įt
ĠP AR
ĠR V
Ġ5 31
Ġ10 20
ĠY áº¾U
ĠO ua
ot hi
ab en
Ġf ast
ĠSh aun
ell ar
ĠCar m
ĠPr et
gi áº¥u
Ġ55 3
29 3
ĠPer es
ĠStr ip
Ġst icker
ĠVIá»Ĩ N
ĠÄĲá»ĺ C
ĠAlc atel
ĠRC EP
ĠYoshihi ko
5 99
C PTPP
D onald
F ood
H Ãłm
M u
g Ã³p
h m
p ei
r ikh
v ip
Ġh t
Ġh iá»ģu
ĠN áº¯p
Ġr eview
ĠB li
ĠV ÃĤN
ĠM Ã³c
á»ı n
ĠU DD
Ġ5 79
im on
ĠX Äĥm
ol en
ur l
ad ay
le an
ĠÄĳÃ´ ÃŃ
ĠLe af
Ġp ix
19 40
ĠZ aha
ou ble
Ġ70 5
Ġ80 5
CS U
70 5
[...]
